<pad>	0
<unk>	0
<s>	0
</s>	0
▁t	-0
▁i	-1
he	-2
▁a	-3
▁to	-4
▁w	-5
ou	-6
re	-7
▁s	-8
ha	-9
▁d	-10
▁y	-11
▁m	-12
in	-13
▁you	-14
▁the	-15
nt	-16
▁tom	-17
▁b	-18
ve	-19
▁c	-20
▁l	-21
on	-22
▁f	-23
ing	-24
▁do	-25
ed	-26
hat	-27
▁is	-28
is	-29
▁p	-30
ll	-31
er	-32
or	-33
▁n	-34
▁wa	-35
▁g	-36
▁ha	-37
ar	-38
▁he	-39
▁h	-40
st	-41
an	-42
ow	-43
▁th	-44
▁that	-45
en	-46
▁o	-47
▁we	-48
me	-49
it	-50
ot	-51
at	-52
le	-53
id	-54
▁e	-55
▁be	-56
▁it	-57
▁in	-58
ke	-59
ay	-60
▁an	-61
ld	-62
se	-63
▁of	-64
oo	-65
▁was	-66
ver	-67
es	-68
▁li	-69
▁me	-70
▁have	-71
ic	-72
▁k	-73
▁st	-74
▁this	-75
et	-76
▁u	-77
gh	-78
▁my	-79
▁on	-80
▁re	-81
▁are	-82
▁ne	-83
▁im	-84
ome	-85
▁what	-86
▁dont	-87
▁did	-88
ch	-89
al	-90
▁your	-91
▁kn	-92
▁for	-93
ght	-94
▁wh	-95
ri	-96
▁go	-97
ro	-98
▁ca	-99
ad	-100
ary	-101
▁know	-102
ould	-103
ly	-104
very	-105
▁want	-106
out	-107
▁like	-108
her	-109
▁not	-110
one	-111
▁mary	-112
ir	-113
ac	-114
ut	-115
▁se	-116
▁can	-117
▁at	-118
ill	-119
▁r	-120
ook	-121
pp	-122
▁co	-123
▁wit	-124
▁with	-125
th	-126
ink	-127
ust	-128
▁whe	-129
ion	-130
ter	-131
▁as	-132
▁his	-133
▁sh	-134
▁she	-135
▁how	-136
▁and	-137
▁j	-138
ea	-139
▁were	-140
ur	-141
▁there	-142
all	-143
ce	-144
nd	-145
▁any	-146
ain	-147
im	-148
▁sa	-149
▁ab	-150
▁think	-151
ry	-152
▁al	-153
▁some	-154
▁ti	-155
ake	-156
▁has	-157
as	-158
▁its	-159
▁wor	-160
▁su	-161
▁all	-162
▁didnt	-163
ore	-164
thing	-165
▁need	-166
▁here	-167
op	-168
end	-169
ood	-170
ost	-171
▁does	-172
▁te	-173
▁so	-174
ct	-175
▁who	-176
▁sp	-177
han	-178
▁very	-179
ge	-180
▁no	-181
▁pl	-182
us	-183
▁get	-184
day	-185
ble	-186
▁they	-187
▁time	-188
▁why	-189
il	-190
▁every	-191
▁tr	-192
▁about	-193
▁cant	-194
▁us	-195
ive	-196
ast	-197
▁look	-198
ong	-199
fe	-200
un	-201
red	-202
▁going	-203
▁will	-204
ally	-205
▁youre	-206
ight	-207
▁up	-208
ist	-209
ind	-210
▁ch	-211
▁see	-212
and	-213
▁ex	-214
▁where	-215
▁him	-216
ren	-217
ul	-218
▁hel	-219
qu	-220
rom	-221
▁would	-222
▁help	-223
▁man	-224
ought	-225
▁had	-226
▁out	-227
ree	-228
▁de	-229
▁happ	-230
▁fe	-231
▁ye	-232
▁lo	-233
dy	-234
▁than	-235
▁let	-236
ase	-237
ate	-238
▁good	-239
ays	-240
king	-241
▁too	-242
am	-243
▁isnt	-244
▁one	-245
ss	-246
ers	-247
▁ill	-248
ent	-249
▁could	-250
ack	-251
▁eat	-252
our	-253
ous	-254
ice	-255
▁live	-256
row	-257
▁now	-258
ish	-259
▁ive	-260
▁from	-261
▁when	-262
▁toms	-263
ep	-264
▁her	-265
▁car	-266
other	-267
▁ple	-268
art	-269
ia	-270
▁home	-271
ite	-272
▁mu	-273
▁if	-274
▁just	-275
uy	-276
▁said	-277
ie	-278
ap	-279
mp	-280
▁qu	-281
▁le	-282
bo	-283
▁work	-284
▁should	-285
▁cl	-286
▁af	-287
el	-288
▁never	-289
▁en	-290
▁int	-291
▁book	-292
▁please	-293
▁pro	-294
riend	-295
▁doesnt	-296
if	-297
▁tell	-298
▁come	-299
▁thats	-300
ine	-301
▁or	-302
▁id	-303
lf	-304
▁love	-305
▁ag	-306
▁really	-307
▁by	-308
▁much	-309
▁pe	-310
ked	-311
▁got	-312
ral	-313
ol	-314
▁been	-315
▁pre	-316
▁am	-317
ra	-318
▁v	-319
body	-320
▁aust	-321
▁austral	-322
▁australia	-323
oston	-324
▁boston	-325
ound	-326
▁lot	-327
▁tal	-328
▁stu	-329
mb	-330
ig	-331
▁wr	-332
ather	-333
ation	-334
▁more	-335
▁many	-336
▁fren	-337
▁french	-338
▁but	-339
▁read	-340
▁today	-341
▁take	-342
▁something	-343
▁wo	-344
orrow	-345
▁mo	-346
oney	-347
▁off	-348
ort	-349
▁dr	-350
ck	-351
ard	-352
ouse	-353
ars	-354
ning	-355
▁new	-356
▁make	-357
ess	-358
▁money	-359
▁ri	-360
ag	-361
▁back	-362
▁long	-363
▁happen	-364
▁br	-365
▁ar	-366
▁bo	-367
▁lea	-368
▁three	-369
ool	-370
▁well	-371
▁anything	-372
▁play	-373
▁told	-374
▁day	-375
▁house	-376
oom	-377
▁spea	-378
▁thought	-379
ame	-380
▁still	-381
▁pr	-382
ild	-383
nder	-384
▁sm	-385
▁friend	-386
ant	-387
▁exp	-388
hed	-389
▁stay	-390
ople	-391
▁last	-392
▁people	-393
▁whats	-394
os	-395
ect	-396
▁ke	-397
ang	-398
ue	-399
▁under	-400
▁tw	-401
▁say	-402
▁old	-403
▁con	-404
▁tomorrow	-405
▁may	-406
au	-407
itt	-408
▁bl	-409
▁fa	-410
▁un	-411
▁mad	-412
▁our	-413
▁sw	-414
ried	-415
▁bus	-416
▁call	-417
ty	-418
urn	-419
▁bet	-420
▁speak	-421
▁went	-422
able	-423
ass	-424
▁feel	-425
▁buy	-426
ount	-427
▁op	-428
ways	-429
▁always	-430
▁give	-431
▁right	-432
▁wait	-433
▁dog	-434
▁room	-435
▁hes	-436
est	-437
ond	-438
act	-439
ide	-440
ther	-441
are	-442
▁jo	-443
ster	-444
▁comp	-445
▁doing	-446
age	-447
▁leave	-448
▁sch	-449
wn	-450
▁only	-451
ick	-452
▁fl	-453
▁child	-454
leep	-455
self	-456
ving	-457
ough	-458
▁ad	-459
▁made	-460
▁school	-461
▁po	-462
hing	-463
iss	-464
read	-465
▁app	-466
ure	-467
▁bel	-468
▁lets	-469
get	-470
▁ac	-471
▁wasnt	-472
sterday	-473
▁yesterday	-474
ose	-475
▁again	-476
ach	-477
iz	-478
▁plan	-479
▁water	-480
▁cat	-481
▁wont	-482
ft	-483
ict	-484
▁sc	-485
▁father	-486
▁theres	-487
ace	-488
▁happy	-489
ies	-490
▁wat	-491
▁wanted	-492
pt	-493
ave	-494
▁dis	-495
▁underst	-496
▁drink	-497
▁talk	-498
▁count	-499
▁way	-500
▁aw	-501
▁these	-502
▁over	-503
▁better	-504
▁two	-505
ich	-506
▁bot	-507
▁har	-508
▁understand	-509
ten	-510
▁ear	-511
▁care	-512
▁after	-513
irst	-514
▁bought	-515
mber	-516
ek	-517
ress	-518
ieve	-519
▁turn	-520
▁night	-521
blem	-522
▁hat	-523
▁gr	-524
▁di	-525
▁must	-526
▁open	-527
▁problem	-528
▁bec	-529
▁saw	-530
▁left	-531
▁yet	-532
▁week	-533
▁chan	-534
ity	-535
▁hand	-536
▁try	-537
▁everything	-538
ab	-539
vor	-540
▁nothing	-541
▁put	-542
estion	-543
▁believe	-544
▁ever	-545
▁watch	-546
▁question	-547
▁gl	-548
▁guy	-549
▁other	-550
▁rain	-551
▁hard	-552
xt	-553
raid	-554
▁afraid	-555
▁knows	-556
ian	-557
▁sk	-558
fore	-559
▁gir	-560
▁hop	-561
gry	-562
▁sleep	-563
ming	-564
rest	-565
▁thing	-566
▁before	-567
▁down	-568
▁friends	-569
gl	-570
▁start	-571
▁dri	-572
▁wal	-573
ult	-574
ated	-575
▁years	-576
ready	-577
▁already	-578
▁used	-579
ew	-580
sp	-581
ven	-582
▁favor	-583
▁children	-584
cid	-585
ffe	-586
▁find	-587
ile	-588
ory	-589
▁ask	-590
ak	-591
man	-592
▁ph	-593
▁imp	-594
▁mar	-595
▁door	-596
▁stop	-597
▁dif	-598
▁fam	-599
▁arent	-600
▁sure	-601
▁alone	-602
ting	-603
▁hur	-604
▁came	-605
▁first	-606
▁often	-607
▁into	-608
▁part	-609
▁everyone	-610
ath	-611
▁cold	-612
▁next	-613
ful	-614
ittle	-615
▁little	-616
▁sn	-617
▁sho	-618
▁keep	-619
▁che	-620
▁fin	-621
▁brother	-622
ious	-623
▁tea	-624
▁late	-625
▁wants	-626
ved	-627
▁inte	-628
▁seen	-629
ily	-630
▁hope	-631
▁seem	-632
▁sing	-633
▁gre	-634
▁swim	-635
▁boy	-636
▁both	-637
▁done	-638
▁likes	-639
▁knew	-640
▁name	-641
▁mother	-642
▁happened	-643
▁lear	-644
▁coffe	-645
▁stud	-646
les	-647
▁idea	-648
▁them	-649
▁str	-650
▁show	-651
▁wear	-652
▁enough	-653
hes	-654
ses	-655
▁away	-656
wer	-657
▁asked	-658
▁fi	-659
▁list	-660
ng	-661
ance	-662
▁ans	-663
▁coffee	-664
mer	-665
ence	-666
▁favorite	-667
nts	-668
▁bad	-669
▁life	-670
ull	-671
▁wrong	-672
▁interest	-673
aut	-674
▁gave	-675
▁guys	-676
▁big	-677
▁bre	-678
▁cle	-679
▁meet	-680
▁looks	-681
▁ro	-682
▁lost	-683
▁beaut	-684
▁fo	-685
▁engl	-686
▁found	-687
▁anyone	-688
▁couldnt	-689
▁wond	-690
ark	-691
erv	-692
fic	-693
▁hear	-694
▁job	-695
ually	-696
apan	-697
▁per	-698
ise	-699
▁mor	-700
▁ten	-701
▁use	-702
▁japan	-703
be	-704
um	-705
ail	-706
ible	-707
▁pers	-708
▁thank	-709
▁country	-710
co	-711
▁beautif	-712
▁ow	-713
▁bro	-714
▁fun	-715
▁mus	-716
▁soon	-717
▁english	-718
ered	-719
rist	-720
ti	-721
▁teac	-722
gg	-723
igh	-724
▁eas	-725
▁smo	-726
▁christ	-727
▁beautiful	-728
most	-729
▁study	-730
▁morning	-731
mas	-732
pit	-733
ment	-734
sent	-735
▁miss	-736
▁true	-737
▁almost	-738
▁everybody	-739
▁hot	-740
▁able	-741
▁train	-742
cle	-743
▁pol	-744
▁sur	-745
▁wind	-746
▁answer	-747
▁listen	-748
▁wonder	-749
▁christmas	-750
ket	-751
▁same	-752
▁tired	-753
pped	-754
▁bir	-755
pital	-756
▁best	-757
irt	-758
▁light	-759
ister	-760
▁pret	-761
▁busy	-762
▁says	-763
ife	-764
ted	-765
▁ey	-766
ange	-767
▁havent	-768
▁teacher	-769
itc	-770
▁el	-771
ited	-772
▁att	-773
▁des	-774
▁snow	-775
▁took	-776
▁war	-777
▁student	-778
osed	-779
▁run	-780
▁kind	-781
▁youve	-782
▁nobody	-783
▁without	-784
▁kid	-785
▁learn	-786
▁person	-787
ip	-788
erg	-789
ctor	-790
▁cont	-791
▁heard	-792
▁table	-793
ream	-794
▁beg	-795
▁win	-796
▁theyre	-797
ons	-798
ished	-799
▁reme	-800
▁music	-801
▁eating	-802
▁bed	-803
▁free	-804
▁their	-805
▁talking	-806
▁books	-807
▁might	-808
▁looking	-809
▁far	-810
▁food	-811
▁lives	-812
ans	-813
▁hun	-814
▁marys	-815
▁another	-816
▁married	-817
cer	-818
▁bu	-819
▁which	-820
▁family	-821
▁sl	-822
▁tv	-823
▁red	-824
aking	-825
▁year	-826
ised	-827
▁pen	-828
▁sto	-829
▁hour	-830
ank	-831
▁young	-832
▁remember	-833
▁else	-834
▁mist	-835
▁looked	-836
▁fast	-837
▁fish	-838
▁pain	-839
▁sister	-840
▁wouldnt	-841
▁cu	-842
orry	-843
▁sha	-844
▁sorry	-845
▁wearing	-846
wor	-847
▁gu	-848
▁min	-849
▁sec	-850
▁forg	-851
▁hair	-852
ater	-853
llow	-854
▁cha	-855
▁girl	-856
▁kill	-857
▁whos	-858
▁letter	-859
▁own	-860
▁break	-861
▁needs	-862
anger	-863
▁wheres	-864
▁someone	-865
ens	-866
ably	-867
▁nerv	-868
▁allerg	-869
▁nervous	-870
side	-871
▁met	-872
▁wish	-873
▁hungry	-874
▁vis	-875
▁died	-876
▁rest	-877
▁present	-878
▁allergic	-879
angu	-880
▁lau	-881
▁langu	-882
▁phone	-883
pe	-884
ign	-885
▁even	-886
ock	-887
arents	-888
▁doctor	-889
een	-890
orn	-891
▁prob	-892
▁youll	-893
▁getting	-894
▁mistake	-895
og	-896
uth	-897
▁cry	-898
night	-899
▁walk	-900
▁probably	-901
ps	-902
lain	-903
▁weve	-904
▁things	-905
oy	-906
▁mov	-907
▁supp	-908
▁parents	-909
more	-910
▁those	-911
▁window	-912
▁anymore	-913
ru	-914
▁pa	-915
atter	-916
pr	-917
▁act	-918
▁pay	-919
▁easy	-920
▁world	-921
ries	-922
▁cook	-923
▁flow	-924
▁mine	-925
▁pict	-926
gether	-927
▁around	-928
▁anybody	-929
▁picture	-930
▁together	-931
oc	-932
▁hu	-933
▁each	-934
▁nice	-935
▁lived	-936
om	-937
der	-938
iction	-939
▁drive	-940
▁shes	-941
ts	-942
ilk	-943
▁days	-944
▁place	-945
▁danger	-946
ds	-947
▁being	-948
▁party	-949
ause	-950
▁bit	-951
▁mind	-952
▁coming	-953
▁diffic	-954
aper	-955
ball	-956
▁eyes	-957
▁most	-958
▁nu	-959
irty	-960
▁few	-961
▁hate	-962
cident	-963
nth	-964
▁ju	-965
▁ago	-966
▁air	-967
▁minut	-968
▁tonight	-969
ors	-970
ote	-971
▁near	-972
▁pass	-973
▁tele	-974
▁maybe	-975
▁forgot	-976
▁because	-977
▁playing	-978
icy	-979
cess	-980
▁ate	-981
▁mon	-982
med	-983
ared	-984
▁sat	-985
ision	-986
▁milk	-987
▁grand	-988
▁expect	-989
▁police	-990
▁pretty	-991
▁diction	-992
▁reading	-993
▁ice	-994
▁res	-995
aught	-996
▁beer	-997
▁wine	-998
▁early	-999
▁turned	-1000
00	-1001
cl	-1002
ize	-1003
▁ho	-1004
▁youd	-1005
▁clean	-1006
▁shoes	-1007
▁small	-1008
▁truth	-1009
▁accident	-1010
▁difficult	-1011
ger	-1012
port	-1013
▁sit	-1014
▁sun	-1015
▁poss	-1016
▁loves	-1017
▁tried	-1018
▁import	-1019
br	-1020
ves	-1021
alth	-1022
ense	-1023
▁started	-1024
ied	-1025
ken	-1026
▁month	-1027
ese	-1028
ner	-1029
▁close	-1030
▁trust	-1031
▁usually	-1032
ince	-1033
work	-1034
▁seems	-1035
▁write	-1036
▁working	-1037
▁questions	-1038
ci	-1039
ber	-1040
ced	-1041
▁adv	-1042
▁prom	-1043
▁dress	-1044
▁ready	-1045
▁surpr	-1046
▁called	-1047
▁meeting	-1048
▁cut	-1049
▁rel	-1050
▁sick	-1051
▁waiting	-1052
lt	-1053
oud	-1054
▁egg	-1055
▁story	-1056
▁dictionary	-1057
ating	-1058
▁real	-1059
▁broke	-1060
sh	-1061
▁ski	-1062
▁arri	-1063
▁angry	-1064
▁forget	-1065
▁la	-1066
▁hos	-1067
▁park	-1068
▁himself	-1069
▁station	-1070
▁hospital	-1071
hen	-1072
lic	-1073
uck	-1074
▁ve	-1075
here	-1076
▁com	-1077
▁wife	-1078
▁decid	-1079
▁diffe	-1080
ert	-1081
▁key	-1082
▁son	-1083
▁fire	-1084
▁rich	-1085
▁quite	-1086
▁yourself	-1087
ret	-1088
ying	-1089
▁sound	-1090
ph	-1091
time	-1092
▁din	-1093
▁end	-1094
▁unt	-1095
▁bicy	-1096
▁head	-1097
▁later	-1098
lfriend	-1099
▁longer	-1100
▁myself	-1101
▁decided	-1102
nis	-1103
cept	-1104
▁mean	-1105
▁class	-1106
▁health	-1107
▁tennis	-1108
▁girlfriend	-1109
ier	-1110
vers	-1111
▁bag	-1112
▁blue	-1113
▁fact	-1114
▁hours	-1115
▁while	-1116
▁flowers	-1117
▁homework	-1118
▁important	-1119
izz	-1120
▁ru	-1121
▁inv	-1122
▁sent	-1123
▁hands	-1124
▁stand	-1125
▁interested	-1126
te	-1127
fast	-1128
▁cost	-1129
▁once	-1130
▁living	-1131
▁bicycle	-1132
▁shouldve	-1133
▁breakfast	-1134
oon	-1135
▁ob	-1136
gest	-1137
▁spe	-1138
▁felt	-1139
▁full	-1140
▁chang	-1141
ix	-1142
▁city	-1143
▁fell	-1144
▁such	-1145
▁hurry	-1146
▁times	-1147
▁works	-1148
▁number	-1149
▁ass	-1150
▁kiss	-1151
▁black	-1152
▁shirt	-1153
▁dinner	-1154
▁trying	-1155
air	-1156
app	-1157
uts	-1158
▁col	-1159
▁ent	-1160
▁rem	-1161
▁dogs	-1162
▁kitc	-1163
▁birth	-1164
▁exact	-1165
▁kitchen	-1166
ib	-1167
als	-1168
aur	-1169
▁ter	-1170
▁coll	-1171
▁eggs	-1172
oin	-1173
▁lar	-1174
▁tall	-1175
ensive	-1176
▁great	-1177
▁matter	-1178
▁finished	-1179
▁ap	-1180
ason	-1181
mmer	-1182
▁makes	-1183
▁since	-1184
▁woman	-1185
▁helped	-1186
▁language	-1187
▁watching	-1188
▁dangerous	-1189
ions	-1190
unch	-1191
▁adm	-1192
spect	-1193
▁pizz	-1194
▁movie	-1195
▁asleep	-1196
▁borrow	-1197
▁monday	-1198
▁office	-1199
▁expensive	-1200
gn	-1201
rect	-1202
▁dec	-1203
▁ele	-1204
▁cats	-1205
aurant	-1206
▁killed	-1207
▁possible	-1208
▁restaurant	-1209
mbre	-1210
▁ref	-1211
▁spo	-1212
▁doll	-1213
▁rece	-1214
▁reco	-1215
▁chance	-1216
▁orange	-1217
▁thirty	-1218
▁z	-1219
joy	-1220
ical	-1221
less	-1222
ross	-1223
▁swe	-1224
▁tre	-1225
▁fore	-1226
▁gard	-1227
▁hurt	-1228
▁tast	-1229
mbrell	-1230
▁enjoy	-1231
▁until	-1232
▁umbrell	-1233
▁japanese	-1234
ple	-1235
▁cup	-1236
▁sug	-1237
▁game	-1238
▁wrote	-1239
▁change	-1240
▁garden	-1241
ax	-1242
anc	-1243
used	-1244
▁cau	-1245
▁born	-1246
▁clot	-1247
▁mess	-1248
▁sell	-1249
▁begin	-1250
▁spend	-1251
▁became	-1252
▁disapp	-1253
▁stayed	-1254
▁exactly	-1255
▁whether	-1256
▁supposed	-1257
▁swimming	-1258
cu	-1259
em	-1260
led	-1261
hind	-1262
▁eve	-1263
▁med	-1264
▁ser	-1265
ative	-1266
▁smoke	-1267
▁white	-1268
▁behind	-1269
▁interesting	-1270
ff	-1271
ages	-1272
ward	-1273
▁five	-1274
▁song	-1275
▁drank	-1276
▁short	-1277
▁smoking	-1278
ord	-1279
▁six	-1280
asses	-1281
ience	-1282
▁high	-1283
▁pian	-1284
▁laugh	-1285
▁pizza	-1286
▁whose	-1287
▁thinks	-1288
orm	-1289
ates	-1290
eric	-1291
▁box	-1292
▁conf	-1293
▁quit	-1294
▁americ	-1295
▁birthday	-1296
▁shouldnt	-1297
▁sometime	-1298
ire	-1299
tle	-1300
ighb	-1301
ject	-1302
ured	-1303
ither	-1304
▁hell	-1305
▁allow	-1306
▁apple	-1307
▁canad	-1308
▁dream	-1309
▁neighb	-1310
▁feeling	-1311
ient	-1312
▁hit	-1313
ately	-1314
where	-1315
▁dark	-1316
▁glad	-1317
▁itll	-1318
▁safe	-1319
▁word	-1320
▁bread	-1321
▁river	-1322
▁veget	-1323
▁visit	-1324
▁making	-1325
▁strange	-1326
▁ok	-1327
▁add	-1328
▁fro	-1329
▁hor	-1330
▁men	-1331
▁tou	-1332
▁face	-1333
▁gone	-1334
▁bring	-1335
▁glass	-1336
▁proud	-1337
▁follow	-1338
▁scared	-1339
▁thanks	-1340
▁careful	-1341
▁clothes	-1342
▁students	-1343
io	-1344
▁cake	-1345
▁kids	-1346
▁hotel	-1347
▁lunch	-1348
▁trave	-1349
▁needed	-1350
▁outside	-1351
▁umbrella	-1352
cil	-1353
per	-1354
▁ce	-1355
room	-1356
▁die	-1357
▁foot	-1358
▁then	-1359
▁writ	-1360
vision	-1361
▁earth	-1362
▁concer	-1363
▁daught	-1364
▁having	-1365
▁opened	-1366
▁pencil	-1367
▁minutes	-1368
▁television	-1369
ny	-1370
ned	-1371
ush	-1372
nted	-1373
▁rep	-1374
▁sol	-1375
▁suc	-1376
▁dead	-1377
▁piano	-1378
▁comput	-1379
▁strong	-1380
▁stopped	-1381
▁fr	-1382
ored	-1383
▁set	-1384
▁goes	-1385
▁sund	-1386
▁eaten	-1387
▁yours	-1388
▁comple	-1389
iet	-1390
ike	-1391
ched	-1392
oice	-1393
▁pur	-1394
ouble	-1395
▁older	-1396
▁apples	-1397
dd	-1398
unk	-1399
olog	-1400
rent	-1401
▁par	-1402
▁reg	-1403
▁fall	-1404
▁prot	-1405
▁tree	-1406
▁color	-1407
▁death	-1408
▁explain	-1409
so	-1410
iled	-1411
mell	-1412
▁bab	-1413
▁also	-1414
▁base	-1415
▁paper	-1416
▁smell	-1417
▁capital	-1418
pid	-1419
▁ext	-1420
▁pie	-1421
▁bath	-1422
▁hasnt	-1423
▁terri	-1424
▁accept	-1425
▁closed	-1426
▁rather	-1427
▁weather	-1428
de	-1429
ots	-1430
ume	-1431
▁cr	-1432
ison	-1433
noon	-1434
reet	-1435
▁hid	-1436
▁law	-1437
▁ran	-1438
▁thr	-1439
▁coat	-1440
▁paid	-1441
▁town	-1442
▁wall	-1443
▁began	-1444
▁fight	-1445
▁pract	-1446
▁trans	-1447
▁broken	-1448
▁stupid	-1449
▁arrived	-1450
▁complain	-1451
▁complete	-1452
▁drinking	-1453
▁afternoon	-1454
ilt	-1455
raw	-1456
ling	-1457
▁pop	-1458
phone	-1459
▁comm	-1460
▁cons	-1461
▁grow	-1462
▁luck	-1463
▁slow	-1464
itting	-1465
▁lying	-1466
▁worth	-1467
▁through	-1468
▁surprised	-1469
ized	-1470
clock	-1471
▁cert	-1472
▁past	-1473
▁caught	-1474
▁summer	-1475
▁changed	-1476
▁protect	-1477
▁somebody	-1478
▁studying	-1479
zy	-1480
uro	-1481
vel	-1482
ocol	-1483
outh	-1484
▁age	-1485
▁hed	-1486
▁euro	-1487
▁gold	-1488
▁kept	-1489
▁meat	-1490
▁send	-1491
▁team	-1492
▁agree	-1493
▁clear	-1494
▁comes	-1495
▁cream	-1496
▁store	-1497
▁become	-1498
▁chocol	-1499
▁oclock	-1500
▁second	-1501
▁street	-1502
▁weight	-1503
▁certain	-1504
▁trouble	-1505
▁sometimes	-1506
▁rad	-1507
▁sal	-1508
▁desk	-1509
▁gets	-1510
▁libr	-1511
▁thre	-1512
▁beach	-1513
▁quick	-1514
▁taking	-1515
▁serious	-1516
cks	-1517
men	-1518
usb	-1519
▁art	-1520
▁fix	-1521
▁ord	-1522
▁dent	-1523
▁half	-1524
▁mome	-1525
▁shut	-1526
usband	-1527
▁knife	-1528
▁quiet	-1529
▁factory	-1530
▁chocolate	-1531
bb	-1532
du	-1533
▁ty	-1534
▁cal	-1535
▁dro	-1536
rence	-1537
▁anim	-1538
▁baby	-1539
▁exam	-1540
▁test	-1541
▁liked	-1542
▁reason	-1543
▁husband	-1544
▁library	-1545
▁canadian	-1546
av	-1547
ator	-1548
ived	-1549
ween	-1550
▁flo	-1551
pping	-1552
father	-1553
friend	-1554
▁exper	-1555
▁green	-1556
▁medic	-1557
▁finish	-1558
▁moment	-1559
▁yellow	-1560
▁between	-1561
▁dollars	-1562
▁sleeping	-1563
▁disappoin	-1564
hn	-1565
▁em	-1566
▁pat	-1567
▁tri	-1568
▁john	-1569
▁pean	-1570
▁wash	-1571
▁catch	-1572
▁drunk	-1573
▁large	-1574
▁orang	-1575
▁others	-1576
▁secret	-1577
▁skiing	-1578
▁speaks	-1579
▁talked	-1580
▁transl	-1581
▁worked	-1582
▁raining	-1583
▁computer	-1584
▁speaking	-1585
ub	-1586
ric	-1587
airs	-1588
fect	-1589
▁dep	-1590
▁lie	-1591
▁vac	-1592
▁won	-1593
itted	-1594
▁char	-1595
▁hold	-1596
▁pref	-1597
▁sunday	-1598
▁planning	-1599
▁boyfriend	-1600
sc	-1601
ces	-1602
cus	-1603
oth	-1604
land	-1605
▁fre	-1606
▁leg	-1607
▁ret	-1608
▁cour	-1609
▁sold	-1610
▁build	-1611
▁clock	-1612
▁crying	-1613
▁famous	-1614
▁oranges	-1615
▁visited	-1616
▁worried	-1617
▁daughter	-1618
▁different	-1619
ash	-1620
haps	-1621
ully	-1622
▁gif	-1623
▁soc	-1624
▁fill	-1625
▁sign	-1626
▁whole	-1627
▁missed	-1628
▁airport	-1629
▁perhaps	-1630
▁baseball	-1631
▁problems	-1632
oof	-1633
cial	-1634
ness	-1635
▁emp	-1636
▁ins	-1637
▁ball	-1638
▁lose	-1639
▁move	-1640
▁phot	-1641
▁order	-1642
▁actually	-1643
ato	-1644
ins	-1645
ste	-1646
cent	-1647
road	-1648
▁cor	-1649
▁heav	-1650
▁less	-1651
▁math	-1652
▁chair	-1653
▁email	-1654
▁juice	-1655
▁radio	-1656
▁either	-1657
▁played	-1658
▁soccer	-1659
▁thirst	-1660
▁weekend	-1661
▁pictures	-1662
az	-1663
any	-1664
int	-1665
▁ir	-1666
iced	-1667
ular	-1668
▁case	-1669
▁joke	-1670
▁inter	-1671
▁seven	-1672
▁spent	-1673
▁choice	-1674
▁quickly	-1675
▁thinking	-1676
▁languages	-1677
ky	-1678
ne	-1679
ton	-1680
▁arm	-1681
▁gun	-1682
▁inf	-1683
▁pri	-1684
▁sim	-1685
▁sub	-1686
fully	-1687
iness	-1688
vered	-1689
▁resp	-1690
▁road	-1691
ressed	-1692
▁elect	-1693
▁plans	-1694
▁worry	-1695
▁europe	-1696
▁lights	-1697
▁saying	-1698
▁suspect	-1699
▁thirsty	-1700
▁mistakes	-1701
ats	-1702
ics	-1703
cked	-1704
ding	-1705
ever	-1706
ended	-1707
▁conv	-1708
▁danc	-1709
▁dance	-1710
▁guess	-1711
▁newsp	-1712
▁smart	-1713
▁socks	-1714
▁touch	-1715
cessary	-1716
▁abroad	-1717
▁advice	-1718
▁likely	-1719
▁return	-1720
▁walked	-1721
▁evening	-1722
▁wouldve	-1723
amp	-1724
dden	-1725
ffic	-1726
ghed	-1727
▁ban	-1728
▁bar	-1729
▁fly	-1730
▁tic	-1731
▁wed	-1732
veral	-1733
▁bank	-1734
▁card	-1735
▁lied	-1736
▁apart	-1737
▁eight	-1738
▁hates	-1739
▁uncle	-1740
▁worse	-1741
▁sudden	-1742
▁several	-1743
▁sitting	-1744
▁learning	-1745
▁grandfather	-1746
lept	-1747
▁ind	-1748
▁pic	-1749
▁fine	-1750
▁post	-1751
itcase	-1752
▁camer	-1753
▁funny	-1754
▁least	-1755
▁sense	-1756
▁women	-1757
▁minute	-1758
▁waited	-1759
▁dancing	-1760
▁dentist	-1761
▁happens	-1762
▁running	-1763
▁suitcase	-1764
not	-1765
▁acc	-1766
▁cra	-1767
▁cur	-1768
▁gar	-1769
▁tra	-1770
ition	-1771
▁lake	-1772
▁sand	-1773
ention	-1774
▁cross	-1775
▁front	-1776
▁heres	-1777
▁noise	-1778
ountain	-1779
▁dishes	-1780
▁movies	-1781
▁america	-1782
▁company	-1783
▁glasses	-1784
▁walking	-1785
▁younger	-1786
▁difference	-1787
ys	-1788
ale	-1789
het	-1790
oub	-1791
rit	-1792
▁ba	-1793
▁je	-1794
ruit	-1795
urch	-1796
▁cla	-1797
▁cow	-1798
▁tax	-1799
▁tie	-1800
▁fair	-1801
▁farm	-1802
▁poor	-1803
▁situ	-1804
▁built	-1805
▁empty	-1806
▁girls	-1807
▁trees	-1808
▁church	-1809
▁ticket	-1810
▁ordered	-1811
▁singing	-1812
▁suggest	-1813
▁building	-1814
▁neighbor	-1815
▁terrible	-1816
sel	-1817
▁av	-1818
▁hi	-1819
▁ra	-1820
▁aff	-1821
▁bur	-1822
▁inc	-1823
▁mur	-1824
vious	-1825
▁bird	-1826
▁inve	-1827
▁news	-1828
▁crazy	-1829
▁extre	-1830
▁words	-1831
▁attack	-1832
▁inside	-1833
▁prefer	-1834
▁prison	-1835
▁slowly	-1836
▁sounds	-1837
▁against	-1838
▁laughed	-1839
▁writing	-1840
▁medicine	-1841
▁completely	-1842
ud	-1843
ual	-1844
ider	-1845
▁fut	-1846
▁mag	-1847
▁tur	-1848
iling	-1849
onest	-1850
▁bill	-1851
▁gift	-1852
▁jump	-1853
▁shop	-1854
▁wake	-1855
▁floor	-1856
▁fruit	-1857
▁press	-1858
▁stole	-1859
▁camera	-1860
▁cannot	-1861
▁showed	-1862
▁winter	-1863
▁allowed	-1864
▁correct	-1865
▁extreme	-1866
▁peanuts	-1867
▁promise	-1868
▁decision	-1869
▁promised	-1870
▁situation	-1871
▁disappointed	-1872
ird	-1873
fort	-1874
ices	-1875
ract	-1876
▁exc	-1877
▁inj	-1878
▁mis	-1879
▁sky	-1880
▁doub	-1881
▁opin	-1882
▁perm	-1883
▁trip	-1884
▁along	-1885
▁known	-1886
▁taste	-1887
▁bottle	-1888
▁contin	-1889
▁future	-1890
▁honest	-1891
▁travel	-1892
▁werent	-1893
▁animals	-1894
▁finally	-1895
▁leaving	-1896
▁obvious	-1897
▁mountain	-1898
▁listening	-1899
aged	-1900
ists	-1901
medi	-1902
ntly	-1903
▁mat	-1904
arian	-1905
▁guit	-1906
▁lawy	-1907
▁ship	-1908
▁wood	-1909
ations	-1910
selves	-1911
▁alive	-1912
▁lucky	-1913
▁immedi	-1914
▁recogn	-1915
▁brought	-1916
▁forward	-1917
▁healthy	-1918
▁learned	-1919
▁shopping	-1920
▁vacation	-1921
▁countries	-1922
ade	-1923
cto	-1924
kyo	-1925
▁sy	-1926
ased	-1927
ened	-1928
▁abs	-1929
▁nor	-1930
▁ris	-1931
▁shy	-1932
atoes	-1933
ility	-1934
uring	-1935
▁dist	-1936
▁expl	-1937
▁four	-1938
▁octo	-1939
▁pick	-1940
▁save	-1941
▁seat	-1942
▁suit	-1943
▁check	-1944
▁delic	-1945
▁price	-1946
▁rules	-1947
▁slept	-1948
▁tokyo	-1949
▁butter	-1950
▁driver	-1951
▁united	-1952
▁october	-1953
▁opinion	-1954
▁telling	-1955
▁brothers	-1956
▁extremely	-1957
▁immediately	-1958
eth	-1959
oup	-1960
ute	-1961
cket	-1962
▁ann	-1963
▁bri	-1964
▁clim	-1965
▁fool	-1966
▁heavy	-1967
▁piece	-1968
▁teach	-1969
▁assume	-1970
▁regret	-1971
▁result	-1972
▁message	-1973
▁patient	-1974
▁perfect	-1975
▁staying	-1976
▁success	-1977
▁telephone	-1978
ug	-1979
bit	-1980
sed	-1981
▁def	-1982
▁det	-1983
▁eye	-1984
▁fat	-1985
▁gen	-1986
▁pot	-1987
▁sad	-1988
▁sil	-1989
▁bike	-1990
▁calm	-1991
▁cool	-1992
▁mach	-1993
▁prep	-1994
▁banan	-1995
▁fired	-1996
▁heart	-1997
▁plays	-1998
▁sport	-1999
▁sugar	-2000
▁weeks	-2001
▁guitar	-2002
▁hardly	-2003
▁remain	-2004
▁fishing	-2005
▁foreign	-2006
▁injured	-2007
▁football	-2008
▁laughing	-2009
▁apartment	-2010
▁newspaper	-2011
▁vegetable	-2012
▁vegetarian	-2013
cy	-2014
way	-2015
ache	-2016
akes	-2017
ants	-2018
ceed	-2019
idge	-2020
▁cou	-2021
▁cre	-2022
▁dad	-2023
board	-2024
ident	-2025
itten	-2026
▁boys	-2027
▁cars	-2028
▁grew	-2029
▁fries	-2030
▁loved	-2031
▁mouth	-2032
▁novel	-2033
▁offer	-2034
▁ought	-2035
▁sandw	-2036
▁tooth	-2037
▁during	-2038
▁grandm	-2039
▁kissed	-2040
▁address	-2041
▁concert	-2042
▁missing	-2043
▁painting	-2044
mm	-2045
ial	-2046
key	-2047
rap	-2048
▁fu	-2049
oned	-2050
ring	-2051
▁bra	-2052
▁glo	-2053
▁opp	-2054
mbers	-2055
oring	-2056
▁hide	-2057
▁reti	-2058
▁chick	-2059
▁fault	-2060
▁stood	-2061
▁afford	-2062
▁hiding	-2063
▁seemed	-2064
▁single	-2065
▁spoken	-2066
▁couldve	-2067
▁traffic	-2068
▁somewhere	-2069
▁translate	-2070
▁wonderful	-2071
by	-2072
ks	-2073
ror	-2074
aken	-2075
ired	-2076
lier	-2077
stro	-2078
▁ble	-2079
▁esc	-2080
▁fig	-2081
▁ger	-2082
▁ign	-2083
▁lic	-2084
▁pun	-2085
▁ste	-2086
▁yes	-2087
ature	-2088
itive	-2089
▁beha	-2090
▁eats	-2091
▁enem	-2092
▁keys	-2093
▁mood	-2094
▁moon	-2095
▁pool	-2096
▁requ	-2097
▁step	-2098
▁taxi	-2099
▁warm	-2100
▁bored	-2101
▁hadnt	-2102
▁means	-2103
▁spoke	-2104
▁threw	-2105
▁twice	-2106
▁direct	-2107
▁discus	-2108
▁drinks	-2109
▁lawyer	-2110
▁passed	-2111
▁whatre	-2112
▁driving	-2113
▁earthqu	-2114
▁license	-2115
▁popular	-2116
▁respons	-2117
▁admitted	-2118
▁delicious	-2119
▁necessary	-2120
▁grandmother	-2121
aces	-2122
ones	-2123
ower	-2124
seum	-2125
rious	-2126
▁cell	-2127
▁excu	-2128
▁scar	-2129
▁surv	-2130
ousand	-2131
▁escap	-2132
▁intro	-2133
▁moved	-2134
▁plane	-2135
▁straw	-2136
▁sweet	-2137
ibility	-2138
▁across	-2139
▁button	-2140
▁leaves	-2141
▁museum	-2142
▁player	-2143
▁though	-2144
▁cooking	-2145
▁earlier	-2146
▁machine	-2147
▁washing	-2148
▁expected	-2149
▁suddenly	-2150
▁thousand	-2151
gr	-2152
gu	-2153
od	-2154
gen	-2155
amps	-2156
hood	-2157
pose	-2158
▁dry	-2159
▁map	-2160
▁rid	-2161
▁tot	-2162
arely	-2163
▁nine	-2164
stairs	-2165
▁appre	-2166
▁blind	-2167
▁hurts	-2168
▁teeth	-2169
▁throw	-2170
▁course	-2171
▁german	-2172
▁handle	-2173
▁washed	-2174
▁collect	-2175
▁special	-2176
▁willing	-2177
▁business	-2178
▁attention	-2179
▁happening	-2180
▁experience	-2181
▁vegetables	-2182
ef	-2183
na	-2184
ear	-2185
gan	-2186
oid	-2187
set	-2188
une	-2189
acks	-2190
ails	-2191
gged	-2192
head	-2193
▁eng	-2194
▁god	-2195
▁uni	-2196
ndred	-2197
riger	-2198
▁gray	-2199
▁imag	-2200
▁lots	-2201
▁nuts	-2202
▁rice	-2203
▁sear	-2204
▁wore	-2205
▁birds	-2206
▁marry	-2207
▁point	-2208
▁waste	-2209
▁arrive	-2210
▁contro	-2211
▁filled	-2212
▁appreci	-2213
▁drivers	-2214
▁hundred	-2215
▁painted	-2216
▁studied	-2217
▁succeed	-2218
▁written	-2219
▁received	-2220
▁refriger	-2221
▁carefully	-2222
▁neighbors	-2223
fo	-2224
ina	-2225
gent	-2226
ilty	-2227
olen	-2228
oose	-2229
rupt	-2230
▁bas	-2231
▁cig	-2232
▁del	-2233
▁emb	-2234
▁wet	-2235
ution	-2236
▁agre	-2237
▁brow	-2238
▁fing	-2239
▁golf	-2240
▁inst	-2241
▁join	-2242
▁neck	-2243
▁pair	-2244
▁ring	-2245
▁temp	-2246
▁cried	-2247
▁dirty	-2248
▁doubt	-2249
▁fresh	-2250
▁horse	-2251
▁relax	-2252
berries	-2253
▁convin	-2254
▁decide	-2255
▁easily	-2256
▁excuse	-2257
▁guilty	-2258
▁months	-2259
▁sleepy	-2260
▁states	-2261
▁stolen	-2262
▁invited	-2263
▁purpose	-2264
▁surprise	-2265
▁refrigerator	-2266
ze	-2267
ief	-2268
mon	-2269
oss	-2270
▁vi	-2271
ines	-2272
▁pub	-2273
▁sew	-2274
▁squ	-2275
aghet	-2276
eared	-2277
iders	-2278
inese	-2279
ograp	-2280
▁answ	-2281
▁bear	-2282
▁hang	-2283
▁prof	-2284
▁repe	-2285
▁shot	-2286
▁side	-2287
▁soup	-2288
▁deser	-2289
▁smile	-2290
▁twent	-2291
▁wears	-2292
aghetti	-2293
▁apolog	-2294
▁arrest	-2295
▁asking	-2296
▁garage	-2297
▁gloves	-2298
▁report	-2299
▁shower	-2300
▁taller	-2301
▁realize	-2302
▁subject	-2303
▁practice	-2304
▁sentence	-2305
▁spaghetti	-2306
ls	-2307
ech	-2308
ege	-2309
yed	-2310
▁oc	-2311
amed	-2312
ters	-2313
▁bat	-2314
▁gas	-2315
▁gra	-2316
▁rec	-2317
▁top	-2318
aring	-2319
ities	-2320
ories	-2321
▁boss	-2322
▁fear	-2323
▁land	-2324
▁mail	-2325
▁pull	-2326
irteen	-2327
▁gener	-2328
▁hello	-2329
▁super	-2330
▁takes	-2331
▁attend	-2332
▁batter	-2333
▁belong	-2334
▁common	-2335
▁inform	-2336
▁planet	-2337
▁speech	-2338
▁spring	-2339
▁chicken	-2340
▁chinese	-2341
▁college	-2342
▁introdu	-2343
▁sisters	-2344
▁windows	-2345
▁bathroom	-2346
▁consider	-2347
▁personal	-2348
▁returned	-2349
▁thirteen	-2350
bs	-2351
no	-2352
emp	-2353
ery	-2354
iew	-2355
oun	-2356
unt	-2357
▁ma	-2358
come	-2359
rots	-2360
▁cri	-2361
▁loc	-2362
▁opt	-2363
▁wel	-2364
astic	-2365
▁area	-2366
▁beat	-2367
▁cous	-2368
▁earn	-2369
▁none	-2370
▁pack	-2371
▁admit	-2372
▁annoy	-2373
▁appro	-2374
▁blame	-2375
▁blood	-2376
▁carry	-2377
▁cheap	-2378
▁given	-2379
▁hesit	-2380
ossible	-2381
▁bother	-2382
▁failed	-2383
▁france	-2384
▁spiders	-2385
▁anywhere	-2386
▁headache	-2387
▁convinced	-2388
▁earthquake	-2389
▁impossible	-2390
iv	-2391
nty	-2392
▁bi	-2393
aret	-2394
fied	-2395
lace	-2396
ldom	-2397
▁cir	-2398
▁flu	-2399
▁mem	-2400
▁mer	-2401
▁mom	-2402
▁sea	-2403
iving	-2404
tment	-2405
▁deal	-2406
▁draw	-2407
▁hist	-2408
▁hole	-2409
▁ital	-2410
▁lamp	-2411
▁lead	-2412
▁nose	-2413
▁poem	-2414
▁pres	-2415
▁rent	-2416
▁ride	-2417
▁salt	-2418
▁shar	-2419
▁vill	-2420
ission	-2421
ounded	-2422
▁avoid	-2423
▁cards	-2424
▁helps	-2425
▁polit	-2426
▁taken	-2427
ational	-2428
▁appoin	-2429
▁murder	-2430
▁seldom	-2431
▁cigaret	-2432
▁discuss	-2433
▁helping	-2434
▁letters	-2435
▁certainly	-2436
▁obviously	-2437
fa	-2438
up	-2439
arm	-2440
mar	-2441
ppy	-2442
ump	-2443
▁ev	-2444
▁aut	-2445
▁ben	-2446
▁mel	-2447
▁mir	-2448
▁pos	-2449
▁unl	-2450
▁vol	-2451
▁zoo	-2452
antly	-2453
inite	-2454
olute	-2455
ushed	-2456
▁bott	-2457
▁deep	-2458
▁drow	-2459
▁heat	-2460
▁hows	-2461
▁iron	-2462
▁ones	-2463
▁pron	-2464
▁sofa	-2465
▁type	-2466
▁weak	-2467
▁weap	-2468
▁woke	-2469
▁china	-2470
▁enter	-2471
▁ideas	-2472
▁impro	-2473
▁names	-2474
▁peace	-2475
▁proof	-2476
▁solve	-2477
▁stars	-2478
▁weird	-2479
olutely	-2480
▁agreed	-2481
▁charge	-2482
▁destro	-2483
▁except	-2484
▁faster	-2485
▁plenty	-2486
▁prices	-2487
▁simple	-2488
▁smells	-2489
▁sooner	-2490
▁attract	-2491
▁contact	-2492
▁covered	-2493
▁dropped	-2494
▁passwor	-2495
▁respect	-2496
▁snowing	-2497
▁village	-2498
▁welcome	-2499
▁arrested	-2500
▁definite	-2501
▁followed	-2502
▁listened	-2503
▁recognize	-2504
▁absolutely	-2505
ane	-2506
cri	-2507
ork	-2508
ches	-2509
ural	-2510
▁fif	-2511
▁idi	-2512
▁ket	-2513
▁owe	-2514
ained	-2515
arest	-2516
light	-2517
▁bald	-2518
▁cent	-2519
▁cute	-2520
▁diet	-2521
▁ears	-2522
▁gate	-2523
▁goal	-2524
▁hunt	-2525
▁lend	-2526
▁line	-2527
▁peel	-2528
▁sons	-2529
▁claim	-2530
▁costs	-2531
▁disag	-2532
▁event	-2533
▁paint	-2534
▁rains	-2535
▁shall	-2536
▁south	-2537
unately	-2538
▁assist	-2539
▁bridge	-2540
▁cheese	-2541
▁fairly	-2542
▁flower	-2543
▁hammer	-2544
▁season	-2545
▁stamps	-2546
▁tastes	-2547
▁taught	-2548
▁twenty	-2549
▁bananas	-2550
▁dressed	-2551
▁kidding	-2552
▁nearest	-2553
▁neither	-2554
▁noticed	-2555
▁password	-2556
▁standing	-2557
▁expecting	-2558
▁impressed	-2559
▁definitely	-2560
▁strawberries	-2561
sy	-2562
cts	-2563
cur	-2564
nic	-2565
▁gh	-2566
▁ze	-2567
aded	-2568
bile	-2569
lled	-2570
▁bow	-2571
▁cop	-2572
▁fit	-2573
▁mot	-2574
▁yen	-2575
ction	-2576
olved	-2577
onely	-2578
ustom	-2579
▁cast	-2580
▁crow	-2581
▁date	-2582
▁dish	-2583
▁feet	-2584
▁form	-2585
▁grap	-2586
▁inno	-2587
▁lock	-2588
▁rock	-2589
▁size	-2590
itched	-2591
▁ahead	-2592
▁bleed	-2593
▁boots	-2594
▁feels	-2595
▁fixed	-2596
▁ghost	-2597
▁space	-2598
▁boring	-2599
▁lonely	-2600
▁object	-2601
▁recomm	-2602
▁control	-2603
▁curious	-2604
▁forgive	-2605
▁history	-2606
▁refused	-2607
▁totally	-2608
▁watched	-2609
▁electric	-2610
▁passport	-2611
▁sandwich	-2612
▁permission	-2613
ee	-2614
▁er	-2615
cher	-2616
hand	-2617
ives	-2618
umor	-2619
vent	-2620
▁amb	-2621
▁mid	-2622
▁tow	-2623
▁typ	-2624
▁val	-2625
aster	-2626
hamed	-2627
icked	-2628
ology	-2629
under	-2630
▁blow	-2631
▁body	-2632
▁burn	-2633
▁corn	-2634
▁loud	-2635
▁sens	-2636
▁text	-2637
idence	-2638
▁climb	-2639
▁invit	-2640
▁satis	-2641
▁sharp	-2642
▁shoot	-2643
▁upset	-2644
▁absent	-2645
▁barely	-2646
▁choose	-2647
▁couple	-2648
▁entire	-2649
▁gotten	-2650
▁island	-2651
▁rained	-2652
▁remind	-2653
▁silver	-2654
▁todays	-2655
▁advance	-2656
▁ashamed	-2657
▁butcher	-2658
▁entered	-2659
▁pretend	-2660
▁retired	-2661
▁wedding	-2662
▁confused	-2663
▁innocent	-2664
▁recently	-2665
▁solution	-2666
▁forgotten	-2667
▁appreciate	-2668
▁yourselves	-2669
▁information	-2670
▁neighborhood	-2671
ism	-2672
min	-2673
ove	-2674
zen	-2675
book	-2676
eral	-2677
iers	-2678
uest	-2679
▁dam	-2680
▁nat	-2681
▁ufo	-2682
acket	-2683
enced	-2684
happy	-2685
▁fond	-2686
▁pale	-2687
▁poll	-2688
▁roof	-2689
▁tale	-2690
▁viol	-2691
▁alarm	-2692
▁brown	-2693
▁dying	-2694
▁ended	-2695
▁exist	-2696
▁fever	-2697
▁guest	-2698
▁named	-2699
▁pleas	-2700
▁power	-2701
▁produ	-2702
▁saved	-2703
▁stuff	-2704
▁towel	-2705
▁basket	-2706
▁breath	-2707
▁experi	-2708
▁fallen	-2709
▁forest	-2710
▁horses	-2711
▁invest	-2712
▁moving	-2713
▁nearly	-2714
▁pulled	-2715
▁scored	-2716
▁singer	-2717
▁stairs	-2718
▁thatll	-2719
▁threat	-2720
▁carrots	-2721
▁profess	-2722
▁sweater	-2723
▁unhappy	-2724
▁univers	-2725
▁answered	-2726
▁attacked	-2727
▁borrowed	-2728
▁continue	-2729
▁friendly	-2730
▁beginning	-2731
▁concerned	-2732
▁photograp	-2733
▁eventually	-2734
▁appointment	-2735
▁complaining	-2736
pl	-2737
apt	-2738
bby	-2739
dle	-2740
rat	-2741
▁na	-2742
ayed	-2743
comp	-2744
igin	-2745
ings	-2746
lebr	-2747
rees	-2748
▁ant	-2749
▁equ	-2750
▁hey	-2751
ching	-2752
cious	-2753
fered	-2754
▁camp	-2755
▁prin	-2756
▁sant	-2757
▁serv	-2758
▁sile	-2759
▁sour	-2760
▁stom	-2761
▁swit	-2762
▁thin	-2763
▁awake	-2764
▁chess	-2765
▁disea	-2766
▁grass	-2767
▁human	-2768
▁jeans	-2769
▁keeps	-2770
▁skirt	-2771
▁songs	-2772
▁stuck	-2773
▁tower	-2774
▁worst	-2775
erature	-2776
▁celebr	-2777
▁descri	-2778
▁design	-2779
▁hoping	-2780
▁larger	-2781
▁mustve	-2782
▁seeing	-2783
▁advised	-2784
▁clearly	-2785
▁cookies	-2786
▁enjoyed	-2787
▁offered	-2788
▁pronoun	-2789
▁science	-2790
▁american	-2791
▁believes	-2792
▁involved	-2793
▁potatoes	-2794
▁soldiers	-2795
▁whatever	-2796
▁interrupt	-2797
▁president	-2798
bl	-2799
go	-2800
vi	-2801
we	-2802
xy	-2803
ym	-2804
000	-2805
acy	-2806
els	-2807
hib	-2808
ney	-2809
pha	-2810
▁da	-2811
ined	-2812
mbur	-2813
▁cab	-2814
▁deg	-2815
▁dra	-2816
▁fle	-2817
▁lad	-2818
▁nur	-2819
▁pan	-2820
aptop	-2821
ments	-2822
▁adop	-2823
▁cond	-2824
▁drop	-2825
▁fail	-2826
▁held	-2827
▁inse	-2828
▁king	-2829
▁ment	-2830
▁nons	-2831
▁oper	-2832
▁pill	-2833
▁suff	-2834
▁york	-2835
ateful	-2836
market	-2837
▁badly	-2838
▁below	-2839
▁brave	-2840
▁famil	-2841
▁idiot	-2842
▁jacks	-2843
▁santa	-2844
▁share	-2845
▁stone	-2846
▁truck	-2847
▁weigh	-2848
licated	-2849
▁accomp	-2850
▁buying	-2851
▁castle	-2852
▁dreams	-2853
▁escape	-2854
▁goodby	-2855
▁hambur	-2856
▁laptop	-2857
▁origin	-2858
▁picked	-2859
▁purple	-2860
▁repeat	-2861
▁silent	-2862
▁smiled	-2863
▁wallet	-2864
▁wished	-2865
▁forever	-2866
▁herself	-2867
▁nowhere	-2868
▁request	-2869
▁suppose	-2870
▁winning	-2871
▁believed	-2872
▁grateful	-2873
▁prepared	-2874
▁tomatoes	-2875
▁policeman	-2876
▁satisfied	-2877
▁university	-2878
▁complicated	-2879
▁supermarket	-2880
arr	-2881
ker	-2882
lly	-2883
old	-2884
ope	-2885
xic	-2886
▁lu	-2887
oted	-2888
sing	-2889
zing	-2890
▁fed	-2891
▁fil	-2892
▁hug	-2893
▁jud	-2894
▁kil	-2895
▁oce	-2896
stead	-2897
▁auth	-2898
▁coin	-2899
▁copy	-2900
▁dece	-2901
▁fant	-2902
▁flag	-2903
▁legs	-2904
▁lent	-2905
▁norm	-2906
▁skin	-2907
▁spin	-2908
▁star	-2909
▁stra	-2910
▁warn	-2911
▁above	-2912
▁blond	-2913
▁const	-2914
▁disco	-2915
▁enemy	-2916
▁hated	-2917
▁hobby	-2918
▁meant	-2919
▁persu	-2920
▁plant	-2921
▁roses	-2922
▁satur	-2923
▁sched	-2924
▁storm	-2925
▁tears	-2926
▁voice	-2927
underst	-2928
▁bigger	-2929
▁bright	-2930
▁collap	-2931
▁corner	-2932
▁explan	-2933
▁finger	-2934
▁grapes	-2935
▁ground	-2936
▁intell	-2937
▁jumped	-2938
▁locked	-2939
▁paying	-2940
▁pocket	-2941
▁public	-2942
▁trains	-2943
▁unable	-2944
▁unfort	-2945
fortable	-2946
▁bedroom	-2947
▁changes	-2948
▁figured	-2949
▁imagine	-2950
▁instead	-2951
▁bleeding	-2952
▁fighting	-2953
▁handsome	-2954
▁invented	-2955
▁nonsense	-2956
▁stronger	-2957
▁apologize	-2958
▁classical	-2959
▁destroyed	-2960
▁misunderst	-2961
aw	-2962
cha	-2963
con	-2964
cut	-2965
gue	-2966
ips	-2967
ium	-2968
ler	-2969
loy	-2970
ued	-2971
▁cd	-2972
▁hy	-2973
cell	-2974
gers	-2975
gled	-2976
iday	-2977
tain	-2978
▁aud	-2979
▁den	-2980
▁hol	-2981
▁lay	-2982
▁low	-2983
▁maj	-2984
▁neg	-2985
aland	-2986
apped	-2987
ently	-2988
iable	-2989
igent	-2990
ising	-2991
right	-2992
ulous	-2993
using	-2994
usted	-2995
▁amaz	-2996
▁appe	-2997
▁capt	-2998
▁cash	-2999
▁poet	-3000
▁prop	-3001
▁push	-3002
▁refu	-3003
▁rude	-3004
▁sang	-3005
▁tong	-3006
▁tour	-3007
▁view	-3008
▁wast	-3009
▁webs	-3010
▁whis	-3011
▁artic	-3012
▁aware	-3013
▁divor	-3014
▁honey	-3015
▁jokes	-3016
▁magaz	-3017
▁organ	-3018
▁photo	-3019
▁prize	-3020
▁queen	-3021
▁spain	-3022
▁spill	-3023
▁stick	-3024
▁talks	-3025
▁toile	-3026
▁usual	-3027
▁animal	-3028
▁bottom	-3029
▁canada	-3030
▁compet	-3031
▁depend	-3032
▁engine	-3033
▁handed	-3034
▁jacket	-3035
▁mirror	-3036
▁mobile	-3037
▁native	-3038
▁picnic	-3039
▁poison	-3040
▁cleaned	-3041
▁confess	-3042
▁courage	-3043
▁germany	-3044
▁goodbye	-3045
▁impress	-3046
▁natural	-3047
▁stomach	-3048
▁zealand	-3049
▁necklace	-3050
▁positive	-3051
▁saturday	-3052
▁straight	-3053
▁batteries	-3054
▁daughters	-3055
▁happiness	-3056
▁traveling	-3057
▁downstairs	-3058
▁invitation	-3059
▁explanation	-3060
▁possibility	-3061
fl	-3062
oe	-3063
den	-3064
ged	-3065
hem	-3066
own	-3067
que	-3068
rew	-3069
shi	-3070
▁ed	-3071
▁ur	-3072
bbed	-3073
ideo	-3074
line	-3075
lish	-3076
tern	-3077
▁atm	-3078
▁dan	-3079
▁deb	-3080
▁dem	-3081
▁gym	-3082
▁imm	-3083
▁oil	-3084
▁und	-3085
arter	-3086
brush	-3087
gress	-3088
istic	-3089
ondon	-3090
ption	-3091
▁gree	-3092
▁hero	-3093
▁main	-3094
▁mars	-3095
▁mill	-3096
▁owns	-3097
▁repl	-3098
▁rose	-3099
▁soft	-3100
issors	-3101
▁aband	-3102
▁afric	-3103
▁brain	-3104
▁flash	-3105
▁force	-3106
▁kinds	-3107
▁magic	-3108
▁nurse	-3109
▁popul	-3110
▁salad	-3111
▁sushi	-3112
▁tough	-3113
▁video	-3114
cellent	-3115
▁cousin	-3116
▁dating	-3117
▁easier	-3118
▁flight	-3119
▁forced	-3120
▁giving	-3121
▁guests	-3122
▁houses	-3123
▁ignore	-3124
▁intend	-3125
▁london	-3126
▁notice	-3127
▁parked	-3128
▁rented	-3129
▁scream	-3130
▁slight	-3131
▁sports	-3132
▁tongue	-3133
▁writes	-3134
▁calling	-3135
▁checked	-3136
▁deserve	-3137
▁disease	-3138
▁enemies	-3139
▁foolish	-3140
▁funeral	-3141
▁jackson	-3142
▁managed	-3143
▁meaning	-3144
▁results	-3145
▁skating	-3146
▁accepted	-3147
▁convince	-3148
▁distance	-3149
▁feelings	-3150
▁pressure	-3151
▁scissors	-3152
▁excellent	-3153
▁explained	-3154
▁fantastic	-3155
▁introduce	-3156
▁pretended	-3157
▁pronounce	-3158
▁recommend	-3159
▁seriously	-3160
▁discovered	-3161
▁everythings	-3162
▁intelligent	-3163
▁responsible	-3164
eg	-3165
hy	-3166
eaf	-3167
ero	-3168
ipe	-3169
str	-3170
ule	-3171
umb	-3172
uss	-3173
yst	-3174
aced	-3175
atic	-3176
cles	-3177
ians	-3178
ific	-3179
llen	-3180
orts	-3181
rets	-3182
▁awk	-3183
▁goo	-3184
▁lin	-3185
▁mud	-3186
▁nap	-3187
▁obe	-3188
▁oxy	-3189
▁pin	-3190
▁saf	-3191
▁van	-3192
ering	-3193
ipped	-3194
ocked	-3195
orter	-3196
unity	-3197
▁aunt	-3198
▁boat	-3199
▁cand	-3200
▁cred	-3201
▁cucu	-3202
▁deaf	-3203
▁disl	-3204
▁drug	-3205
▁exha	-3206
▁fort	-3207
▁hall	-3208
▁huge	-3209
▁lazy	-3210
▁poin	-3211
▁rang	-3212
▁self	-3213
▁shoe	-3214
▁suic	-3215
▁vote	-3216
▁whys	-3217
arrass	-3218
▁bench	-3219
▁brush	-3220
▁cance	-3221
▁crime	-3222
▁games	-3223
▁italy	-3224
▁ocean	-3225
▁offic	-3226
▁paris	-3227
▁pasta	-3228
▁reach	-3229
▁rooms	-3230
▁sells	-3231
▁shout	-3232
▁walks	-3233
ination	-3234
▁author	-3235
▁begins	-3236
▁cities	-3237
▁claims	-3238
▁ghosts	-3239
▁harder	-3240
▁instru	-3241
▁insult	-3242
▁lasted	-3243
▁oxygen	-3244
▁partic	-3245
▁plants	-3246
▁raised	-3247
▁resign	-3248
▁toilet	-3249
▁useful	-3250
▁warmer	-3251
▁whatll	-3252
▁adopted	-3253
▁article	-3254
▁awkward	-3255
▁cheaper	-3256
▁doctors	-3257
▁drowned	-3258
▁helpful	-3259
▁mondays	-3260
▁project	-3261
▁silence	-3262
▁smarter	-3263
▁survive	-3264
▁appeared	-3265
▁realized	-3266
▁switched	-3267
▁teaching	-3268
▁upstairs	-3269
▁wondered	-3270
▁embarrass	-3271
▁practiced	-3272
▁attractive	-3273
▁basketball	-3274
▁recognized	-3275
▁understood	-3276
▁temperature	-3277
▁unfortunately	-3278
▁responsibility	-3279
ey	-3280
che	-3281
cin	-3282
col	-3283
edy	-3284
ges	-3285
hip	-3286
hol	-3287
par	-3288
was	-3289
zil	-3290
elve	-3291
fish	-3292
ures	-3293
▁aid	-3294
▁dut	-3295
▁est	-3296
▁mos	-3297
▁rab	-3298
▁rom	-3299
▁upd	-3300
▁vir	-3301
ached	-3302
blind	-3303
entle	-3304
ngest	-3305
▁bags	-3306
▁club	-3307
▁dawn	-3308
▁flew	-3309
▁loss	-3310
▁port	-3311
▁remo	-3312
▁rush	-3313
▁stri	-3314
▁symp	-3315
▁toys	-3316
▁unne	-3317
▁wild	-3318
▁wise	-3319
ainted	-3320
employ	-3321
lished	-3322
▁actor	-3323
▁avail	-3324
▁board	-3325
▁breat	-3326
▁claus	-3327
▁diary	-3328
▁gover	-3329
▁illeg	-3330
▁india	-3331
▁major	-3332
▁occur	-3333
▁ridic	-3334
▁rumor	-3335
▁sheep	-3336
▁stink	-3337
▁sungl	-3338
▁thief	-3339
▁trick	-3340
▁woods	-3341
arently	-3342
▁africa	-3343
▁altern	-3344
▁anyway	-3345
▁brazil	-3346
▁burned	-3347
▁cancer	-3348
▁closet	-3349
▁credit	-3350
▁custom	-3351
▁desper	-3352
▁flying	-3353
▁fright	-3354
▁gentle	-3355
▁intern	-3356
▁invite	-3357
▁kettle	-3358
▁manage	-3359
▁memory	-3360
▁middle	-3361
▁nearby	-3362
▁peanut	-3363
▁places	-3364
▁propos	-3365
▁twelve	-3366
▁belongs	-3367
▁biology	-3368
▁classes	-3369
▁convers	-3370
▁excited	-3371
▁illness	-3372
▁options	-3373
▁pleased	-3374
▁smiling	-3375
▁snowman	-3376
▁spinach	-3377
▁sundays	-3378
▁weapons	-3379
▁website	-3380
▁annoying	-3381
▁counting	-3382
▁evidence	-3383
▁national	-3384
▁punished	-3385
▁schedule	-3386
▁starting	-3387
▁stranger	-3388
▁teachers	-3389
▁unemploy	-3390
▁whenever	-3391
▁youngest	-3392
▁available	-3393
▁canadians	-3394
▁direction	-3395
▁snowboard	-3396
▁apparently	-3397
▁colorblind	-3398
▁flashlight	-3399
▁population	-3400
▁ridiculous	-3401
▁sunglasses	-3402
▁threatened	-3403
▁toothbrush	-3404
▁alternative	-3405
▁comfortable	-3406
▁disappeared	-3407
▁understands	-3408
▁unnecessary	-3409
ago	-3410
cul	-3411
ets	-3412
gle	-3413
gly	-3414
iev	-3415
let	-3416
rel	-3417
tes	-3418
ums	-3419
▁pu	-3420
ager	-3421
gram	-3422
ibly	-3423
ield	-3424
ilar	-3425
iles	-3426
ires	-3427
ises	-3428
ites	-3429
ores	-3430
uses	-3431
▁aim	-3432
▁jam	-3433
▁pou	-3434
▁sir	-3435
▁tha	-3436
▁tun	-3437
aches	-3438
aired	-3439
apers	-3440
bborn	-3441
child	-3442
icago	-3443
iches	-3444
imate	-3445
xious	-3446
▁acqu	-3447
▁argu	-3448
▁band	-3449
▁boil	-3450
▁carp	-3451
▁cows	-3452
▁ease	-3453
▁feed	-3454
▁hill	-3455
▁hipp	-3456
▁infl	-3457
▁lies	-3458
▁oyst	-3459
▁perf	-3460
▁phys	-3461
▁pink	-3462
▁race	-3463
▁rule	-3464
▁scen	-3465
▁thro	-3466
▁twin	-3467
▁ugly	-3468
handed	-3469
ulance	-3470
urance	-3471
washer	-3472
weight	-3473
▁baked	-3474
▁brief	-3475
▁cause	-3476
▁chose	-3477
▁cover	-3478
▁crack	-3479
▁crowd	-3480
▁earns	-3481
▁extra	-3482
▁facts	-3483
▁gives	-3484
▁horri	-3485
▁match	-3486
▁mexic	-3487
▁motor	-3488
▁mouse	-3489
▁prove	-3490
▁raise	-3491
▁reads	-3492
▁relig	-3493
▁round	-3494
▁sight	-3495
▁spell	-3496
▁third	-3497
▁treat	-3498
hibited	-3499
▁accord	-3500
▁appear	-3501
▁attemp	-3502
▁banana	-3503
▁bucket	-3504
▁dental	-3505
▁depart	-3506
▁farmer	-3507
▁figure	-3508
▁govern	-3509
▁height	-3510
▁hugged	-3511
▁losing	-3512
▁mathem	-3513
▁member	-3514
▁novels	-3515
▁oldest	-3516
▁opport	-3517
▁polite	-3518
▁poured	-3519
▁record	-3520
▁retire	-3521
▁spends	-3522
▁strict	-3523
▁theyll	-3524
▁toward	-3525
▁turkey	-3526
▁appears	-3527
▁challen	-3528
▁cheated	-3529
▁chicago	-3530
▁contain	-3531
▁crossed	-3532
▁escaped	-3533
▁growing	-3534
▁located	-3535
▁million	-3536
▁oysters	-3537
▁parties	-3538
▁pencils	-3539
▁receive	-3540
▁removed	-3541
▁studies	-3542
▁suicide	-3543
▁support	-3544
▁tickets	-3545
▁approach	-3546
▁hesitate	-3547
▁politics	-3548
▁proposal	-3549
▁repaired	-3550
▁stubborn	-3551
▁traveled	-3552
▁ambulance	-3553
▁cigarette	-3554
▁committed	-3555
▁computers	-3556
▁condition	-3557
▁confessed	-3558
▁continued	-3559
▁following	-3560
▁insurance	-3561
▁suggested	-3562
▁cigarettes	-3563
▁complained	-3564
▁dishwasher	-3565
▁overweight	-3566
▁sandwiches	-3567
▁electricity	-3568
▁conversation	-3569
ka	-3570
ms	-3571
azz	-3572
bow	-3573
iff	-3574
isy	-3575
nes	-3576
uce	-3577
uct	-3578
ury	-3579
zer	-3580
▁cy	-3581
▁vo	-3582
aint	-3583
airy	-3584
aned	-3585
assy	-3586
over	-3587
vior	-3588
ware	-3589
writ	-3590
yard	-3591
▁hum	-3592
▁mix	-3593
▁non	-3594
▁rot	-3595
allow	-3596
althy	-3597
aries	-3598
atics	-3599
chief	-3600
dered	-3601
esome	-3602
hache	-3603
hetic	-3604
order	-3605
▁ages	-3606
▁bell	-3607
▁bite	-3608
▁bowl	-3609
▁cult	-3610
▁deli	-3611
▁dust	-3612
▁effe	-3613
▁entr	-3614
▁flat	-3615
▁frog	-3616
▁furn	-3617
▁grad	-3618
▁jazz	-3619
▁note	-3620
▁obey	-3621
▁pred	-3622
▁prov	-3623
▁rely	-3624
▁rese	-3625
▁risk	-3626
▁runs	-3627
▁surr	-3628
▁zero	-3629
anding	-3630
▁among	-3631
▁bears	-3632
▁bible	-3633
▁coins	-3634
▁dairy	-3635
▁forty	-3636
▁jelly	-3637
▁laund	-3638
▁marri	-3639
▁mosqu	-3640
▁negot	-3641
▁pants	-3642
▁plate	-3643
▁shake	-3644
▁shelf	-3645
▁state	-3646
▁tight	-3647
▁using	-3648
▁wheat	-3649
ference	-3650
sidered	-3651
▁artist	-3652
▁beauty	-3653
▁behave	-3654
▁caused	-3655
▁clever	-3656
▁cooked	-3657
▁drives	-3658
▁exchan	-3659
▁fridge	-3660
▁greedy	-3661
▁online	-3662
▁sleeps	-3663
▁snowed	-3664
▁violin	-3665
▁waiter	-3666
children	-3667
fficient	-3668
gressive	-3669
kerchief	-3670
▁amazing	-3671
▁anxious	-3672
▁awesome	-3673
▁biggest	-3674
▁candles	-3675
▁content	-3676
▁current	-3677
▁curtain	-3678
▁degrees	-3679
▁dislike	-3680
▁elected	-3681
▁embassy	-3682
▁england	-3683
▁example	-3684
▁express	-3685
▁fathers	-3686
▁fingers	-3687
▁holding	-3688
▁parking	-3689
▁practic	-3690
▁prefers	-3691
▁respond	-3692
▁secrets	-3693
▁service	-3694
▁shorter	-3695
▁spilled	-3696
▁turning	-3697
▁wasting	-3698
▁workers	-3699
▁wounded	-3700
▁audience	-3701
▁behavior	-3702
▁changing	-3703
▁contract	-3704
▁divorced	-3705
▁generous	-3706
▁murdered	-3707
▁searched	-3708
▁talented	-3709
▁according	-3710
▁classroom	-3711
▁collapsed	-3712
▁desperate	-3713
▁jellyfish	-3714
▁searching	-3715
▁suitcases	-3716
▁aggressive	-3717
▁considered	-3718
▁foreigners	-3719
▁frightened	-3720
▁mathematics	-3721
▁handkerchief	-3722
do	-3723
amb	-3724
cup	-3725
eds	-3726
irm	-3727
ius	-3728
omb	-3729
ply	-3730
thy	-3731
bits	-3732
case	-3733
cing	-3734
erve	-3735
name	-3736
nuts	-3737
tles	-3738
uish	-3739
▁bal	-3740
▁cap	-3741
▁dev	-3742
▁ink	-3743
▁lim	-3744
▁lou	-3745
▁raw	-3746
▁row	-3747
▁tru	-3748
▁tsh	-3749
▁wif	-3750
alous	-3751
ashed	-3752
ected	-3753
ggage	-3754
hroom	-3755
icted	-3756
lling	-3757
ounds	-3758
rayed	-3759
sents	-3760
▁bomb	-3761
▁clos	-3762
▁cong	-3763
▁dess	-3764
▁incl	-3765
▁lift	-3766
▁mans	-3767
▁page	-3768
▁phil	-3769
▁seve	-3770
▁span	-3771
▁stea	-3772
▁tend	-3773
▁typh	-3774
▁vase	-3775
▁vict	-3776
▁acted	-3777
▁airpl	-3778
▁canoe	-3779
▁euros	-3780
▁gifts	-3781
▁homes	-3782
▁incre	-3783
▁naive	-3784
▁noisy	-3785
▁prime	-3786
▁purse	-3787
▁scarf	-3788
▁sings	-3789
▁sixty	-3790
▁squir	-3791
▁stamp	-3792
▁tells	-3793
▁thick	-3794
▁toler	-3795
▁voted	-3796
▁whens	-3797
▁whist	-3798
cidence	-3799
writing	-3800
▁advant	-3801
▁coward	-3802
▁crimin	-3803
▁denied	-3804
▁drawer	-3805
▁elepha	-3806
▁explos	-3807
▁frozen	-3808
▁gained	-3809
▁kicked	-3810
▁lovely	-3811
▁master	-3812
▁mexico	-3813
▁nights	-3814
▁normal	-3815
▁permit	-3816
▁pillow	-3817
▁pollut	-3818
▁proper	-3819
▁pushed	-3820
▁refuse	-3821
▁reluct	-3822
▁salary	-3823
▁saving	-3824
▁sewing	-3825
▁simply	-3826
▁starts	-3827
▁tasted	-3828
▁tshirt	-3829
▁unlike	-3830
▁volunt	-3831
▁weapon	-3832
▁within	-3833
▁account	-3834
▁blowing	-3835
▁boiling	-3836
▁camping	-3837
▁climate	-3838
▁cousins	-3839
▁dessert	-3840
▁engaged	-3841
▁falling	-3842
▁hunting	-3843
▁improve	-3844
▁italian	-3845
▁jealous	-3846
▁jumping	-3847
▁largest	-3848
▁luggage	-3849
▁mention	-3850
▁mothers	-3851
▁politic	-3852
▁program	-3853
▁rainbow	-3854
▁reached	-3855
▁similar	-3856
▁smaller	-3857
▁stepped	-3858
▁teaches	-3859
▁watches	-3860
▁backyard	-3861
▁betrayed	-3862
▁cleaning	-3863
▁deceived	-3864
▁describe	-3865
▁disagree	-3866
▁entrance	-3867
▁exchange	-3868
▁homeless	-3869
▁insulted	-3870
▁magazine	-3871
▁marriage	-3872
▁mushroom	-3873
▁persuade	-3874
▁presents	-3875
▁shoulder	-3876
▁survived	-3877
▁textbook	-3878
▁abandoned	-3879
▁depressed	-3880
▁everyones	-3881
▁intention	-3882
▁ourselves	-3883
▁paintings	-3884
▁collection	-3885
▁everybodys	-3886
▁newspapers	-3887
▁prohibited	-3888
▁protection	-3889
▁successful	-3890
▁translated	-3891
▁coincidence	-3892
▁handwriting	-3893
▁restaurants	-3894
▁vegetarians	-3895
▁grandchildren	-3896
bi	-3897
ox	-3898
amm	-3899
bet	-3900
box	-3901
ety	-3902
ibi	-3903
its	-3904
met	-3905
oph	-3906
ped	-3907
poc	-3908
res	-3909
ril	-3910
ung	-3911
bber	-3912
chup	-3913
coln	-3914
ging	-3915
ides	-3916
illy	-3917
look	-3918
mble	-3919
ners	-3920
scri	-3921
ship	-3922
stem	-3923
tery	-3924
umed	-3925
▁bac	-3926
▁coo	-3927
▁cot	-3928
▁dia	-3929
▁dig	-3930
▁don	-3931
▁fas	-3932
▁fem	-3933
▁fox	-3934
▁fur	-3935
▁lit	-3936
▁log	-3937
▁plu	-3938
▁por	-3939
▁spy	-3940
▁sum	-3941
cycle	-3942
ences	-3943
ilton	-3944
ining	-3945
ormed	-3946
ratul	-3947
verse	-3948
verty	-3949
▁ange	-3950
▁asia	-3951
▁blew	-3952
▁clou	-3953
▁disc	-3954
▁east	-3955
▁fake	-3956
▁file	-3957
▁film	-3958
▁harm	-3959
▁hire	-3960
▁inha	-3961
▁jail	-3962
▁june	-3963
▁lack	-3964
▁liar	-3965
▁lion	-3966
▁meal	-3967
▁menu	-3968
▁nail	-3969
▁pond	-3970
▁quar	-3971
▁rare	-3972
▁rele	-3973
▁russ	-3974
▁snee	-3975
▁sore	-3976
▁sort	-3977
▁tech	-3978
▁till	-3979
▁upon	-3980
▁vacu	-3981
▁vale	-3982
▁valu	-3983
▁worn	-3984
▁yach	-3985
▁zomb	-3986
agious	-3987
angers	-3988
▁april	-3989
▁argue	-3990
▁armed	-3991
▁autom	-3992
▁awful	-3993
▁burst	-3994
▁calls	-3995
▁cares	-3996
▁couch	-3997
▁cough	-3998
▁drove	-3999
▁equal	-4000
▁fifty	-4001
▁finan	-4002
▁frequ	-4003
▁goals	-4004
▁grown	-4005
▁guard	-4006
▁knock	-4007
▁mango	-4008
▁nails	-4009
▁north	-4010
▁oppos	-4011
▁panic	-4012
▁parts	-4013
▁poems	-4014
▁react	-4015
▁skate	-4016
▁spicy	-4017
▁steal	-4018
▁stiff	-4019
▁trous	-4020
▁truly	-4021
▁twins	-4022
▁wheel	-4023
lloween	-4024
▁active	-4025
▁bitter	-4026
▁calcul	-4027
▁center	-4028
▁classm	-4029
▁cooper	-4030
▁dancer	-4031
▁detail	-4032
▁expert	-4033
▁fascin	-4034
▁greece	-4035
▁highly	-4036
▁leaned	-4037
▁louder	-4038
▁market	-4039
▁meters	-4040
▁negoti	-4041
▁orders	-4042
▁packed	-4043
▁philos	-4044
▁pieces	-4045
▁punish	-4046
▁rarely	-4047
▁remote	-4048
▁robbed	-4049
▁severe	-4050
▁snakes	-4051
▁spider	-4052
▁system	-4053
▁theyve	-4054
▁throat	-4055
▁urgent	-4056
▁writer	-4057
▁arguing	-4058
▁compare	-4059
▁culture	-4060
▁details	-4061
▁finding	-4062
▁furious	-4063
▁holiday	-4064
▁illegal	-4065
▁ketchup	-4066
▁laundry	-4067
▁lincoln	-4068
▁matters	-4069
▁nobodys	-4070
▁numbers	-4071
▁perfume	-4072
▁poverty	-4073
▁selfish	-4074
▁selling	-4075
▁shaking	-4076
▁shocked	-4077
▁speaker	-4078
▁staring	-4079
▁stories	-4080
▁swallow	-4081
▁swimmer	-4082
▁treated	-4083
▁trusted	-4084
▁turtles	-4085
▁wealthy	-4086
▁witness	-4087
▁creative	-4088
▁families	-4089
▁investig	-4090
▁patience	-4091
▁pleasure	-4092
▁relative	-4093
▁reliable	-4094
▁remained	-4095
▁replaced	-4096
▁terrific	-4097
▁unlikely	-4098
▁americans	-4099
▁cellphone	-4100
▁challenge	-4101
▁confident	-4102
▁congratul	-4103
▁cucumbers	-4104
▁exhausted	-4105
▁gentleman	-4106
▁halloween	-4107
▁hamburger	-4108
▁hesitated	-4109
▁mountains	-4110
▁sensitive	-4111
▁succeeded	-4112
▁umbrellas	-4113
▁contagious	-4114
▁government	-4115
▁pretending	-4116
▁profession	-4117
▁surrounded	-4118
▁experienced	-4119
▁opportunity	-4120
▁dictionaries	-4121
ob	-4122
rm	-4123
aff	-4124
bed	-4125
bel	-4126
erk	-4127
iar	-4128
ify	-4129
inl	-4130
ipp	-4131
nel	-4132
ram	-4133
ser	-4134
▁oh	-4135
▁pm	-4136
0000	-4137
abor	-4138
ansp	-4139
arch	-4140
atin	-4141
cued	-4142
cury	-4143
dern	-4144
ergy	-4145
fact	-4146
gant	-4147
iest	-4148
itis	-4149
lley	-4150
opot	-4151
tier	-4152
year	-4153
▁bak	-4154
▁div	-4155
▁eff	-4156
▁enc	-4157
▁env	-4158
▁hau	-4159
▁hoc	-4160
▁nar	-4161
▁pha	-4162
▁pil	-4163
▁rap	-4164
▁tip	-4165
adays	-4166
amond	-4167
ances	-4168
centr	-4169
chair	-4170
cohol	-4171
eable	-4172
ewrit	-4173
iland	-4174
inary	-4175
inlaw	-4176
iture	-4177
meday	-4178
olves	-4179
otion	-4180
tered	-4181
vator	-4182
▁anti	-4183
▁arch	-4184
▁army	-4185
▁aver	-4186
▁cave	-4187
▁cher	-4188
▁cops	-4189
▁dest	-4190
▁disg	-4191
▁emer	-4192
▁fold	-4193
▁hats	-4194
▁hung	-4195
▁insp	-4196
▁jobs	-4197
▁mall	-4198
▁mass	-4199
▁obst	-4200
▁oven	-4201
▁panc	-4202
▁pipe	-4203
▁plus	-4204
▁priv	-4205
▁rate	-4206
▁rode	-4207
▁roll	-4208
▁rope	-4209
▁teen	-4210
▁toes	-4211
▁toot	-4212
▁tore	-4213
▁uses	-4214
▁west	-4215
aughty	-4216
elaces	-4217
ongest	-4218
opotam	-4219
velope	-4220
▁adult	-4221
▁aside	-4222
▁beans	-4223
▁begun	-4224
▁brand	-4225
▁candy	-4226
▁cheer	-4227
▁coach	-4228
▁cooks	-4229
▁crash	-4230
▁doors	-4231
▁field	-4232
▁final	-4233
▁group	-4234
▁indep	-4235
▁irrit	-4236
▁judge	-4237
▁mayor	-4238
▁medal	-4239
▁naked	-4240
▁pages	-4241
▁postp	-4242
▁reply	-4243
▁risks	-4244
▁scary	-4245
▁scrat	-4246
▁seats	-4247
▁sewed	-4248
▁shame	-4249
▁shave	-4250
▁ships	-4251
▁snake	-4252
▁swear	-4253
▁total	-4254
▁trash	-4255
▁vegan	-4256
▁yacht	-4257
aughter	-4258
ewriter	-4259
ievable	-4260
ization	-4261
ustomed	-4262
zerland	-4263
▁action	-4264
▁blonde	-4265
▁border	-4266
▁circle	-4267
▁colder	-4268
▁colors	-4269
▁commun	-4270
▁damage	-4271
▁demand	-4272
▁desert	-4273
▁detect	-4274
▁doubts	-4275
▁eleven	-4276
▁energy	-4277
▁female	-4278
▁fluent	-4279
▁hockey	-4280
▁incred	-4281
▁joking	-4282
▁lately	-4283
▁leader	-4284
▁melted	-4285
▁misses	-4286
▁modern	-4287
▁onions	-4288
▁passen	-4289
▁photos	-4290
▁repair	-4291
▁resist	-4292
▁rotten	-4293
▁safety	-4294
▁scarce	-4295
▁shirts	-4296
▁transp	-4297
▁volley	-4298
▁wooden	-4299
lication	-4300
▁average	-4301
▁battery	-4302
▁captain	-4303
▁climbed	-4304
▁diamond	-4305
▁haunted	-4306
▁ignored	-4307
▁knowled	-4308
▁listens	-4309
▁mercury	-4310
▁messing	-4311
▁mosquit	-4312
▁nations	-4313
▁naughty	-4314
▁opposed	-4315
▁package	-4316
▁pockets	-4317
▁pointed	-4318
▁pressed	-4319
▁reminds	-4320
▁rescued	-4321
▁someday	-4322
▁spanish	-4323
▁theater	-4324
▁typhoon	-4325
▁victory	-4326
▁volunte	-4327
▁warning	-4328
▁airplane	-4329
▁concentr	-4330
▁contains	-4331
▁criminal	-4332
▁designed	-4333
▁elevator	-4334
▁entirely	-4335
▁envelope	-4336
▁familiar	-4337
▁freezing	-4338
▁homesick	-4339
▁horrible	-4340
▁improved	-4341
▁musician	-4342
▁nowadays	-4343
▁occurred	-4344
▁opposite	-4345
▁pancakes	-4346
▁philosop	-4347
▁possibly	-4348
▁prettier	-4349
▁princess	-4350
▁showered	-4351
▁stressed	-4352
▁thailand	-4353
▁trousers	-4354
▁answering	-4355
▁assistant	-4356
▁attempted	-4357
▁childhood	-4358
▁confusing	-4359
▁currently	-4360
▁factories	-4361
▁furniture	-4362
▁professor	-4363
▁requested	-4364
▁shoelaces	-4365
▁suffering	-4366
▁toothache	-4367
▁wondering	-4368
▁accustomed	-4369
▁apologized	-4370
▁conference	-4371
▁frequently	-4372
▁hamburgers	-4373
▁hippopotam	-4374
▁medication	-4375
▁photograph	-4376
▁somethings	-4377
▁surprising	-4378
▁typewriter	-4379
▁unemployed	-4380
▁volleyball	-4381
▁fortunately	-4382
▁switzerland	-4383
af	-4384
lo	-4385
ama	-4386
bid	-4387
cue	-4388
log	-4389
mel	-4390
ole	-4391
omy	-4392
son	-4393
▁ky	-4394
agna	-4395
alse	-4396
amas	-4397
aves	-4398
bers	-4399
cast	-4400
cest	-4401
cons	-4402
iche	-4403
icks	-4404
ided	-4405
inet	-4406
itic	-4407
izzy	-4408
lies	-4409
reep	-4410
rise	-4411
thod	-4412
uded	-4413
ulty	-4414
▁ach	-4415
▁ast	-4416
▁cho	-4417
▁cru	-4418
▁dat	-4419
▁esp	-4420
▁fra	-4421
▁iss	-4422
▁las	-4423
▁mic	-4424
▁mut	-4425
▁pig	-4426
▁rat	-4427
▁rum	-4428
▁tap	-4429
▁tar	-4430
▁tat	-4431
▁var	-4432
antic	-4433
ardon	-4434
asons	-4435
atest	-4436
doors	-4437
gency	-4438
gging	-4439
idays	-4440
ieved	-4441
ified	-4442
imney	-4443
iting	-4444
oming	-4445
otein	-4446
rogen	-4447
store	-4448
usion	-4449
▁arro	-4450
▁bees	-4451
▁bull	-4452
▁clue	-4453
▁coal	-4454
▁cups	-4455
▁decl	-4456
▁defe	-4457
▁dirt	-4458
▁duty	-4459
▁ends	-4460
▁fash	-4461
▁fork	-4462
▁host	-4463
▁jour	-4464
▁laid	-4465
▁lawn	-4466
▁mild	-4467
▁okay	-4468
▁pity	-4469
▁pump	-4470
▁sale	-4471
▁sett	-4472
▁shed	-4473
▁site	-4474
▁tail	-4475
▁thri	-4476
▁tick	-4477
▁tune	-4478
▁unus	-4479
▁vain	-4480
▁wifi	-4481
atient	-4482
endent	-4483
erview	-4484
ularly	-4485
vented	-4486
▁alibi	-4487
▁alpha	-4488
▁astro	-4489
▁bacon	-4490
▁barbe	-4491
▁benef	-4492
▁bunch	-4493
▁camel	-4494
▁cloud	-4495
▁concl	-4496
▁condu	-4497
▁creep	-4498
▁dizzy	-4499
▁dozen	-4500
▁false	-4501
▁focus	-4502
▁grave	-4503
▁grows	-4504
▁ident	-4505
▁influ	-4506
▁lacks	-4507
▁level	-4508
▁local	-4509
▁memor	-4510
▁opera	-4511
▁porch	-4512
▁punct	-4513
▁rainy	-4514
▁screw	-4515
▁shell	-4516
▁shook	-4517
▁spite	-4518
▁stays	-4519
▁stops	-4520
▁sunny	-4521
▁swims	-4522
▁techn	-4523
▁terms	-4524
▁turns	-4525
▁wholl	-4526
icapped	-4527
inguish	-4528
ologist	-4529
ometers	-4530
ruction	-4531
▁access	-4532
▁acting	-4533
▁ancest	-4534
▁babies	-4535
▁bakery	-4536
▁biting	-4537
▁boiled	-4538
▁cancel	-4539
▁chairs	-4540
▁cotton	-4541
▁distur	-4542
▁earned	-4543
▁grandp	-4544
▁helmet	-4545
▁hilton	-4546
▁humans	-4547
▁immune	-4548
▁ladder	-4549
▁loaded	-4550
▁narrow	-4551
▁pardon	-4552
▁phoned	-4553
▁regard	-4554
▁reserv	-4555
▁sliced	-4556
▁smooth	-4557
▁source	-4558
▁spread	-4559
▁stands	-4560
▁stinks	-4561
▁sunset	-4562
▁switch	-4563
▁target	-4564
▁toothp	-4565
▁uncles	-4566
▁unless	-4567
▁vacuum	-4568
▁valent	-4569
▁volume	-4570
▁warned	-4571
▁weighs	-4572
▁worker	-4573
▁absence	-4574
▁accused	-4575
▁actress	-4576
▁admired	-4577
▁answers	-4578
▁cheered	-4579
▁chimney	-4580
▁coffees	-4581
▁concern	-4582
▁crashed	-4583
▁created	-4584
▁depends	-4585
▁fainted	-4586
▁farmers	-4587
▁further	-4588
▁googled	-4589
▁hearing	-4590
▁honesty	-4591
▁insects	-4592
▁kissing	-4593
▁lasagna	-4594
▁members	-4595
▁museums	-4596
▁opening	-4597
▁planted	-4598
▁prevent	-4599
▁rabbits	-4600
▁reasons	-4601
▁slapped	-4602
▁snoring	-4603
▁sunrise	-4604
▁tourist	-4605
▁typical	-4606
▁walnuts	-4607
▁whisper	-4608
▁yelling	-4609
ationship	-4610
▁attended	-4611
▁becoming	-4612
▁consists	-4613
▁defeated	-4614
▁dreaming	-4615
▁greatest	-4616
▁mistaken	-4617
▁mosquito	-4618
▁original	-4619
▁outdoors	-4620
▁pleasant	-4621
▁polluted	-4622
▁valuable	-4623
▁violence	-4624
▁watermel	-4625
▁wherever	-4626
▁attracted	-4627
▁discussed	-4628
▁elephants	-4629
▁emergency	-4630
▁financial	-4631
▁generally	-4632
▁impatient	-4633
▁interview	-4634
▁knowledge	-4635
▁lightning	-4636
▁preparing	-4637
▁prevented	-4638
▁promotion	-4639
▁published	-4640
▁relatives	-4641
▁accomplish	-4642
▁classmates	-4643
▁difficulty	-4644
▁directions	-4645
▁discussion	-4646
▁everywhere	-4647
▁friendship	-4648
▁introduced	-4649
▁kilometers	-4650
▁smartphone	-4651
▁description	-4652
▁distinguish	-4653
▁handicapped	-4654
▁politicians	-4655
▁reluctantly	-4656
▁relationship	-4657
ex	-4658
ns	-4659
ye	-4660
ask	-4661
erc	-4662
gth	-4663
ham	-4664
igr	-4665
ipt	-4666
ith	-4667
jud	-4668
kin	-4669
lee	-4670
lim	-4671
lph	-4672
ogs	-4673
oms	-4674
oto	-4675
rid	-4676
umn	-4677
yle	-4678
▁au	-4679
▁os	-4680
acle	-4681
bell	-4682
card	-4683
cted	-4684
ctic	-4685
eapp	-4686
gger	-4687
hern	-4688
iant	-4689
itam	-4690
itor	-4691
ivor	-4692
izes	-4693
keep	-4694
moon	-4695
mped	-4696
omer	-4697
pper	-4698
sych	-4699
teen	-4700
uate	-4701
vert	-4702
▁asp	-4703
▁cro	-4704
▁dna	-4705
▁fan	-4706
▁fbi	-4707
▁kit	-4708
▁kne	-4709
▁lab	-4710
▁lif	-4711
▁net	-4712
▁paj	-4713
▁pea	-4714
▁sib	-4715
▁sou	-4716
▁spr	-4717
▁tag	-4718
▁tor	-4719
▁toy	-4720
▁unf	-4721
apper	-4722
ctive	-4723
cture	-4724
ening	-4725
erest	-4726
erved	-4727
gnant	-4728
hered	-4729
isher	-4730
isted	-4731
lings	-4732
phere	-4733
ufact	-4734
urity	-4735
works	-4736
▁appl	-4737
▁beef	-4738
▁bone	-4739
▁brus	-4740
▁caut	-4741
▁cere	-4742
▁chop	-4743
▁conn	-4744
▁data	-4745
▁deer	-4746
▁dumb	-4747
▁fuel	-4748
▁glut	-4749
▁hers	-4750
▁imit	-4751
▁lady	-4752
▁magn	-4753
▁mamm	-4754
▁neat	-4755
▁nest	-4756
▁noon	-4757
▁pear	-4758
▁pens	-4759
▁rats	-4760
▁silk	-4761
▁skip	-4762
▁sock	-4763
▁stut	-4764
▁sunb	-4765
▁swam	-4766
▁swed	-4767
▁tear	-4768
▁tied	-4769
▁visa	-4770
▁wide	-4771
▁wins	-4772
ffered	-4773
napped	-4774
ration	-4775
worthy	-4776
▁angel	-4777
▁apply	-4778
▁babys	-4779
▁based	-4780
▁bills	-4781
▁bowed	-4782
▁burgl	-4783
▁chest	-4784
▁contr	-4785
▁disor	-4786
▁dolph	-4787
▁drugs	-4788
▁exerc	-4789
▁falls	-4790
▁flies	-4791
▁flows	-4792
▁foods	-4793
▁franc	-4794
▁frank	-4795
▁greet	-4796
▁habit	-4797
▁heave	-4798
▁hired	-4799
▁kyoto	-4800
▁lamps	-4801
▁latin	-4802
▁lemon	-4803
▁miles	-4804
▁moody	-4805
▁optim	-4806
▁pills	-4807
▁psych	-4808
▁scare	-4809
▁sheet	-4810
▁slipp	-4811
▁spare	-4812
▁spect	-4813
▁steak	-4814
▁steps	-4815
▁stren	-4816
▁suits	-4817
▁sweat	-4818
▁unbel	-4819
▁vitam	-4820
▁walls	-4821
▁wings	-4822
aborate	-4823
looking	-4824
yearold	-4825
▁admire	-4826
▁affect	-4827
▁amount	-4828
▁baking	-4829
▁battle	-4830
▁blouse	-4831
▁chased	-4832
▁cloudy	-4833
▁critic	-4834
▁degree	-4835
▁dollar	-4836
▁double	-4837
▁emails	-4838
▁enjoys	-4839
▁fooled	-4840
▁forbid	-4841
▁friday	-4842
▁google	-4843
▁heated	-4844
▁infect	-4845
▁interp	-4846
▁itself	-4847
▁monkey	-4848
▁muslim	-4849
▁myster	-4850
▁peeled	-4851
▁poetry	-4852
▁reject	-4853
▁rising	-4854
▁rocket	-4855
▁russia	-4856
▁scient	-4857
▁search	-4858
▁seated	-4859
▁signed	-4860
▁smokes	-4861
▁social	-4862
▁solved	-4863
▁square	-4864
▁strike	-4865
▁supper	-4866
▁tunnel	-4867
▁uncons	-4868
▁whatve	-4869
▁wolves	-4870
▁worlds	-4871
daughter	-4872
▁alcohol	-4873
▁assumed	-4874
▁barking	-4875
▁bottles	-4876
▁browser	-4877
▁capable	-4878
▁carpent	-4879
▁ceiling	-4880
▁closest	-4881
▁comment	-4882
▁damaged	-4883
▁dreamed	-4884
▁emailed	-4885
▁fashion	-4886
▁haircut	-4887
▁heavier	-4888
▁heights	-4889
▁inhabit	-4890
▁knocked	-4891
▁lecture	-4892
▁manager	-4893
▁painter	-4894
▁pajamas	-4895
▁peaches	-4896
▁pianist	-4897
▁picking	-4898
▁pineapp	-4899
▁players	-4900
▁plumber	-4901
▁predict	-4902
▁prepare	-4903
▁private	-4904
▁protein	-4905
▁receipt	-4906
▁recover	-4907
▁related	-4908
▁ringing	-4909
▁sailing	-4910
▁settled	-4911
▁sounded	-4912
▁sources	-4913
▁thanked	-4914
▁touched	-4915
▁travels	-4916
▁unusual	-4917
▁watered	-4918
scription	-4919
▁alphabet	-4920
▁arrogant	-4921
▁astrolog	-4922
▁bankrupt	-4923
▁captured	-4924
▁climbing	-4925
▁communic	-4926
▁crossing	-4927
▁cupboard	-4928
▁doorbell	-4929
▁election	-4930
▁fluently	-4931
▁holidays	-4932
▁informed	-4933
▁inspired	-4934
▁intended	-4935
▁internet	-4936
▁majority	-4937
▁manufact	-4938
▁memorize	-4939
▁midnight	-4940
▁normally	-4941
▁particip	-4942
▁pregnant	-4943
▁produces	-4944
▁properly	-4945
▁punctual	-4946
▁reaction	-4947
▁requires	-4948
▁security	-4949
▁siblings	-4950
▁software	-4951
▁suffered	-4952
▁survivor	-4953
▁underest	-4954
▁universe	-4955
▁advantage	-4956
▁ancestors	-4957
▁bothering	-4958
▁breathing	-4959
▁briefcase	-4960
▁disagrees	-4961
▁exception	-4962
▁explosion	-4963
▁fireworks	-4964
▁honeymoon	-4965
▁hopefully	-4966
▁increased	-4967
▁kidnapped	-4968
▁mushrooms	-4969
▁objection	-4970
▁practical	-4971
▁secretary	-4972
▁sentenced	-4973
▁shoulders	-4974
▁strangers	-4975
▁terrified	-4976
▁thousands	-4977
▁acceptable	-4978
▁assistance	-4979
▁calculator	-4980
▁constantly	-4981
▁forgetting	-4982
▁instructor	-4983
▁investment	-4984
▁protecting	-4985
▁punishment	-4986
▁secondhand	-4987
▁suggestion	-4988
▁themselves	-4989
▁valentines	-4990
▁wheelchair	-4991
▁application	-4992
▁earthquakes	-4993
▁embarrassed	-4994
▁independent	-4995
▁personality	-4996
▁recommended	-4997
▁unconscious	-4998
▁construction	-4999
▁embarrassing	-5000
▁professional	-5001
gy	-5002
ux	-5003
wa	-5004
zz	-5005
bly	-5006
boy	-5007
bru	-5008
bum	-5009
cas	-5010
cip	-5011
ded	-5012
exp	-5013
iac	-5014
ids	-5015
iny	-5016
iod	-5017
put	-5018
rer	-5019
rib	-5020
too	-5021
urs	-5022
vol	-5023
wnt	-5024
zes	-5025
▁es	-5026
▁ge	-5027
agne	-5028
aste	-5029
ault	-5030
bage	-5031
coat	-5032
cope	-5033
eddy	-5034
fere	-5035
gage	-5036
geon	-5037
hens	-5038
idly	-5039
imid	-5040
isco	-5041
itch	-5042
itiz	-5043
kets	-5044
mate	-5045
odka	-5046
ogen	-5047
oped	-5048
ouch	-5049
rigu	-5050
roke	-5051
roph	-5052
ucky	-5053
uled	-5054
vest	-5055
viar	-5056
wood	-5057
xoph	-5058
▁apr	-5059
▁due	-5060
▁fog	-5061
▁gum	-5062
▁hay	-5063
▁ine	-5064
▁ner	-5065
▁nut	-5066
▁obs	-5067
▁odd	-5068
▁pac	-5069
▁pal	-5070
▁pir	-5071
▁san	-5072
▁shi	-5073
▁shr	-5074
▁spl	-5075
▁wid	-5076
▁wis	-5077
ading	-5078
adium	-5079
agger	-5080
ality	-5081
ament	-5082
anged	-5083
arily	-5084
ators	-5085
atory	-5086
berry	-5087
cient	-5088
ender	-5089
enses	-5090
flies	-5091
inate	-5092
ivers	-5093
lands	-5094
obile	-5095
oline	-5096
overs	-5097
pered	-5098
proof	-5099
stron	-5100
uming	-5101
unate	-5102
urous	-5103
▁arms	-5104
▁bare	-5105
▁bart	-5106
▁belt	-5107
▁blan	-5108
▁brit	-5109
▁chem	-5110
▁comb	-5111
▁cure	-5112
▁cust	-5113
▁cycl	-5114
▁dare	-5115
▁dove	-5116
▁drag	-5117
▁dump	-5118
▁dyed	-5119
▁econ	-5120
▁exit	-5121
▁firm	-5122
▁gull	-5123
▁irre	-5124
▁jerk	-5125
▁liqu	-5126
▁mand	-5127
▁nodd	-5128
▁nude	-5129
▁pier	-5130
▁pray	-5131
▁ripe	-5132
▁rome	-5133
▁root	-5134
▁sees	-5135
▁sink	-5136
▁skis	-5137
▁soap	-5138
▁susp	-5139
▁tire	-5140
▁unco	-5141
▁wink	-5142
acelet	-5143
attern	-5144
bruary	-5145
casion	-5146
ential	-5147
erable	-5148
ground	-5149
imated	-5150
nesday	-5151
nesses	-5152
ricane	-5153
sticks	-5154
tering	-5155
▁album	-5156
▁alike	-5157
▁atmos	-5158
▁bound	-5159
▁burnt	-5160
▁buses	-5161
▁champ	-5162
▁cheek	-5163
▁citiz	-5164
▁delay	-5165
▁deter	-5166
▁downt	-5167
▁drums	-5168
▁error	-5169
▁estab	-5170
▁explo	-5171
▁fence	-5172
▁fishy	-5173
▁flour	-5174
▁forks	-5175
▁frust	-5176
▁fully	-5177
▁goods	-5178
▁guide	-5179
▁hoped	-5180
▁humor	-5181
▁hypoc	-5182
▁issue	-5183
▁lifes	-5184
▁mater	-5185
▁meals	-5186
▁merry	-5187
▁micro	-5188
▁motiv	-5189
▁occup	-5190
▁owner	-5191
▁penny	-5192
▁picky	-5193
▁roads	-5194
▁seeds	-5195
▁separ	-5196
▁shops	-5197
▁silly	-5198
▁snows	-5199
▁speed	-5200
▁stead	-5201
▁stock	-5202
▁teddy	-5203
▁tools	-5204
▁tries	-5205
▁trunk	-5206
▁unexp	-5207
▁valid	-5208
▁value	-5209
▁virus	-5210
▁vodka	-5211
▁vouch	-5212
▁windy	-5213
▁wound	-5214
▁wrist	-5215
▁youth	-5216
agement	-5217
ilities	-5218
ography	-5219
venteen	-5220
▁advent	-5221
▁assign	-5222
▁astron	-5223
▁autumn	-5224
▁blamed	-5225
▁burden	-5226
▁busier	-5227
▁camels	-5228
▁caviar	-5229
▁circus	-5230
▁collea	-5231
▁compos	-5232
▁cookie	-5233
▁downlo	-5234
▁easter	-5235
▁edible	-5236
▁encour	-5237
▁essent	-5238
▁exting	-5239
▁gluten	-5240
▁horror	-5241
▁hunter	-5242
▁insane	-5243
▁killer	-5244
▁latest	-5245
▁loudly	-5246
▁nature	-5247
▁nether	-5248
▁option	-5249
▁period	-5250
▁pirate	-5251
▁pizzas	-5252
▁points	-5253
▁portug	-5254
▁prejud	-5255
▁priest	-5256
▁recent	-5257
▁ruined	-5258
▁saxoph	-5259
▁shared	-5260
▁stones	-5261
▁stores	-5262
▁stroke	-5263
▁supply	-5264
▁sweden	-5265
▁talent	-5266
▁tattoo	-5267
▁treats	-5268
iversary	-5269
ological	-5270
▁ancient	-5271
▁annoyed	-5272
▁awfully	-5273
▁babysit	-5274
▁baggage	-5275
▁balloon	-5276
▁barbers	-5277
▁blushed	-5278
▁burglar	-5279
▁burning	-5280
▁ceremon	-5281
▁chances	-5282
▁closing	-5283
▁compete	-5284
▁counter	-5285
▁crowded	-5286
▁delayed	-5287
▁disagre	-5288
▁disgust	-5289
▁disturb	-5290
▁exagger	-5291
▁exports	-5292
▁fastest	-5293
▁fireman	-5294
▁garbage	-5295
▁hanging	-5296
▁harvest	-5297
▁heavily	-5298
▁however	-5299
▁hurting	-5300
▁inspect	-5301
▁install	-5302
▁intrigu	-5303
▁keeping	-5304
▁lawyers	-5305
▁lessons	-5306
▁longest	-5307
▁luckily	-5308
▁massage	-5309
▁mightve	-5310
▁parrots	-5311
▁pattern	-5312
▁percent	-5313
▁princip	-5314
▁provide	-5315
▁quietly	-5316
▁rapidly	-5317
▁relaxed	-5318
▁remains	-5319
▁scenery	-5320
▁shining	-5321
▁shouted	-5322
▁spoiled	-5323
▁stadium	-5324
▁streets	-5325
▁tallest	-5326
▁towards	-5327
▁trigger	-5328
▁unlucky	-5329
▁warming	-5330
▁whistle	-5331
▁zombies	-5332
▁acquaint	-5333
▁avoiding	-5334
▁bracelet	-5335
▁canceled	-5336
▁capitals	-5337
▁carrying	-5338
▁cautious	-5339
▁collapse	-5340
▁concerts	-5341
▁customer	-5342
▁deserves	-5343
▁drowning	-5344
▁eighteen	-5345
▁european	-5346
▁exciting	-5347
▁february	-5348
▁gullible	-5349
▁hangover	-5350
▁incident	-5351
▁included	-5352
▁interpre	-5353
▁occasion	-5354
▁official	-5355
▁panicked	-5356
▁patients	-5357
▁position	-5358
▁powerful	-5359
▁precious	-5360
▁quitting	-5361
▁recovery	-5362
▁rejected	-5363
▁released	-5364
▁research	-5365
▁resemble	-5366
▁romantic	-5367
▁sensible	-5368
▁shortage	-5369
▁slippery	-5370
▁spending	-5371
▁squirrel	-5372
▁strength	-5373
▁strongly	-5374
▁ticklish	-5375
▁tourists	-5376
▁training	-5377
▁unlocked	-5378
▁accidents	-5379
▁bookstore	-5380
▁celebrate	-5381
▁comparing	-5382
▁conscious	-5383
▁continent	-5384
▁correctly	-5385
▁customers	-5386
▁detective	-5387
▁disappear	-5388
▁elaborate	-5389
▁francisco	-5390
▁hurricane	-5391
▁interfere	-5392
▁magazines	-5393
▁persuaded	-5394
▁pineapple	-5395
▁protected	-5396
▁recovered	-5397
▁repeating	-5398
▁seventeen	-5399
▁wednesday	-5400
▁whispered	-5401
▁atmosphere	-5402
▁automobile	-5403
▁chopsticks	-5404
▁confidence	-5405
▁impression	-5406
▁incredible	-5407
▁originally	-5408
▁passengers	-5409
▁personally	-5410
▁practicing	-5411
▁questioned	-5412
▁retirement	-5413
▁stuttering	-5414
▁toothpaste	-5415
▁unexpected	-5416
▁watermelon	-5417
▁whispering	-5418
▁yesterdays	-5419
▁adventurous	-5420
▁anniversary	-5421
▁approaching	-5422
▁goodlooking	-5423
▁imagination	-5424
▁interrupted	-5425
▁netherlands	-5426
▁philosopher	-5427
▁practically	-5428
▁reservation	-5429
▁accidentally	-5430
▁particularly	-5431
▁photographer	-5432
▁unbelievable	-5433
▁international	-5434
▁misunderstood	-5435
hm	-5436
kn	-5437
li	-5438
ov	-5439
rd	-5440
uc	-5441
aid	-5442
asp	-5443
bag	-5444
cod	-5445
cum	-5446
dom	-5447
fer	-5448
fit	-5449
fly	-5450
gar	-5451
imp	-5452
ini	-5453
ior	-5454
mbo	-5455
nal	-5456
new	-5457
ocr	-5458
orp	-5459
pri	-5460
ude	-5461
xed	-5462
yal	-5463
zed	-5464
▁dj	-5465
▁ii	-5466
▁pi	-5467
aine	-5468
atch	-5469
bras	-5470
cony	-5471
cure	-5472
ecut	-5473
ency	-5474
five	-5475
flow	-5476
free	-5477
ieth	-5478
iffe	-5479
illa	-5480
inct	-5481
ints	-5482
ivil	-5483
keys	-5484
lder	-5485
mare	-5486
mpoo	-5487
oral	-5488
orea	-5489
otes	-5490
plom	-5491
reat	-5492
rels	-5493
rite	-5494
spir	-5495
turn	-5496
unci	-5497
yond	-5498
▁ali	-5499
▁amp	-5500
▁ang	-5501
▁ank	-5502
▁ara	-5503
▁arr	-5504
▁bum	-5505
▁cds	-5506
▁fac	-5507
▁foc	-5508
▁fol	-5509
▁hic	-5510
▁hig	-5511
▁hyd	-5512
▁lip	-5513
▁lux	-5514
▁mow	-5515
▁mug	-5516
▁pet	-5517
▁pra	-5518
▁rac	-5519
▁sip	-5520
▁ske	-5521
▁sue	-5522
▁tit	-5523
▁toe	-5524
▁ult	-5525
▁ven	-5526
▁wha	-5527
agers	-5528
anied	-5529
atell	-5530
cking	-5531
clear	-5532
cumst	-5533
derer	-5534
grand	-5535
guard	-5536
house	-5537
icill	-5538
itect	-5539
known	-5540
ogram	-5541
olded	-5542
ooked	-5543
place	-5544
slept	-5545
umbus	-5546
umpet	-5547
▁abol	-5548
▁aint	-5549
▁ants	-5550
▁bats	-5551
▁chew	-5552
▁cock	-5553
▁code	-5554
▁cuts	-5555
▁debt	-5556
▁drew	-5557
▁envy	-5558
▁eyel	-5559
▁fist	-5560
▁gain	-5561
▁gamb	-5562
▁grab	-5563
▁insu	-5564
▁knee	-5565
▁knit	-5566
▁laun	-5567
▁leak	-5568
▁maid	-5569
▁mens	-5570
▁nick	-5571
▁owls	-5572
▁peru	-5573
▁pets	-5574
▁pies	-5575
▁pigs	-5576
▁pour	-5577
▁rash	-5578
▁rasp	-5579
▁sets	-5580
▁shri	-5581
▁slob	-5582
▁sout	-5583
▁spec	-5584
▁stat	-5585
▁stir	-5586
▁stoo	-5587
▁tank	-5588
▁thor	-5589
▁tuna	-5590
▁twig	-5591
▁user	-5592
▁wolf	-5593
cially	-5594
giving	-5595
headed	-5596
hedral	-5597
heless	-5598
icious	-5599
itions	-5600
lessly	-5601
mbered	-5602
nalist	-5603
ocracy	-5604
ogenic	-5605
orable	-5606
orrect	-5607
oughly	-5608
prints	-5609
▁activ	-5610
▁added	-5611
▁alert	-5612
▁alice	-5613
▁attic	-5614
▁aunts	-5615
▁bloom	-5616
▁boxes	-5617
▁cardi	-5618
▁civil	-5619
▁coast	-5620
▁colon	-5621
▁comic	-5622
▁cruel	-5623
▁cured	-5624
▁deals	-5625
▁debts	-5626
▁demon	-5627
▁dutch	-5628
▁exams	-5629
▁faces	-5630
▁faint	-5631
▁faith	-5632
▁fifth	-5633
▁flood	-5634
▁floss	-5635
▁freed	-5636
▁fried	-5637
▁fuels	-5638
▁greek	-5639
▁ignor	-5640
▁johns	-5641
▁korea	-5642
▁liars	-5643
▁linux	-5644
▁loses	-5645
▁melon	-5646
▁minor	-5647
▁muddy	-5648
▁notes	-5649
▁orbit	-5650
▁pharm	-5651
▁pilot	-5652
▁prior	-5653
▁renew	-5654
▁revol	-5655
▁safer	-5656
▁sauce	-5657
▁scene	-5658
▁scorp	-5659
▁sends	-5660
▁shade	-5661
▁shape	-5662
▁sides	-5663
▁slave	-5664
▁solar	-5665
▁spoon	-5666
▁stage	-5667
▁style	-5668
▁sword	-5669
▁tomll	-5670
▁union	-5671
▁waved	-5672
ganized	-5673
icillin	-5674
spiracy	-5675
▁affair	-5676
▁agrees	-5677
▁banned	-5678
▁beaten	-5679
▁beyond	-5680
▁bitten	-5681
▁buried	-5682
▁causes	-5683
▁charac	-5684
▁cherry	-5685
▁closer	-5686
▁commit	-5687
▁crocod	-5688
▁diplom	-5689
▁dumped	-5690
▁effort	-5691
▁eighty	-5692
▁equals	-5693
▁execut	-5694
▁fasten	-5695
▁fisher	-5696
▁garlic	-5697
▁grades	-5698
▁heaven	-5699
▁idiots	-5700
▁indust	-5701
▁ironed	-5702
▁kidney	-5703
▁knives	-5704
▁mammal	-5705
▁method	-5706
▁mugged	-5707
▁mutual	-5708
▁nation	-5709
▁necess	-5710
▁nodded	-5711
▁observ	-5712
▁obstru	-5713
▁outfit	-5714
▁policy	-5715
▁potato	-5716
▁pounds	-5717
▁profit	-5718
▁rapper	-5719
▁rivers	-5720
▁robber	-5721
▁rolled	-5722
▁rubber	-5723
▁rushed	-5724
▁salmon	-5725
▁satell	-5726
▁served	-5727
▁settle	-5728
▁skinny	-5729
▁stared	-5730
▁stress	-5731
▁struck	-5732
▁suffer	-5733
▁territ	-5734
▁terror	-5735
▁trusts	-5736
▁turtle	-5737
▁unfair	-5738
▁wasted	-5739
▁waters	-5740
▁zebras	-5741
ordinary	-5742
▁abandon	-5743
▁actions	-5744
▁antique	-5745
▁avoided	-5746
▁balcony	-5747
▁bathing	-5748
▁bedtime	-5749
▁british	-5750
▁carried	-5751
▁cashier	-5752
▁catches	-5753
▁citizen	-5754
▁claimed	-5755
▁cleared	-5756
▁conduct	-5757
▁confirm	-5758
▁depress	-5759
▁destroy	-5760
▁ditched	-5761
▁divorce	-5762
▁effects	-5763
▁explode	-5764
▁fiction	-5765
▁fifteen	-5766
▁focused	-5767
▁frankly	-5768
▁grabbed	-5769
▁greeted	-5770
▁happier	-5771
▁heading	-5772
▁hurried	-5773
▁logical	-5774
▁lottery	-5775
▁melting	-5776
▁miracle	-5777
▁monkeys	-5778
▁monster	-5779
▁muslims	-5780
▁mystery	-5781
▁needing	-5782
▁nuclear	-5783
▁officer	-5784
▁peeling	-5785
▁physics	-5786
▁planets	-5787
▁planned	-5788
▁plastic	-5789
▁protest	-5790
▁recycle	-5791
▁require	-5792
▁scolded	-5793
▁seconds	-5794
▁shampoo	-5795
▁sincere	-5796
▁skipped	-5797
▁slipped	-5798
▁surgeon	-5799
▁sympath	-5800
▁trumpet	-5801
▁useless	-5802
▁vanilla	-5803
▁various	-5804
▁whoever	-5805
unciation	-5806
▁appropri	-5807
▁billions	-5808
▁breaking	-5809
▁careless	-5810
▁ceremony	-5811
▁chairman	-5812
▁cheering	-5813
▁chickens	-5814
▁childish	-5815
▁circumst	-5816
▁columbus	-5817
▁cucumber	-5818
▁deserted	-5819
▁downtown	-5820
▁engineer	-5821
▁eyesight	-5822
▁facebook	-5823
▁fulltime	-5824
▁grandson	-5825
▁husbands	-5826
▁insecure	-5827
▁launched	-5828
▁meetings	-5829
▁minister	-5830
▁mornings	-5831
▁murderer	-5832
▁nickname	-5833
▁postcard	-5834
▁products	-5835
▁recorded	-5836
▁register	-5837
▁relieved	-5838
▁religion	-5839
▁reminded	-5840
▁reserved	-5841
▁resigned	-5842
▁roommate	-5843
▁scarcely	-5844
▁screamed	-5845
▁shouting	-5846
▁slightly	-5847
▁sneezing	-5848
▁someones	-5849
▁starving	-5850
▁sweating	-5851
▁thoughts	-5852
▁throwing	-5853
▁tolerate	-5854
▁touching	-5855
▁username	-5856
▁visiting	-5857
▁weathers	-5858
▁weekends	-5859
▁appointed	-5860
▁architect	-5861
▁astrology	-5862
▁astronomy	-5863
▁bartender	-5864
▁buildings	-5865
▁butterfly	-5866
▁carpenter	-5867
▁cathedral	-5868
▁champagne	-5869
▁colleague	-5870
▁collected	-5871
▁effective	-5872
▁finishing	-5873
▁forbidden	-5874
▁geography	-5875
▁guitarist	-5876
▁incorrect	-5877
▁instantly	-5878
▁intrigued	-5879
▁irritated	-5880
▁negotiate	-5881
▁nightmare	-5882
▁operation	-5883
▁organized	-5884
▁overnight	-5885
▁overslept	-5886
▁permitted	-5887
▁poisonous	-5888
▁pollution	-5889
▁potential	-5890
▁principal	-5891
▁prisoners	-5892
▁realistic	-5893
▁religious	-5894
▁sentences	-5895
▁survivors	-5896
▁teenagers	-5897
▁tomorrows	-5898
▁transport	-5899
▁twentieth	-5900
grandfather	-5901
▁acquainted	-5902
▁australian	-5903
▁boyfriends	-5904
▁celebrated	-5905
▁conspiracy	-5906
▁controvers	-5907
▁disappoint	-5908
▁experiment	-5909
▁fascinated	-5910
▁inspection	-5911
▁journalist	-5912
▁literature	-5913
▁motorcycle	-5914
▁penicillin	-5915
▁photogenic	-5916
▁reasonable	-5917
▁stepfather	-5918
▁strawberry	-5919
▁suspicious	-5920
▁technology	-5921
▁accompanied	-5922
▁butterflies	-5923
▁celebrating	-5924
▁competitive	-5925
▁considering	-5926
▁cooperation	-5927
▁cooperative	-5928
▁differently	-5929
▁examination	-5930
▁meaningless	-5931
▁raspberries	-5932
▁trustworthy	-5933
▁acquaintance	-5934
▁alternatives	-5935
▁disorganized	-5936
▁insufficient	-5937
▁manufactures	-5938
▁thanksgiving	-5939
▁unemployment	-5940
▁circumstances	-5941
▁consciousness	-5942
▁disappointing	-5943
▁extraordinary	-5944
▁granddaughter	-5945
▁handkerchiefs	-5946
▁investigating	-5947
▁pronunciation	-5948
▁underestimate	-5949
▁understanding	-5950
▁disappointment	-5951
ba	-5952
hi	-5953
ji	-5954
aka	-5955
ami	-5956
bor	-5957
bra	-5958
bul	-5959
dam	-5960
dri	-5961
ept	-5962
gha	-5963
hma	-5964
hop	-5965
ili	-5966
ils	-5967
isk	-5968
ixt	-5969
lif	-5970
nat	-5971
noc	-5972
off	-5973
oke	-5974
ona	-5975
pox	-5976
ray	-5977
rep	-5978
ria	-5979
rip	-5980
rop	-5981
rup	-5982
sty	-5983
ues	-5984
una	-5985
use	-5986
usi	-5987
▁ip	-5988
▁mr	-5989
▁mt	-5990
ades	-5991
ador	-5992
agus	-5993
aire	-5994
aled	-5995
anic	-5996
aroo	-5997
asty	-5998
chov	-5999
corn	-6000
dies	-6001
dogs	-6002
easy	-6003
eria	-6004
fall	-6005
fing	-6006
fold	-6007
four	-6008
gery	-6009
ghai	-6010
gium	-6011
hine	-6012
ials	-6013
icer	-6014
iped	-6015
irds	-6016
iron	-6017
ital	-6018
kers	-6019
lant	-6020
leaf	-6021
lect	-6022
lete	-6023
lter	-6024
mail	-6025
miss	-6026
mmit	-6027
mons	-6028
obic	-6029
oded	-6030
oint	-6031
olar	-6032
olve	-6033
omen	-6034
orke	-6035
osen	-6036
phan	-6037
rant	-6038
reen	-6039
ssed	-6040
stit	-6041
trip	-6042
urbs	-6043
usad	-6044
ussy	-6045
vant	-6046
wise	-6047
▁ash	-6048
▁bee	-6049
▁ber	-6050
▁bes	-6051
▁bon	-6052
▁bud	-6053
▁dug	-6054
▁era	-6055
▁eth	-6056
▁gal	-6057
▁gro	-6058
▁ham	-6059
▁jew	-6060
▁loo	-6061
▁mil	-6062
▁nin	-6063
▁nit	-6064
▁obl	-6065
▁pad	-6066
▁ped	-6067
▁rew	-6068
▁rub	-6069
▁rug	-6070
▁rye	-6071
▁sac	-6072
▁sla	-6073
▁soy	-6074
▁tin	-6075
▁tul	-6076
▁usa	-6077
▁ver	-6078
▁vio	-6079
▁wig	-6080
▁wow	-6081
ammed	-6082
anced	-6083
angle	-6084
arten	-6085
auded	-6086
cloth	-6087
elled	-6088
etite	-6089
geous	-6090
ghter	-6091
great	-6092
heard	-6093
idges	-6094
iffel	-6095
inger	-6096
iring	-6097
istry	-6098
itude	-6099
kings	-6100
liest	-6101
mated	-6102
olite	-6103
oning	-6104
osity	-6105
point	-6106
rated	-6107
resso	-6108
rived	-6109
ships	-6110
table	-6111
uated	-6112
ublic	-6113
watch	-6114
water	-6115
▁alps	-6116
▁alth	-6117
▁asks	-6118
▁athe	-6119
▁baff	-6120
▁bark	-6121
▁barn	-6122
▁bars	-6123
▁beak	-6124
▁cafe	-6125
▁cels	-6126
▁chat	-6127
▁chef	-6128
▁clar	-6129
▁crew	-6130
▁curi	-6131
▁diss	-6132
▁dram	-6133
▁drum	-6134
▁duck	-6135
▁enth	-6136
▁evil	-6137
▁fled	-6138
▁fuji	-6139
▁fund	-6140
▁goat	-6141
▁horn	-6142
▁indo	-6143
▁kang	-6144
▁kick	-6145
▁kilo	-6146
▁link	-6147
▁loan	-6148
▁meas	-6149
▁merc	-6150
▁mice	-6151
▁moms	-6152
▁nort	-6153
▁ostr	-6154
▁ours	-6155
▁owes	-6156
▁path	-6157
▁peas	-6158
▁pope	-6159
▁pudd	-6160
▁purs	-6161
▁radi	-6162
▁rail	-6163
▁rake	-6164
▁reve	-6165
▁rise	-6166
▁role	-6167
▁sank	-6168
▁seed	-6169
▁seek	-6170
▁shan	-6171
▁slee	-6172
▁slim	-6173
▁spot	-6174
▁stew	-6175
▁sung	-6176
▁task	-6177
▁teas	-6178
▁term	-6179
▁thai	-6180
▁tips	-6181
▁unin	-6182
▁unto	-6183
▁untr	-6184
▁vary	-6185
▁vent	-6186
▁wars	-6187
▁whod	-6188
▁wobb	-6189
cience	-6190
coming	-6191
ctions	-6192
driver	-6193
encing	-6194
guised	-6195
ifying	-6196
iskirt	-6197
ivered	-6198
minute	-6199
missed	-6200
ocking	-6201
ounced	-6202
ources	-6203
phoned	-6204
phones	-6205
ptical	-6206
resent	-6207
ursday	-6208
verted	-6209
▁accur	-6210
▁adopt	-6211
▁aimed	-6212
▁anger	-6213
▁ankle	-6214
▁apric	-6215
▁arrow	-6216
▁aspar	-6217
▁bakes	-6218
▁balls	-6219
▁basic	-6220
▁beard	-6221
▁beats	-6222
▁birch	-6223
▁blank	-6224
▁bless	-6225
▁blown	-6226
▁boils	-6227
▁bribe	-6228
▁broad	-6229
▁cakes	-6230
▁chips	-6231
▁dates	-6232
▁decor	-6233
▁dolls	-6234
▁elder	-6235
▁exhib	-6236
▁float	-6237
▁frame	-6238
▁frogs	-6239
▁fussy	-6240
▁grade	-6241
▁gross	-6242
▁guilt	-6243
▁heels	-6244
▁hopes	-6245
▁innoc	-6246
▁intru	-6247
▁kilos	-6248
▁kites	-6249
▁knees	-6250
▁leads	-6251
▁leaks	-6252
▁legal	-6253
▁limit	-6254
▁liver	-6255
▁loyal	-6256
▁maple	-6257
▁metal	-6258
▁moons	-6259
▁nicer	-6260
▁ordin	-6261
▁osaka	-6262
▁outra	-6263
▁paras	-6264
▁poker	-6265
▁pound	-6266
▁pride	-6267
▁print	-6268
▁reput	-6269
▁rings	-6270
▁roman	-6271
▁sales	-6272
▁sauna	-6273
▁score	-6274
▁signs	-6275
▁skied	-6276
▁sorts	-6277
▁split	-6278
▁stare	-6279
▁steam	-6280
▁sting	-6281
▁stove	-6282
▁stung	-6283
▁swept	-6284
▁syrup	-6285
▁tasty	-6286
▁teles	-6287
▁timid	-6288
▁treas	-6289
▁uncom	-6290
▁uturn	-6291
▁views	-6292
▁winds	-6293
▁woken	-6294
amental	-6295
athetic	-6296
chovies	-6297
ichever	-6298
keepers	-6299
parable	-6300
ritical	-6301
sterdam	-6302
ustroph	-6303
▁advise	-6304
▁asthma	-6305
▁backup	-6306
▁barefo	-6307
▁barked	-6308
▁begged	-6309
▁beside	-6310
▁beware	-6311
▁blinds	-6312
▁brakes	-6313
▁breaks	-6314
▁bumped	-6315
▁candle	-6316
▁carpet	-6317
▁cheeks	-6318
▁childs	-6319
▁chilly	-6320
▁chosen	-6321
▁clover	-6322
▁cockro	-6323
▁compli	-6324
▁conven	-6325
▁cowboy	-6326
▁creepy	-6327
▁crusad	-6328
▁danced	-6329
▁debate	-6330
▁devast	-6331
▁dining	-6332
▁disney	-6333
▁divide	-6334
▁eiffel	-6335
▁expire	-6336
▁fought	-6337
▁fourth	-6338
▁ginger	-6339
▁harbor	-6340
▁headed	-6341
▁hidden	-6342
▁hunger	-6343
▁inches	-6344
▁invent	-6345
▁ironic	-6346
▁lemons	-6347
▁lesson	-6348
▁lilies	-6349
▁loaves	-6350
▁locker	-6351
▁luxury	-6352
▁madrid	-6353
▁maiden	-6354
▁mainly	-6355
▁marked	-6356
▁obtain	-6357
▁orphan	-6358
▁output	-6359
▁owners	-6360
▁palace	-6361
▁patted	-6362
▁pepper	-6363
▁physic	-6364
▁plates	-6365
▁pollen	-6366
▁prince	-6367
▁proved	-6368
▁proven	-6369
▁prover	-6370
▁racket	-6371
▁recept	-6372
▁recipe	-6373
▁reduce	-6374
▁rescue	-6375
▁riding	-6376
▁rights	-6377
▁rumors	-6378
▁runner	-6379
▁safely	-6380
▁secure	-6381
▁serves	-6382
▁skates	-6383
▁slower	-6384
▁smoked	-6385
▁snorke	-6386
▁steady	-6387
▁strive	-6388
▁subway	-6389
▁suffoc	-6390
▁summit	-6391
▁sunbat	-6392
▁sweets	-6393
▁teased	-6394
▁temper	-6395
▁theory	-6396
▁thrift	-6397
▁tomato	-6398
▁tulips	-6399
▁uneasy	-6400
▁untied	-6401
▁update	-6402
▁winner	-6403
▁wishes	-6404
▁zombie	-6405
ergarten	-6406
ironment	-6407
▁bedside	-6408
▁behaved	-6409
▁belgium	-6410
▁benefit	-6411
▁blondes	-6412
▁bowling	-6413
▁breathe	-6414
▁bridges	-6415
▁cabinet	-6416
▁cameras	-6417
▁causing	-6418
▁celsius	-6419
▁century	-6420
▁charged	-6421
▁choices	-6422
▁cleaner	-6423
▁climber	-6424
▁closely	-6425
▁complex	-6426
▁consult	-6427
▁contrad	-6428
▁contrib	-6429
▁costume	-6430
▁coughed	-6431
▁cracked	-6432
▁cutting	-6433
▁defense	-6434
▁deliver	-6435
▁destiny	-6436
▁devoted	-6437
▁dieting	-6438
▁digging	-6439
▁divided	-6440
▁dolphin	-6441
▁drawing	-6442
▁edition	-6443
▁efforts	-6444
▁enthusi	-6445
▁experts	-6446
▁filling	-6447
▁flatter	-6448
▁flipped	-6449
▁forgave	-6450
▁freedom	-6451
▁freezes	-6452
▁gaining	-6453
▁handbag	-6454
▁harmful	-6455
▁heating	-6456
▁highway	-6457
▁hotdogs	-6458
▁immoral	-6459
▁imports	-6460
▁inkling	-6461
▁insists	-6462
▁ironing	-6463
▁islands	-6464
▁jogging	-6465
▁judging	-6466
▁killing	-6467
▁knowing	-6468
▁learner	-6469
▁letting	-6470
▁limited	-6471
▁mailbox	-6472
▁mangoes	-6473
▁manners	-6474
▁matches	-6475
▁medical	-6476
▁objects	-6477
▁ostrich	-6478
▁partner	-6479
▁pickpoc	-6480
▁pinched	-6481
▁popcorn	-6482
▁product	-6483
▁quality	-6484
▁quarrel	-6485
▁replace	-6486
▁replied	-6487
▁rewrite	-6488
▁schools	-6489
▁shaving	-6490
▁singers	-6491
▁slavery	-6492
▁smelled	-6493
▁soldier	-6494
▁solving	-6495
▁suburbs	-6496
▁surgery	-6497
▁thunder	-6498
▁traitor	-6499
▁trapped	-6500
▁updated	-6501
▁vikings	-6502
▁viruses	-6503
▁winters	-6504
ibilities	-6505
▁addicted	-6506
▁adorable	-6507
▁affected	-6508
▁although	-6509
▁ambition	-6510
▁appetite	-6511
▁autistic	-6512
▁barbecue	-6513
▁beginner	-6514
▁behaving	-6515
▁benefits	-6516
▁bicycles	-6517
▁brushing	-6518
▁charming	-6519
▁cheating	-6520
▁clarinet	-6521
▁clothing	-6522
▁compared	-6523
▁composer	-6524
▁cremated	-6525
▁darkness	-6526
▁december	-6527
▁delivery	-6528
▁demanded	-6529
▁demonstr	-6530
▁dentists	-6531
▁deprived	-6532
▁designer	-6533
▁disaster	-6534
▁diseases	-6535
▁dramatic	-6536
▁espresso	-6537
▁estimate	-6538
▁expelled	-6539
▁exploded	-6540
▁firewood	-6541
▁fountain	-6542
▁fourleaf	-6543
▁gardener	-6544
▁gasoline	-6545
▁hundreds	-6546
▁hydrogen	-6547
▁ignoring	-6548
▁impolite	-6549
▁imported	-6550
▁insisted	-6551
▁inviting	-6552
▁kangaroo	-6553
▁kindness	-6554
▁laughter	-6555
▁memories	-6556
▁mustache	-6557
▁nitrogen	-6558
▁occupied	-6559
▁parttime	-6560
▁pathetic	-6561
▁peaceful	-6562
▁pharmacy	-6563
▁physical	-6564
▁portugal	-6565
▁postpone	-6566
▁preserve	-6567
▁prisoner	-6568
▁progress	-6569
▁promises	-6570
▁regarded	-6571
▁republic	-6572
▁resident	-6573
▁services	-6574
▁shanghai	-6575
▁shooting	-6576
▁southern	-6577
▁stealing	-6578
▁stopping	-6579
▁strictly	-6580
▁sympathy	-6581
▁terribly	-6582
▁thursday	-6583
▁tolerant	-6584
▁updating	-6585
▁vitamins	-6586
▁accompany	-6587
▁afterward	-6588
▁amsterdam	-6589
▁anchovies	-6590
▁applauded	-6591
▁asparagus	-6592
▁beginners	-6593
▁birthdays	-6594
▁blackmail	-6595
▁chemistry	-6596
▁childrens	-6597
▁complains	-6598
▁connected	-6599
▁contented	-6600
▁democracy	-6601
▁disagreed	-6602
▁disguised	-6603
▁dismissed	-6604
▁drinkable	-6605
▁elsewhere	-6606
▁essential	-6607
▁existence	-6608
▁gardening	-6609
▁greenland	-6610
▁ignorance	-6611
▁infection	-6612
▁innocence	-6613
▁interests	-6614
▁leftovers	-6615
▁mandatory	-6616
▁medicines	-6617
▁miniskirt	-6618
▁miserable	-6619
▁motivated	-6620
▁obstinate	-6621
▁postponed	-6622
▁promising	-6623
▁remembers	-6624
▁repairing	-6625
▁represent	-6626
▁resources	-6627
▁respected	-6628
▁roundtrip	-6629
▁scheduled	-6630
▁scientist	-6631
▁scratched	-6632
▁sharpened	-6633
▁skeptical	-6634
▁squirrels	-6635
▁statement	-6636
▁strangely	-6637
▁strengths	-6638
▁surprises	-6639
▁telescope	-6640
▁textbooks	-6641
▁whichever	-6642
ustrophobic	-6643
▁advantages	-6644
▁assignment	-6645
▁complaints	-6646
▁conditions	-6647
▁department	-6648
▁exhibition	-6649
▁footprints	-6650
▁glutenfree	-6651
▁importance	-6652
▁influenced	-6653
▁lefthanded	-6654
▁microphone	-6655
▁mosquitoes	-6656
▁ordinarily	-6657
▁remembered	-6658
▁reputation	-6659
▁skateboard	-6660
▁swallowing	-6661
▁tablecloth	-6662
▁telephoned	-6663
▁thoroughly	-6664
▁translator	-6665
▁transplant	-6666
▁volunteers	-6667
▁washington	-6668
▁weaknesses	-6669
▁appreciated	-6670
▁appreciates	-6671
▁appropriate	-6672
▁beautifully	-6673
▁concentrate	-6674
▁environment	-6675
▁established	-6676
▁exaggerated	-6677
▁girlfriends	-6678
▁inhabitants	-6679
▁inseparable	-6680
▁interpreter	-6681
▁introverted	-6682
▁lightheaded	-6683
▁millionaire	-6684
▁motherinlaw	-6685
▁nationality	-6686
▁screwdriver	-6687
▁snowboarder	-6688
▁sympathetic	-6689
▁televisions	-6690
▁difficulties	-6691
▁hypocritical	-6692
▁instructions	-6693
▁interrupting	-6694
▁kindergarten	-6695
▁organization	-6696
▁prescription	-6697
▁communication	-6698
▁concentrating	-6699
▁congratulated	-6700
▁controversial	-6701
▁intentionally	-6702
▁uncomfortable	-6703
▁claustrophobic	-6704
▁hippopotamuses	-6705
▁congratulations	-6706
ii	-6707
ik	-6708
uk	-6709
arc	-6710
asy	-6711
bal	-6712
ban	-6713
bar	-6714
bon	-6715
bot	-6716
bro	-6717
cel	-6718
ddh	-6719
ell	-6720
eur	-6721
fet	-6722
geh	-6723
gir	-6724
hel	-6725
hic	-6726
hyd	-6727
iat	-6728
ica	-6729
idy	-6730
ila	-6731
ime	-6732
inc	-6733
lam	-6734
ley	-6735
lin	-6736
nia	-6737
oal	-6738
obe	-6739
oci	-6740
olf	-6741
oty	-6742
pes	-6743
raq	-6744
sha	-6745
sun	-6746
tan	-6747
tub	-6748
urd	-6749
val	-6750
vit	-6751
▁du	-6752
▁ly	-6753
▁od	-6754
▁ol	-6755
▁ox	-6756
▁uk	-6757
acam	-6758
adle	-6759
ague	-6760
alar	-6761
anch	-6762
anes	-6763
arre	-6764
arts	-6765
aser	-6766
ases	-6767
asts	-6768
atme	-6769
aurs	-6770
aver	-6771
avor	-6772
bear	-6773
berg	-6774
bics	-6775
brid	-6776
chan	-6777
cker	-6778
cled	-6779
clip	-6780
cold	-6781
done	-6782
edic	-6783
ella	-6784
elry	-6785
enna	-6786
enth	-6787
etch	-6788
etho	-6789
fire	-6790
form	-6791
gans	-6792
ggar	-6793
grad	-6794
hara	-6795
ianc	-6796
idal	-6797
iece	-6798
ills	-6799
ccol	-6800
down	-6801
helf	-6802
ipul	-6803
irin	-6804
iter	-6805
kind	-6806
ller	-6807
made	-6808
mark	-6809
mers	-6810
mple	-6811
norm	-6812
oard	-6813
oman	-6814
onia	-6815
onna	-6816
oons	-6817
oops	-6818
pack	-6819
pher	-6820
ples	-6821
rait	-6822
reck	-6823
rial	-6824
rian	-6825
rics	-6826
rome	-6827
rors	-6828
rous	-6829
rove	-6830
sels	-6831
ssil	-6832
ssip	-6833
ties	-6834
toms	-6835
tuce	-6836
ucch	-6837
udes	-6838
uggl	-6839
ulse	-6840
umpy	-6841
umsy	-6842
utes	-6843
vity	-6844
what	-6845
ysle	-6846
zard	-6847
zens	-6848
▁adj	-6849
▁biz	-6850
▁cea	-6851
▁cel	-6852
▁dye	-6853
▁fab	-6854
▁fry	-6855
▁gap	-6856
▁gat	-6857
▁gig	-6858
▁gor	-6859
▁hip	-6860
▁icy	-6861
▁ing	-6862
▁ire	-6863
▁itd	-6864
▁jet	-6865
▁jun	-6866
▁led	-6867
▁mod	-6868
▁moz	-6869
▁ove	-6870
▁poo	-6871
▁ram	-6872
▁reb	-6873
▁rip	-6874
▁rul	-6875
▁sed	-6876
▁sen	-6877
▁sow	-6878
▁ugl	-6879
▁uns	-6880
▁vap	-6881
▁wax	-6882
▁web	-6883
▁wra	-6884
▁yog	-6885
▁zod	-6886
00000	-6887
abbed	-6888
achel	-6889
andom	-6890
archy	-6891
arent	-6892
arius	-6893
ategy	-6894
ccoli	-6895
chard	-6896
class	-6897
cuing	-6898
dream	-6899
waii	-6900
whel	-6901
endar	-6902
fight	-6903
fying	-6904
geons	-6905
glish	-6906
going	-6907
grade	-6908
guins	-6909
holic	-6910
ially	-6911
ieval	-6912
iform	-6913
iforn	-6914
illed	-6915
inist	-6916
ivity	-6917
izing	-6918
lects	-6919
lines	-6920
mbled	-6921
monia	-6922
nails	-6923
oever	-6924
onist	-6925
otype	-6926
owing	-6927
piter	-6928
ppers	-6929
quila	-6930
ritis	-6931
secut	-6932
shake	-6933
shine	-6934
stern	-6935
tress	-6936
▁aero	-6937
▁arab	-6938
▁arth	-6939
▁badm	-6940
▁bake	-6941
▁bend	-6942
▁bent	-6943
▁bind	-6944
▁bord	-6945
▁brat	-6946
▁bury	-6947
▁buys	-6948
▁cact	-6949
▁calf	-6950
▁cite	-6951
▁damp	-6952
▁dear	-6953
▁desp	-6954
▁espe	-6955
▁fare	-6956
▁flip	-6957
▁folk	-6958
▁frow	-6959
▁fuse	-6960
▁grin	-6961
▁gums	-6962
▁guns	-6963
▁guts	-6964
▁hamm	-6965
▁harp	-6966
▁hull	-6967
▁ipad	-6968
▁iraq	-6969
▁item	-6970
▁kidn	-6971
▁koal	-6972
▁leaf	-6973
▁ling	-6974
▁lips	-6975
▁load	-6976
▁mask	-6977
▁melt	-6978
▁monk	-6979
▁mour	-6980
▁nerd	-6981
▁nile	-6982
▁nood	-6983
▁pant	-6984
▁pave	-6985
▁pays	-6986
▁phen	-6987
▁polo	-6988
▁pork	-6989
▁pure	-6990
▁puts	-6991
▁puzz	-6992
▁rout	-6993
▁rust	-6994
▁sail	-6995
▁sake	-6996
▁sarc	-6997
▁shif	-6998
▁sket	-6999
▁soul	-7000
▁spit	-7001
▁sumo	-7002
▁synt	-7003
▁ties	-7004
▁toad	-7005
▁torn	-7006
▁tort	-7007
▁trad	-7008
▁trap	-7009
▁trou	-7010
▁tsun	-7011
▁unit	-7012
▁vast	-7013
▁vers	-7014
▁vine	-7015
▁ways	-7016
▁wimp	-7017
▁wool	-7018
▁worm	-7019
▁yard	-7020
affold	-7021
artial	-7022
atmeal	-7023
blemak	-7024
broken	-7025
clipse	-7026
cooked	-7027
ddhism	-7028
ection	-7029
flower	-7030
ichest	-7031
igrade	-7032
ipment	-7033
keeper	-7034
lected	-7035
lights	-7036
manent	-7037
monica	-7038
ociate	-7039
omenon	-7040
ometer	-7041
osaurs	-7042
oubled	-7043
racted	-7044
rehens	-7045
reling	-7046
reneur	-7047
romise	-7048
screen	-7049
shield	-7050
tanbul	-7051
teenth	-7052
terest	-7053
thirty	-7054
thodox	-7055
uggled	-7056
urally	-7057
usions	-7058
velous	-7059
warded	-7060
▁absor	-7061
▁accus	-7062
▁allig	-7063
▁ambit	-7064
▁aston	-7065
▁awoke	-7066
▁banks	-7067
▁bases	-7068
▁bells	-7069
▁belly	-7070
▁blast	-7071
▁blink	-7072
▁bombs	-7073
▁brass	-7074
▁brill	-7075
▁burns	-7076
▁cents	-7077
▁choir	-7078
▁cloth	-7079
▁colds	-7080
▁conce	-7081
▁court	-7082
▁crown	-7083
▁crush	-7084
▁curly	-7085
▁curse	-7086
▁daily	-7087
▁dated	-7088
▁dedic	-7089
▁delhi	-7090
▁devel	-7091
▁drama	-7092
▁dried	-7093
▁dryer	-7094
▁dysle	-7095
▁eager	-7096
▁eater	-7097
▁elses	-7098
▁erect	-7099
▁faded	-7100
▁fetch	-7101
▁fianc	-7102
▁finds	-7103
▁flirt	-7104
▁foxes	-7105
▁froze	-7106
▁glove	-7107
▁harsh	-7108
▁holds	-7109
▁holes	-7110
▁humid	-7111
▁indic	-7112
▁inher	-7113
▁intol	-7114
▁islam	-7115
▁lakes	-7116
▁lands	-7117
▁lasts	-7118
▁lines	-7119
▁lions	-7120
▁logic	-7121
▁malar	-7122
▁media	-7123
▁melts	-7124
▁mercy	-7125
▁merge	-7126
▁meter	-7127
▁moose	-7128
▁moral	-7129
▁nasty	-7130
▁nerve	-7131
▁nonet	-7132
▁nonst	-7133
▁oblig	-7134
▁parks	-7135
▁phase	-7136
▁pitch	-7137
▁polar	-7138
▁pretz	-7139
▁punch	-7140
▁puppy	-7141
▁pushy	-7142
▁raced	-7143
▁refut	-7144
▁regul	-7145
▁rhine	-7146
▁risen	-7147
▁risky	-7148
▁rocks	-7149
▁rough	-7150
▁sacri	-7151
▁scrap	-7152
▁seine	-7153
▁shark	-7154
▁skips	-7155
▁slice	-7156
▁smoky	-7157
▁sober	-7158
▁solid	-7159
▁spear	-7160
▁spoil	-7161
▁squee	-7162
▁staff	-7163
▁stere	-7164
▁stret	-7165
▁surre	-7166
▁swamp	-7167
▁symbo	-7168
▁tails	-7169
▁taxis	-7170
▁tempt	-7171
▁tiger	-7172
▁tires	-7173
▁topic	-7174
▁trade	-7175
▁trail	-7176
▁trout	-7177
▁twoth	-7178
▁unite	-7179
▁unmar	-7180
▁unrel	-7181
▁urban	-7182
▁venus	-7183
▁viole	-7184
▁votes	-7185
▁whale	-7186
▁wifes	-7187
▁wiped	-7188
▁witch	-7189
▁wreck	-7190
▁zucch	-7191
acamole	-7192
aceable	-7193
achache	-7194
alified	-7195
assador	-7196
ethoven	-7197
flowers	-7198
ificant	-7199
ifornia	-7200
imately	-7201
ismatic	-7202
istered	-7203
outhing	-7204
respect	-7205
section	-7206
stitute	-7207
unities	-7208
vitable	-7209
whelmed	-7210
▁abnorm	-7211
▁aboard	-7212
▁absurd	-7213
▁abused	-7214
▁accent	-7215
▁addict	-7216
▁adores	-7217
▁advert	-7218
▁agency	-7219
▁aliens	-7220
▁allows	-7221
▁amazed	-7222
▁amused	-7223
▁angels	-7224
▁annoys	-7225
▁appeal	-7226
▁arctic	-7227
▁attach	-7228
▁bachel	-7229
▁ballet	-7230
▁banged	-7231
▁basing	-7232
▁beggar	-7233
▁biking	-7234
▁boxing	-7235
▁branch	-7236
▁breast	-7237
▁bullet	-7238
▁bummed	-7239
▁canary	-7240
▁candid	-7241
▁carbon	-7242
▁celery	-7243
▁cigars	-7244
▁clocks	-7245
▁closes	-7246
▁clouds	-7247
▁clumsy	-7248
▁colony	-7249
▁comics	-7250
▁cooler	-7251
▁counts	-7252
▁cradle	-7253
▁create	-7254
▁crimes	-7255
▁curren	-7256
▁deadly	-7257
▁decent	-7258
▁deeply	-7259
▁defend	-7260
▁delete	-7261
▁diabet	-7262
▁differ	-7263
▁dozens	-7264
▁dozing	-7265
▁dragon	-7266
▁drowsy	-7267
▁earths	-7268
▁econom	-7269
▁electr	-7270
▁employ	-7271
▁entrep	-7272
▁eraser	-7273
▁exceed	-7274
▁exists	-7275
▁export	-7276
▁facing	-7277
▁filmed	-7278
▁filthy	-7279
▁firmly	-7280
▁flavor	-7281
▁folder	-7282
▁fossil	-7283
▁freeze	-7284
▁glance	-7285
▁global	-7286
▁golden	-7287
▁gossip	-7288
▁grumpy	-7289
▁guards	-7290
▁habits	-7291
▁hacked	-7292
▁hawaii	-7293
▁healed	-7294
▁hearts	-7295
▁hedgeh	-7296
▁higher	-7297
▁hiking	-7298
▁histor	-7299
▁hotels	-7300
▁housew	-7301
▁humble	-7302
▁humili	-7303
▁hybrid	-7304
▁income	-7305
▁injury	-7306
▁insist	-7307
▁iphone	-7308
▁joined	-7309
▁knight	-7310
▁ladies	-7311
▁lenses	-7312
▁limped	-7313
▁liquor	-7314
▁loving	-7315
▁lyrics	-7316
▁mature	-7317
▁mechan	-7318
▁mental	-7319
▁messen	-7320
▁mostly	-7321
▁mulled	-7322
▁nailed	-7323
▁napkin	-7324
▁napole	-7325
▁nerves	-7326
▁norway	-7327
▁partys	-7328
▁passes	-7329
▁phones	-7330
▁plural	-7331
▁posted	-7332
▁prayed	-7333
▁prepar	-7334
▁rabbit	-7335
▁racial	-7336
▁radios	-7337
▁random	-7338
▁recall	-7339
▁refres	-7340
▁relied	-7341
▁remove	-7342
▁respon	-7343
▁rested	-7344
▁reveal	-7345
▁rocker	-7346
▁sahara	-7347
▁sample	-7348
▁saturn	-7349
▁series	-7350
▁shares	-7351
▁sheets	-7352
▁shorts	-7353
▁shrimp	-7354
▁shrink	-7355
▁slaves	-7356
▁snails	-7357
▁spoons	-7358
▁spouse	-7359
▁squash	-7360
▁statue	-7361
▁sticky	-7362
▁stingy	-7363
▁stoned	-7364
▁surely	-7365
▁tested	-7366
▁theirs	-7367
▁therap	-7368
▁tossed	-7369
▁tracks	-7370
▁treaty	-7371
▁tricks	-7372
▁typing	-7373
▁unbear	-7374
▁unique	-7375
▁vacant	-7376
▁vaping	-7377
▁vegans	-7378
▁voices	-7379
▁washes	-7380
▁wisely	-7381
▁wobbly	-7382
▁womans	-7383
▁wounds	-7384
▁yelled	-7385
▁zodiac	-7386
berately	-7387
dreaming	-7388
ervative	-7389
▁ability	-7390
▁achieve	-7391
▁ammonia	-7392
▁amusing	-7393
▁anytime	-7394
▁arrival	-7395
▁aspirin	-7396
▁assault	-7397
▁attempt	-7398
▁authors	-7399
▁bandaid	-7400
▁bathtub	-7401
▁besides	-7402
▁billion	-7403
▁bizarre	-7404
▁blanket	-7405
▁blister	-7406
▁borders	-7407
▁carsick	-7408
▁central	-7409
▁charger	-7410
▁charges	-7411
▁charity	-7412
▁chewing	-7413
▁comfort	-7414
▁confuse	-7415
▁consist	-7416
▁convert	-7417
▁crucial	-7418
▁cycling	-7419
▁dangers	-7420
▁deepest	-7421
▁denmark	-7422
▁discour	-7423
▁donated	-7424
▁dragons	-7425
▁eclipse	-7426
▁economy	-7427
▁elderly	-7428
▁examine	-7429
▁excuses	-7430
▁exhaust	-7431
▁extinct	-7432
▁extingu	-7433
▁failure	-7434
▁fitting	-7435
▁folding	-7436
▁follows	-7437
▁frowned	-7438
▁general	-7439
▁giggled	-7440
▁glanced	-7441
▁gravity	-7442
▁greatly	-7443
▁guitars	-7444
▁halfway	-7445
▁happily	-7446
▁hideous	-7447
▁humming	-7448
▁icecold	-7449
▁imitate	-7450
▁indoors	-7451
▁intends	-7452
▁invaded	-7453
▁ireland	-7454
▁jewelry	-7455
▁jupiter	-7456
▁justice	-7457
▁kingdom	-7458
▁landing	-7459
▁lettuce	-7460
▁lowered	-7461
▁mailman	-7462
▁manipul	-7463
▁marital	-7464
▁mineral	-7465
▁mosques	-7466
▁musical	-7467
▁noodles	-7468
▁oatmeal	-7469
▁operate	-7470
▁orchard	-7471
▁organic	-7472
▁overest	-7473
▁pacific	-7474
▁painful	-7475
▁peppers	-7476
▁pierced	-7477
▁pillows	-7478
▁posters	-7479
▁praying	-7480
▁printer	-7481
▁proverb	-7482
▁pumpkin	-7483
▁putting	-7484
▁refuses	-7485
▁regrets	-7486
▁release	-7487
▁relying	-7488
▁resched	-7489
▁reserve	-7490
▁richest	-7491
▁robbery	-7492
▁russian	-7493
▁scarves	-7494
▁scholar	-7495
▁scratch	-7496
▁screams	-7497
▁section	-7498
▁sending	-7499
▁servant	-7500
▁setting	-7501
▁shelter	-7502
▁shepher	-7503
▁shortly	-7504
▁species	-7505
▁stabbed	-7506
▁stooped	-7507
▁sunburn	-7508
▁tequila	-7509
▁therell	-7510
▁threats	-7511
▁throats	-7512
▁ticking	-7513
▁titanic	-7514
▁tricked	-7515
▁ugliest	-7516
▁uniform	-7517
▁version	-7518
▁vinegar	-7519
▁vitamin	-7520
▁warrant	-7521
▁western	-7522
▁wherere	-7523
affolding	-7524
▁accurate	-7525
▁achieved	-7526
▁activist	-7527
▁administ	-7528
▁aerobics	-7529
▁airlines	-7530
▁arranged	-7531
▁barefoot	-7532
▁basement	-7533
▁belonged	-7534
▁blankets	-7535
▁boarding	-7536
▁bothered	-7537
▁bringing	-7538
▁broccoli	-7539
▁buddhism	-7540
▁calendar	-7541
▁canoeing	-7542
▁clearing	-7543
▁comments	-7544
▁composed	-7545
▁contacts	-7546
▁contrary	-7547
▁creature	-7548
▁crusader	-7549
▁curtains	-7550
▁deciding	-7551
▁declined	-7552
▁delicate	-7553
▁directly	-7554
▁discreet	-7555
▁dislikes	-7556
▁dolphins	-7557
▁dyslexic	-7558
▁elephant	-7559
▁emailing	-7560
▁enjoying	-7561
▁examined	-7562
▁examples	-7563
▁exercise	-7564
▁expenses	-7565
▁fabulous	-7566
▁faithful	-7567
▁finalize	-7568
▁flattery	-7569
▁gambling	-7570
▁gathered	-7571
▁gorgeous	-7572
▁graduate	-7573
▁helpless	-7574
▁hesitant	-7575
▁honestly	-7576
▁hopeless	-7577
▁hostages	-7578
▁identify	-7579
▁inclined	-7580
▁intruder	-7581
▁istanbul	-7582
▁jacksons	-7583
▁keyboard	-7584
▁knocking	-7585
▁location	-7586
▁mattress	-7587
▁meanings	-7588
▁medieval	-7589
▁mentally	-7590
▁negative	-7591
▁northern	-7592
▁notebook	-7593
▁nothings	-7594
▁offended	-7595
▁oncoming	-7596
▁orthodox	-7597
▁outraged	-7598
▁overcoat	-7599
▁overlook	-7600
▁pavement	-7601
▁penguins	-7602
▁planting	-7603
▁property	-7604
▁provided	-7605
▁railroad	-7606
▁raincoat	-7607
▁rational	-7608
▁realizes	-7609
▁required	-7610
▁rewarded	-7611
▁salesman	-7612
▁sedative	-7613
▁seedless	-7614
▁shipping	-7615
▁smallpox	-7616
▁smartest	-7617
▁somewhat	-7618
▁sprained	-7619
▁standard	-7620
▁strategy	-7621
▁sunshine	-7622
▁supplies	-7623
▁symptoms	-7624
▁teenager	-7625
▁thanking	-7626
▁threaten	-7627
▁thrilled	-7628
▁triangle	-7629
▁troubled	-7630
▁troubles	-7631
▁ultimate	-7632
▁vanished	-7633
▁ventured	-7634
▁visitors	-7635
▁waitress	-7636
▁weddings	-7637
▁worrying	-7638
▁zucchini	-7639
▁abolished	-7640
▁aimlessly	-7641
▁ambitious	-7642
▁arthritis	-7643
▁associate	-7644
▁automated	-7645
▁beethoven	-7646
▁biologist	-7647
▁blindfold	-7648
▁bookshelf	-7649
▁broadcast	-7650
▁celebrity	-7651
▁character	-7652
▁christian	-7653
▁community	-7654
▁criticism	-7655
▁curiosity	-7656
▁decisions	-7657
▁dedicated	-7658
▁dinosaurs	-7659
▁disgusted	-7660
▁efficient	-7661
▁equipment	-7662
▁fifteenth	-7663
▁firefight	-7664
▁fishermen	-7665
▁flattered	-7666
▁fortunate	-7667
▁furnished	-7668
▁gardeners	-7669
▁goodnight	-7670
▁graduated	-7671
▁guacamole	-7672
▁harmonica	-7673
▁housework	-7674
▁illegible	-7675
▁imaginary	-7676
▁improving	-7677
▁influence	-7678
▁insulting	-7679
▁invention	-7680
▁marvelous	-7681
▁materials	-7682
▁mentioned	-7683
▁milkshake	-7684
▁moonlight	-7685
▁naturally	-7686
▁necessity	-7687
▁nervously	-7688
▁nothingll	-7689
▁objective	-7690
▁observant	-7691
▁panicking	-7692
▁passenger	-7693
▁perfectly	-7694
▁permanent	-7695
▁powerless	-7696
▁preferred	-7697
▁prejudice	-7698
▁receiving	-7699
▁reception	-7700
▁redhanded	-7701
▁religions	-7702
▁reluctant	-7703
▁resembles	-7704
▁residents	-7705
▁responded	-7706
▁sarcastic	-7707
▁satellite	-7708
▁saturdays	-7709
▁saxophone	-7710
▁sincerely	-7711
▁sixtyfour	-7712
▁sleepless	-7713
▁slightest	-7714
▁someplace	-7715
▁spreading	-7716
▁strongest	-7717
▁sunscreen	-7718
▁swallowed	-7719
▁switching	-7720
▁territory	-7721
▁unmarried	-7722
▁volunteer	-7723
▁wellknown	-7724
▁whistling	-7725
▁witnessed	-7726
▁worthless	-7727
▁ambassador	-7728
▁appearance	-7729
▁approached	-7730
▁astonished	-7731
▁attendance	-7732
▁babysitter	-7733
▁barbecuing	-7734
▁biological	-7735
▁california	-7736
▁centigrade	-7737
▁collecting	-7738
▁compliment	-7739
▁comprehens	-7740
▁compromise	-7741
▁conclusion	-7742
▁contacting	-7743
▁convincing	-7744
▁crocodiles	-7745
▁dependable	-7746
▁depression	-7747
▁designated	-7748
▁detectives	-7749
▁disapprove	-7750
▁disgusting	-7751
▁disneyland	-7752
▁disturbing	-7753
▁engagement	-7754
▁especially	-7755
▁executives	-7756
▁explosions	-7757
▁extinguish	-7758
▁frustrated	-7759
▁greatgreat	-7760
▁headlights	-7761
▁impressive	-7762
▁incredibly	-7763
▁industrial	-7764
▁inevitable	-7765
▁instrument	-7766
▁irritating	-7767
▁magnifying	-7768
▁membership	-7769
▁nonstarchy	-7770
▁obstructed	-7771
▁optimistic	-7772
▁phenomenon	-7773
▁philosophy	-7774
▁pleasantly	-7775
▁prediction	-7776
▁preference	-7777
▁prejudiced	-7778
▁quarreling	-7779
▁registered	-7780
▁sharpening	-7781
▁spectators	-7782
▁stereotype	-7783
▁substitute	-7784
▁sunbathing	-7785
▁sunflowers	-7786
▁terrorists	-7787
▁troublemak	-7788
▁uninterest	-7789
▁waterproof	-7790
▁whatsoever	-7791
▁windshield	-7792
▁blackmailed	-7793
▁businessman	-7794
▁charismatic	-7795
▁cockroaches	-7796
▁communicate	-7797
▁conclusions	-7798
▁daydreaming	-7799
▁destination	-7800
▁downloading	-7801
▁emptyhanded	-7802
▁fatherinlaw	-7803
▁fingernails	-7804
▁hospitality	-7805
▁negotiation	-7806
▁nonetheless	-7807
▁overwhelmed	-7808
▁participate	-7809
▁photography	-7810
▁pickpockets	-7811
▁regrettable	-7812
▁regulations	-7813
▁righthanded	-7814
▁saxophonist	-7815
▁scaffolding	-7816
▁significant	-7817
▁stomachache	-7818
▁suffocating	-7819
▁translation	-7820
▁unfortunate	-7821
▁cardiologist	-7822
▁conservative	-7823
▁deliberately	-7824
▁enthusiastic	-7825
▁entrepreneur	-7826
▁expectations	-7827
▁experiencing	-7828
▁grandparents	-7829
▁hippopotamus	-7830
▁installation	-7831
▁intersection	-7832
▁introduction	-7833
▁photographed	-7834
▁preparations	-7835
▁questionable	-7836
▁subscription	-7837
▁threeyearold	-7838
▁consideration	-7839
▁demonstration	-7840
▁disappearance	-7841
▁encouragement	-7842
▁investigation	-7843
▁opportunities	-7844
▁temperamental	-7845
▁administration	-7846
▁transportation	-7847
ae	-7848
ai	-7849
cd	-7850
cr	-7851
fu	-7852
fy	-7853
ga	-7854
gs	-7855
hs	-7856
hu	-7857
ja	-7858
jo	-7859
ko	-7860
mo	-7861
nu	-7862
sg	-7863
vd	-7864
wh	-7865
yl	-7866
za	-7867
▁0	-7868
▁x	-7869
aca	-7870
ado	-7871
alo	-7872
anu	-7873
aph	-7874
aps	-7875
ara	-7876
asm	-7877
auc	-7878
aum	-7879
bac	-7880
bes	-7881
boe	-7882
dia	-7883
dro	-7884
eal	-7885
eba	-7886
eer	-7887
ees	-7888
fos	-7889
gas	-7890
ggy	-7891
gon	-7892
gri	-7893
har	-7894
hea	-7895
how	-7896
hua	-7897
ias	-7898
ido	-7899
hon	-7900
isc	-7901
isp	-7902
iti	-7903
kel	-7904
kew	-7905
ksc	-7906
lds	-7907
mps	-7908
oed	-7909
oir	-7910
ola	-7911
oot	-7912
org	-7913
oul	-7914
owa	-7915
pay	-7916
pel	-7917
pow	-7918
pro	-7919
pte	-7920
sex	-7921
uba	-7922
uff	-7923
ugg	-7924
uit	-7925
ula	-7926
uls	-7927
ups	-7928
urt	-7929
uty	-7930
vag	-7931
van	-7932
vey	-7933
wal	-7934
weg	-7935
xas	-7936
xyl	-7937
▁cv	-7938
▁ec	-7939
▁ku	-7940
▁ll	-7941
▁mp	-7942
▁py	-7943
adow	-7944
aked	-7945
alty	-7946
ames	-7947
apor	-7948
arin	-7949
ario	-7950
asil	-7951
asso	-7952
back	-7953
bble	-7954
bike	-7955
bles	-7956
boat	-7957
bone	-7958
cule	-7959
days	-7960
eder	-7961
elic	-7962
emic	-7963
ener	-7964
erce	-7965
erks	-7966
esus	-7967
feed	-7968
fers	-7969
ffin	-7970
food	-7971
gile	-7972
hard	-7973
hest	-7974
icip	-7975
icop	-7976
iful	-7977
igil	-7978
iked	-7979
ilit	-7980
imin	-7981
imon	-7982
inic	-7983
izer	-7984
izon	-7985
lide	-7986
llor	-7987
lymp	-7988
mage	-7989
medy	-7990
mend	-7991
mill	-7992
mind	-7993
nate	-7994
neum	-7995
neys	-7996
nity	-7997
omic	-7998
onge	-7999
coa	-8000
coh	-8001
mmy	-8002
ube	-8003
bird	-8004
coal	-8005
life	-8006
oles	-8007
omas	-8008
onym	-8009
oran	-8010
orum	-8011
othe	-8012
otic	-8013
oust	-8014
ousy	-8015
rain	-8016
raut	-8017
recy	-8018
rope	-8019
rost	-8020
ruci	-8021
sake	-8022
seat	-8023
sequ	-8024
sers	-8025
sive	-8026
sper	-8027
stal	-8028
stor	-8029
tage	-8030
tion	-8031
tons	-8032
ucin	-8033
uerk	-8034
uese	-8035
uffe	-8036
uine	-8037
uing	-8038
uist	-8039
ulpt	-8040
utan	-8041
view	-8042
vour	-8043
wart	-8044
well	-8045
worm	-8046
▁ace	-8047
▁apt	-8048
▁aqu	-8049
▁atl	-8050
▁bei	-8051
▁bin	-8052
▁bos	-8053
▁bru	-8054
▁bun	-8055
▁der	-8056
▁doe	-8057
▁dor	-8058
▁egy	-8059
▁enl	-8060
▁exh	-8061
▁exu	-8062
▁fax	-8063
▁fee	-8064
▁gia	-8065
▁hal	-8066
▁hem	-8067
▁hen	-8068
▁hon	-8069
▁jar	-8070
▁jaw	-8071
▁joy	-8072
▁kab	-8073
▁lac	-8074
▁len	-8075
▁lid	-8076
▁oak	-8077
▁ocd	-8078
▁phr	-8079
▁pip	-8080
▁pis	-8081
▁pow	-8082
▁pse	-8083
▁rib	-8084
▁rif	-8085
▁rod	-8086
▁rou	-8087
▁sci	-8088
▁scr	-8089
▁swo	-8090
▁tab	-8091
▁tas	-8092
▁upt	-8093
▁vet	-8094
▁via	-8095
▁viv	-8096
▁voy	-8097
▁wan	-8098
▁wiz	-8099
pee	-8100
cade	-8101
chen	-8102
iors	-8103
occo	-8104
ocul	-8105
oups	-8106
▁hok	-8107
▁woo	-8108
▁xyl	-8109
▁zip	-8110
acity	-8111
adder	-8112
aders	-8113
affes	-8114
alley	-8115
anche	-8116
andal	-8117
anded	-8118
anies	-8119
aning	-8120
anter	-8121
apore	-8122
apted	-8123
armed	-8124
ashes	-8125
asked	-8126
asted	-8127
athon	-8128
berty	-8129
cardi	-8130
cough	-8131
cting	-8132
eling	-8133
enary	-8134
endic	-8135
erant	-8136
erget	-8137
ernic	-8138
erson	-8139
erted	-8140
gebra	-8141
gered	-8142
ibiot	-8143
idext	-8144
iding	-8145
ieves	-8146
iless	-8147
inden	-8148
inent	-8149
inery	-8150
insed	-8151
ional	-8152
irtue	-8153
ishes	-8154
isors	-8155
istan	-8156
itled	-8157
itors	-8158
lette	-8159
mania	-8160
menia	-8161
mento	-8162
mined	-8163
mower	-8164
olars	-8165
oneer	-8166
ookie	-8167
opard	-8168
orant	-8169
orary	-8170
oxide	-8171
pound	-8172
ppies	-8173
raine	-8174
reeze	-8175
romat	-8176
rophy	-8177
sened	-8178
seven	-8179
sever	-8180
spons	-8181
stain	-8182
stand	-8183
stick	-8184
stone	-8185
teria	-8186
udent	-8187
uggle	-8188
ugust	-8189
ultip	-8190
uries	-8191
usage	-8192
uscri	-8193
utral	-8194
venge	-8195
venir	-8196
vised	-8197
▁abra	-8198
▁ache	-8199
azed	-8200
deed	-8201
▁dub	-8202
ascus	-8203
bbers	-8204
birds	-8205
nical	-8206
rates	-8207
rison	-8208
while	-8209
▁acne	-8210
▁alas	-8211
▁asap	-8212
▁aval	-8213
▁bang	-8214
▁beds	-8215
▁beep	-8216
▁blog	-8217
▁bore	-8218
▁brew	-8219
▁buff	-8220
▁bush	-8221
▁cane	-8222
▁caps	-8223
▁ceme	-8224
▁choo	-8225
▁clay	-8226
▁cope	-8227
▁corp	-8228
▁craw	-8229
▁cube	-8230
▁cush	-8231
▁dens	-8232
▁deny	-8233
▁deod	-8234
▁desc	-8235
▁dies	-8236
▁dign	-8237
▁dime	-8238
▁dive	-8239
▁docu	-8240
▁dogh	-8241
▁dome	-8242
▁dorm	-8243
▁dres	-8244
▁dull	-8245
▁educ	-8246
▁elig	-8247
▁ency	-8248
▁fauc	-8249
▁fits	-8250
▁flea	-8251
▁fres	-8252
▁fuss	-8253
▁gang	-8254
▁glit	-8255
▁glue	-8256
▁gods	-8257
▁hack	-8258
▁hoax	-8259
▁hobo	-8260
▁hong	-8261
▁iced	-8262
▁iran	-8263
▁itch	-8264
▁july	-8265
▁kong	-8266
▁laws	-8267
▁lean	-8268
▁loaf	-8269
▁lung	-8270
▁male	-8271
▁mast	-8272
▁mate	-8273
▁migr	-8274
▁mile	-8275
▁mole	-8276
▁mule	-8277
▁myth	-8278
▁numb	-8279
▁outs	-8280
▁pace	-8281
▁pand	-8282
▁penn	-8283
▁plat	-8284
▁plot	-8285
▁pole	-8286
▁prec	-8287
▁prem	-8288
▁reap	-8289
▁regg	-8290
▁rept	-8291
▁reun	-8292
▁rote	-8293
▁ruin	-8294
▁ruth	-8295
▁sack	-8296
▁scam	-8297
▁scot	-8298
▁seal	-8299
mmon	-8300
odel	-8301
udos	-8302
▁hiv	-8303
avoid	-8304
boats	-8305
idual	-8306
neath	-8307
power	-8308
rings	-8309
▁figs	-8310
▁gene	-8311
▁inca	-8312
▁nint	-8313
▁seas	-8314
▁seme	-8315
▁sexy	-8316
▁sits	-8317
▁skyd	-8318
▁slap	-8319
▁slum	-8320
▁snap	-8321
▁sole	-8322
▁stap	-8323
▁sulf	-8324
▁surf	-8325
▁synd	-8326
▁tamb	-8327
▁tato	-8328
▁tent	-8329
▁tons	-8330
▁tool	-8331
▁tray	-8332
▁trom	-8333
▁trop	-8334
▁ufos	-8335
▁unac	-8336
▁unaw	-8337
▁unhe	-8338
▁unim	-8339
▁unqu	-8340
▁unre	-8341
▁unsc	-8342
▁unse	-8343
▁viet	-8344
▁wand	-8345
▁wave	-8346
▁wept	-8347
▁wire	-8348
▁wits	-8349
▁yell	-8350
▁yoga	-8351
acious	-8352
acular	-8353
alling	-8354
allows	-8355
ancing	-8356
angled	-8357
ardess	-8358
arming	-8359
arrhea	-8360
asilia	-8361
atable	-8362
athers	-8363
berant	-8364
blower	-8365
bodies	-8366
boiled	-8367
cloped	-8368
cupine	-8369
efruit	-8370
erange	-8371
ficial	-8372
fusion	-8373
garine	-8374
geable	-8375
honies	-8376
icking	-8377
icycle	-8378
igence	-8379
inkill	-8380
inkled	-8381
itches	-8382
ittens	-8383
ittish	-8384
kewarm	-8385
levant	-8386
licate	-8387
merous	-8388
minded	-8389
mitted	-8390
moking	-8391
number	-8392
onalds	-8393
onitis	-8394
orters	-8395
ourine	-8396
payers	-8397
pecker	-8398
plexed	-8399
aism	-8400
uped	-8401
wait	-8402
weit	-8403
ittee	-8404
scope	-8405
▁auto	-8406
▁bene	-8407
▁eval	-8408
▁janu	-8409
▁tues	-8410
▁typo	-8411
▁volc	-8412
iobook	-8413
nician	-8414
olfree	-8415
ported	-8416
quence	-8417
rowave	-8418
sister	-8419
ternal	-8420
ulsory	-8421
urable	-8422
urfing	-8423
utated	-8424
utions	-8425
vering	-8426
wright	-8427
ystack	-8428
▁aches	-8429
▁agent	-8430
▁alcoh	-8431
▁alien	-8432
▁alter	-8433
▁amend	-8434
▁antar	-8435
▁aries	-8436
▁arise	-8437
▁arson	-8438
▁banjo	-8439
▁bites	-8440
▁blend	-8441
▁bliss	-8442
▁block	-8443
▁bloss	-8444
▁boats	-8445
▁bones	-8446
▁booth	-8447
▁bossy	-8448
▁breed	-8449
▁bride	-8450
▁bucks	-8451
▁cafet	-8452
▁cambo	-8453
▁catal	-8454
▁click	-8455
▁clown	-8456
▁cocon	-8457
▁cramp	-8458
▁crate	-8459
▁cubes	-8460
▁curry	-8461
▁curve	-8462
▁cutie	-8463
▁cycle	-8464
▁darts	-8465
▁decaf	-8466
▁defic	-8467
▁depos	-8468
▁disad	-8469
▁doves	-8470
▁drawn	-8471
▁drops	-8472
▁duped	-8473
▁egypt	-8474
▁exped	-8475
▁fairy	-8476
▁farms	-8477
▁fears	-8478
▁fiber	-8479
▁finch	-8480
▁fined	-8481
▁flute	-8482
▁fools	-8483
▁forms	-8484
▁freak	-8485
▁galax	-8486
▁gases	-8487
▁giant	-8488
▁gonna	-8489
▁goose	-8490
▁graph	-8491
▁haste	-8492
▁heads	-8493
▁hiber	-8494
▁hokka	-8495
▁holly	-8496
▁horns	-8497
▁indiv	-8498
▁initi	-8499
ique	-8500
letoe	-8501
▁bali	-8502
▁flaw	-8503
▁limo	-8504
▁mixt	-8505
▁odds	-8506
▁tiny	-8507
▁wipe	-8508
ambled	-8509
assium	-8510
powder	-8511
ussian	-8512
▁angle	-8513
▁bores	-8514
▁debut	-8515
▁dehyd	-8516
▁hippo	-8517
▁irish	-8518
▁klept	-8519
▁koran	-8520
▁latex	-8521
▁leaky	-8522
▁libra	-8523
▁llama	-8524
▁locks	-8525
▁longs	-8526
▁lower	-8527
▁madly	-8528
▁mansl	-8529
▁march	-8530
▁marks	-8531
▁medit	-8532
▁melod	-8533
▁miner	-8534
▁minim	-8535
▁misle	-8536
▁mommy	-8537
▁moped	-8538
▁moves	-8539
▁mowed	-8540
▁munch	-8541
▁newer	-8542
▁niece	-8543
▁ninja	-8544
▁nonal	-8545
▁nosey	-8546
▁opens	-8547
▁outer	-8548
▁owned	-8549
▁pairs	-8550
▁pause	-8551
▁peach	-8552
▁pears	-8553
▁plain	-8554
▁plums	-8555
▁pulse	-8556
▁quant	-8557
▁reind	-8558
▁rises	-8559
▁roast	-8560
▁robot	-8561
▁runny	-8562
▁salty	-8563
▁schro	-8564
▁scoot	-8565
▁seeks	-8566
▁seize	-8567
▁serve	-8568
▁shore	-8569
▁shots	-8570
▁shows	-8571
▁slide	-8572
▁soups	-8573
▁squea	-8574
▁stack	-8575
▁stair	-8576
▁steep	-8577
▁stoop	-8578
▁sweep	-8579
▁swiss	-8580
▁swore	-8581
▁taxes	-8582
▁tends	-8583
▁tenth	-8584
▁texas	-8585
▁theft	-8586
▁thumb	-8587
▁tipsy	-8588
▁title	-8589
▁toast	-8590
▁towns	-8591
▁trace	-8592
▁track	-8593
▁tramp	-8594
▁tumor	-8595
▁unint	-8596
▁unnat	-8597
▁unsoc	-8598
▁urged	-8599
▁iowa	-8600
▁mama	-8601
▁ohio	-8602
▁tape	-8603
atinum	-8604
initis	-8605
ophone	-8606
▁apron	-8607
▁atoms	-8608
▁clogs	-8609
▁diagn	-8610
▁donut	-8611
▁ducks	-8612
▁emigr	-8613
▁labor	-8614
▁therm	-8615
▁vague	-8616
▁valet	-8617
▁vehic	-8618
▁veins	-8619
▁veter	-8620
▁vigil	-8621
▁viral	-8622
▁virgo	-8623
▁volts	-8624
▁wages	-8625
▁waist	-8626
▁wanna	-8627
▁weeds	-8628
▁widow	-8629
▁wives	-8630
▁woozy	-8631
▁worms	-8632
▁wrest	-8633
ability	-8634
aturely	-8635
brother	-8636
centric	-8637
cessive	-8638
cinated	-8639
coholic	-8640
covered	-8641
ergetic	-8642
feeding	-8643
gentina	-8644
grimage	-8645
iatrist	-8646
iceable	-8647
icopter	-8648
iderate	-8649
ificent	-8650
ificial	-8651
inative	-8652
ingitis	-8653
iscated	-8654
itement	-8655
iterate	-8656
itional	-8657
mendous	-8658
mentary	-8659
mercial	-8660
onymous	-8661
portant	-8662
ramatic	-8663
redient	-8664
ressing	-8665
ritious	-8666
secuted	-8667
theless	-8668
umption	-8669
uscript	-8670
xicated	-8671
▁actors	-8672
▁admits	-8673
▁adults	-8674
▁angles	-8675
▁angola	-8676
▁anthem	-8677
▁aspect	-8678
▁asperg	-8679
▁assass	-8680
▁athens	-8681
▁atomic	-8682
▁avoids	-8683
▁barack	-8684
▁barber	-8685
▁barley	-8686
▁barric	-8687
▁beasts	-8688
▁beings	-8689
▁blames	-8690
▁bodies	-8691
▁bounds	-8692
▁braces	-8693
▁brandy	-8694
▁bricks	-8695
▁brings	-8696
▁burped	-8697
▁canals	-8698
▁cattle	-8699
tray	-8700
natal	-8701
▁rebu	-8702
▁sixt	-8703
▁tuba	-8704
ograms	-8705
teller	-8706
▁berry	-8707
▁buddy	-8708
▁faxed	-8709
▁folks	-8710
▁hasty	-8711
▁items	-8712
▁koala	-8713
▁olive	-8714
▁ruler	-8715
▁traum	-8716
estrian	-8717
incible	-8718
omaniac	-8719
uggling	-8720
▁alaska	-8721
▁arabic	-8722
▁ashore	-8723
▁cactus	-8724
▁cement	-8725
▁cheers	-8726
▁circul	-8727
▁clerks	-8728
▁clinic	-8729
▁consol	-8730
▁cooker	-8731
▁copper	-8732
▁corksc	-8733
▁corrid	-8734
▁creams	-8735
▁cursed	-8736
▁cycled	-8737
▁darker	-8738
▁dashed	-8739
▁decade	-8740
▁defect	-8741
▁desire	-8742
▁digger	-8743
▁disobe	-8744
▁driven	-8745
▁dublin	-8746
▁edison	-8747
▁effect	-8748
▁eighth	-8749
▁empire	-8750
▁erased	-8751
▁errors	-8752
▁estate	-8753
▁ethnic	-8754
▁evapor	-8755
▁events	-8756
▁extend	-8757
▁fatter	-8758
▁faucet	-8759
▁fields	-8760
▁fierce	-8761
▁finely	-8762
▁fixing	-8763
▁flames	-8764
▁floats	-8765
▁floors	-8766
▁forces	-8767
▁formed	-8768
▁fusion	-8769
▁gather	-8770
▁genius	-8771
▁graham	-8772
▁greene	-8773
▁grocer	-8774
▁growth	-8775
▁hazard	-8776
▁hectic	-8777
▁helium	-8778
▁hiccup	-8779
▁hippos	-8780
▁hostel	-8781
▁hotter	-8782
▁hunted	-8783
▁implic	-8784
▁incent	-8785
▁incons	-8786
▁indeed	-8787
▁indian	-8788
▁insect	-8789
▁inspir	-8790
▁joints	-8791
▁jungle	-8792
▁kuwait	-8793
▁landed	-8794
▁leased	-8795
▁legend	-8796
▁liquid	-8797
▁logged	-8798
▁majors	-8799
ylum	-8800
▁dvd	-8801
▁mcd	-8802
▁msg	-8803
bacco	-8804
▁oboe	-8805
▁tofu	-8806
▁xray	-8807
aphone	-8808
▁bumps	-8809
▁cocoa	-8810
▁ideal	-8811
▁jesus	-8812
▁kimon	-8813
▁lousy	-8814
▁olymp	-8815
▁pelic	-8816
▁pneum	-8817
▁septe	-8818
oculars	-8819
rocardi	-8820
vourite	-8821
▁asylum	-8822
▁bosnia	-8823
▁chapel	-8824
▁deputy	-8825
▁giants	-8826
▁groups	-8827
▁lanter	-8828
▁makeup	-8829
▁meadow	-8830
▁mentor	-8831
▁messed	-8832
▁metals	-8833
▁milked	-8834
▁milton	-8835
▁mirage	-8836
▁mixing	-8837
▁mosque	-8838
▁motive	-8839
▁mozart	-8840
▁multip	-8841
▁mumble	-8842
▁naples	-8843
▁needle	-8844
▁newest	-8845
▁nicely	-8846
▁norweg	-8847
▁notify	-8848
▁nurses	-8849
▁obeyed	-8850
▁oceans	-8851
▁offend	-8852
▁oneway	-8853
▁overhe	-8854
▁paella	-8855
▁paints	-8856
▁papers	-8857
▁parall	-8858
▁parcel	-8859
▁parent	-8860
▁parole	-8861
▁partly	-8862
▁pastry	-8863
▁pigsty	-8864
▁pilots	-8865
▁pisces	-8866
▁powers	-8867
▁praise	-8868
▁puddle	-8869
▁purcha	-8870
▁puzzle	-8871
▁quorum	-8872
▁quotes	-8873
▁racing	-8874
▁radium	-8875
▁raises	-8876
▁ranger	-8877
▁reader	-8878
▁recess	-8879
▁recite	-8880
▁remedy	-8881
▁resort	-8882
▁resume	-8883
▁ripoff	-8884
▁risked	-8885
▁roller	-8886
▁romans	-8887
▁rookie	-8888
▁sailed	-8889
▁salesp	-8890
▁sauerk	-8891
▁scores	-8892
▁sculpt	-8893
▁sensed	-8894
▁sensor	-8895
▁shaved	-8896
▁shifts	-8897
▁shovel	-8898
▁shrunk	-8899
weitzer	-8900
▁august	-8901
▁linden	-8902
▁reggae	-8903
▁rinsed	-8904
▁sicker	-8905
▁signal	-8906
▁sipped	-8907
▁skated	-8908
▁skater	-8909
▁skills	-8910
▁skirts	-8911
▁sleeve	-8912
▁slices	-8913
▁smiles	-8914
▁sneeze	-8915
▁snores	-8916
▁soaked	-8917
▁somers	-8918
▁sorted	-8919
▁sought	-8920
▁spades	-8921
▁speedy	-8922
▁sponge	-8923
▁sprout	-8924
▁stable	-8925
▁status	-8926
▁sticks	-8927
▁stings	-8928
▁stormy	-8929
▁symbol	-8930
▁talker	-8931
▁tanger	-8932
▁temple	-8933
▁thisll	-8934
▁thomas	-8935
▁thwart	-8936
▁tipped	-8937
▁toupee	-8938
▁troops	-8939
▁trophy	-8940
▁undone	-8941
▁unlock	-8942
▁unwell	-8943
▁unwise	-8944
▁upside	-8945
▁valley	-8946
▁values	-8947
▁venice	-8948
▁victim	-8949
▁virtue	-8950
▁voyage	-8951
▁wakeup	-8952
▁waking	-8953
▁warmly	-8954
▁wealth	-8955
▁whales	-8956
▁whered	-8957
▁widely	-8958
▁wiggle	-8959
▁wisdom	-8960
▁wizard	-8961
asonable	-8962
asonably	-8963
ceptable	-8964
clopedia	-8965
coughing	-8966
entional	-8967
ernickel	-8968
graduate	-8969
ibiotics	-8970
iorating	-8971
ologists	-8972
orescent	-8973
scribers	-8974
storming	-8975
vantages	-8976
▁abolish	-8977
▁abraham	-8978
▁absorbs	-8979
▁abstain	-8980
▁adapted	-8981
▁affairs	-8982
▁african	-8983
▁algebra	-8984
▁amounts	-8985
▁anticip	-8986
▁applied	-8987
▁approve	-8988
▁apricot	-8989
▁archive	-8990
▁armenia	-8991
▁arrange	-8992
▁arrives	-8993
▁artists	-8994
▁ashtray	-8995
▁assured	-8996
▁atheist	-8997
▁attends	-8998
▁auction	-8999
▁austria	-9000
▁baffled	-9001
▁baffles	-9002
▁batting	-9003
▁becomes	-9004
▁begging	-9005
▁binding	-9006
▁bladder	-9007
▁blocked	-9008
▁boarded	-9009
▁bonkers	-9010
▁bothers	-9011
▁bounced	-9012
▁buffalo	-9013
▁bullied	-9014
▁buttons	-9015
▁carries	-9016
▁castles	-9017
▁chauffe	-9018
▁checkin	-9019
▁circled	-9020
▁clapped	-9021
▁cloning	-9022
▁compass	-9023
▁compens	-9024
▁consent	-9025
▁consequ	-9026
▁consume	-9027
▁corrupt	-9028
▁cottage	-9029
▁counted	-9030
▁crooked	-9031
▁crushed	-9032
▁crystal	-9033
▁cursing	-9034
▁cursive	-9035
▁cushion	-9036
▁customs	-9037
▁cynical	-9038
▁damages	-9039
▁deceive	-9040
▁declare	-9041
▁defrost	-9042
▁demands	-9043
▁density	-9044
▁derived	-9045
▁desires	-9046
▁despise	-9047
▁dialect	-9048
▁differs	-9049
▁diploma	-9050
▁dipping	-9051
▁diverse	-9052
▁doorman	-9053
▁doorway	-9054
▁drawers	-9055
▁dresses	-9056
▁drinker	-9057
▁eastern	-9058
▁elegant	-9059
▁equator	-9060
▁erected	-9061
▁excruci	-9062
▁excused	-9063
▁expects	-9064
▁expense	-9065
▁expires	-9066
▁fantasy	-9067
▁fasting	-9068
▁finland	-9069
▁forcing	-9070
▁formula	-9071
▁forsake	-9072
▁fortune	-9073
▁fragile	-9074
▁freshly	-9075
▁gambled	-9076
▁genuine	-9077
▁gerhard	-9078
▁grandma	-9079
▁grandpa	-9080
▁granted	-9081
▁grounds	-9082
▁growled	-9083
▁hammock	-9084
▁handful	-9085
▁hardens	-9086
▁hardest	-9087
▁heavens	-9088
▁heroine	-9089
▁highest	-9090
▁hitting	-9091
▁horizon	-9092
▁iceberg	-9093
▁iceland	-9094
▁incense	-9095
▁indones	-9096
▁inflamm	-9097
▁inhaled	-9098
▁intense	-9099
▁intimid	-9100
▁involve	-9101
▁january	-9102
▁judaism	-9103
▁leading	-9104
▁leaking	-9105
▁leather	-9106
▁leopard	-9107
▁liberty	-9108
▁lighter	-9109
▁magical	-9110
▁mammals	-9111
▁mankind	-9112
▁mansion	-9113
▁masters	-9114
▁meowing	-9115
▁mexican	-9116
▁milking	-9117
▁misfort	-9118
▁mission	-9119
▁mistook	-9120
▁mixture	-9121
▁moaning	-9122
▁moments	-9123
▁monitor	-9124
▁monothe	-9125
▁morocco	-9126
▁neutral	-9127
▁nintend	-9128
▁oneself	-9129
▁oppress	-9130
▁outcome	-9131
▁outdone	-9132
▁packing	-9133
▁panting	-9134
▁payment	-9135
▁penalty	-9136
▁peoples	-9137
▁perused	-9138
▁phrased	-9139
▁picasso	-9140
▁pigeons	-9141
▁pitched	-9142
▁plugged	-9143
▁poorest	-9144
▁privacy	-9145
▁proceed	-9146
▁process	-9147
▁produce	-9148
▁profile	-9149
▁prophet	-9150
▁propose	-9151
▁prosper	-9152
▁prudent	-9153
▁pseudos	-9154
▁pudding	-9155
▁pulling	-9156
▁punched	-9157
▁puppies	-9158
▁pushups	-9159
▁quarant	-9160
▁reliant	-9161
▁relieve	-9162
▁renewed	-9163
▁repeats	-9164
▁reports	-9165
▁restart	-9166
▁resumed	-9167
▁revenge	-9168
▁robbers	-9169
▁rolling	-9170
▁routine	-9171
▁samesex	-9172
▁sausage	-9173
▁scammed	-9174
▁scandal	-9175
▁scaring	-9176
▁scooter	-9177
▁screwed	-9178
▁seafood	-9179
▁seatbel	-9180
▁secrecy	-9181
▁shallow	-9182
▁shoebox	-9183
▁shoplif	-9184
▁showers	-9185
▁sidewal	-9186
▁sinking	-9187
▁sixteen	-9188
▁slammed	-9189
▁sleeves	-9190
▁sneezed	-9191
▁somehow	-9192
▁spelled	-9193
▁squared	-9194
▁squares	-9195
▁stapler	-9196
▁starved	-9197
▁stirred	-9198
▁stripes	-9199
▁surfing	-9200
▁sweated	-9201
▁sweeter	-9202
▁swollen	-9203
▁tatoeba	-9204
▁teargas	-9205
▁temples	-9206
▁thieves	-9207
▁tickled	-9208
▁tightly	-9209
▁tobacco	-9210
▁toilets	-9211
▁trained	-9212
▁trainer	-9213
▁tripped	-9214
▁tsunami	-9215
▁tuesday	-9216
▁ukraine	-9217
▁unarmed	-9218
▁unavoid	-9219
▁unaware	-9220
▁unheard	-9221
▁unknown	-9222
▁untrust	-9223
▁updates	-9224
▁violent	-9225
▁visitor	-9226
▁whereve	-9227
▁whining	-9228
▁whipped	-9229
▁whiskey	-9230
▁wonders	-9231
▁wrapped	-9232
▁writers	-9233
chenglish	-9234
endicitis	-9235
formation	-9236
idextrous	-9237
severance	-9238
sponsible	-9239
▁abnormal	-9240
▁addition	-9241
▁adjusted	-9242
▁anybodys	-9243
▁approved	-9244
▁apricots	-9245
▁aquarius	-9246
▁argument	-9247
▁armchair	-9248
▁arriving	-9249
▁assuming	-9250
▁atlantic	-9251
▁audition	-9252
▁bachelor	-9253
▁backseat	-9254
▁backward	-9255
▁bacteria	-9256
▁bandages	-9257
▁bedrooms	-9258
▁belgrade	-9259
▁bitterly	-9260
▁blossoms	-9261
▁bookshop	-9262
▁brasilia	-9263
▁breathed	-9264
▁brussels	-9265
▁calluses	-9266
▁calories	-9267
▁cambodia	-9268
▁capsized	-9269
▁catholic	-9270
▁cemetery	-9271
▁charcoal	-9272
▁cheapest	-9273
▁cheerful	-9274
▁chemical	-9275
▁cherries	-9276
▁competed	-9277
▁coughing	-9278
▁currency	-9279
▁damascus	-9280
▁deadline	-9281
▁declared	-9282
▁decorate	-9283
▁delicacy	-9284
▁departed	-9285
▁deported	-9286
▁diabetes	-9287
▁diamonds	-9288
▁diarrhea	-9289
▁disliked	-9290
▁disorder	-9291
▁doghouse	-9292
▁doubtful	-9293
▁driveway	-9294
▁dropping	-9295
▁earrings	-9296
▁eligible	-9297
▁enlisted	-9298
▁entering	-9299
▁entitled	-9300
▁evaluate	-9301
▁executed	-9302
▁extended	-9303
▁extravag	-9304
▁faintest	-9305
▁feathers	-9306
▁fingerti	-9307
▁forecast	-9308
▁forgiven	-9309
▁fourteen	-9310
▁frighten	-9311
▁function	-9312
▁garrison	-9313
▁giraffes	-9314
▁glitters	-9315
▁goodness	-9316
▁governor	-9317
▁grandpas	-9318
▁grinning	-9319
▁guessing	-9320
▁hallucin	-9321
▁handmade	-9322
▁haystack	-9323
▁hedgehog	-9324
▁hokkaido	-9325
▁identity	-9326
▁immunity	-9327
▁incisors	-9328
▁includes	-9329
▁increase	-9330
▁indicate	-9331
▁industry	-9332
▁instinct	-9333
▁invested	-9334
▁knitting	-9335
▁lemonade	-9336
▁linguist	-9337
▁lipstick	-9338
▁lukewarm	-9339
▁machines	-9340
▁magician	-9341
▁malarkey	-9342
▁mandarin	-9343
▁marathon	-9344
▁mattered	-9345
▁measured	-9346
▁mechanic	-9347
▁messages	-9348
▁mightier	-9349
▁migraine	-9350
▁millions	-9351
▁molecule	-9352
▁mourning	-9353
▁munching	-9354
▁napoleon	-9355
▁notified	-9356
▁numerous	-9357
▁objected	-9358
▁offering	-9359
▁officers	-9360
▁opinions	-9361
▁optimist	-9362
▁ordering	-9363
▁outgoing	-9364
▁overflow	-9365
▁painkill	-9366
▁pelicans	-9367
▁pizzeria	-9368
▁platinum	-9369
▁poisoned	-9370
▁pollutes	-9371
▁portrait	-9372
▁pretends	-9373
▁pretzels	-9374
▁previous	-9375
▁priority	-9376
▁protects	-9377
▁publicly	-9378
▁pursuing	-9379
▁reflects	-9380
▁refuting	-9381
▁regained	-9382
▁reindeer	-9383
▁reporter	-9384
▁reptiles	-9385
▁resolved	-9386
▁response	-9387
▁restless	-9388
▁restroom	-9389
▁retiring	-9390
▁roulette	-9391
▁ruthless	-9392
▁sacrific	-9393
▁scenario	-9394
▁scorpion	-9395
▁scotland	-9396
▁semester	-9397
▁separate	-9398
▁shepherd	-9399
▁shivered	-9400
▁shocking	-9401
▁sickness	-9402
▁situated	-9403
▁skipping	-9404
▁skittish	-9405
▁smuggled	-9406
▁snowball	-9407
▁souvenir	-9408
▁specific	-9409
▁squeezed	-9410
▁stalling	-9411
▁steadily	-9412
▁stirring	-9413
▁stitches	-9414
▁struggle	-9415
▁stumbled	-9416
▁subjects	-9417
▁suicidal	-9418
▁suitable	-9419
▁sunlight	-9420
▁suspects	-9421
▁swearing	-9422
▁swimsuit	-9423
▁syndrome	-9424
▁tasmania	-9425
▁telegram	-9426
▁theories	-9427
▁transfer	-9428
▁treasure	-9429
▁trombone	-9430
▁tropical	-9431
▁typhoons	-9432
▁uncommon	-9433
▁unicycle	-9434
▁vehicles	-9435
▁vigilant	-9436
▁watering	-9437
▁weakened	-9438
▁websites	-9439
▁weekdays	-9440
▁weighing	-9441
▁whistled	-9442
▁worships	-9443
▁wrinkled	-9444
respectful	-9445
▁abilities	-9446
▁addressed	-9447
▁admission	-9448
▁affection	-9449
▁airplanes	-9450
▁alligator	-9451
▁amputated	-9452
▁announced	-9453
▁anonymous	-9454
▁antarctic	-9455
▁anythings	-9456
▁apologies	-9457
▁argentina	-9458
▁attending	-9459
▁audiobook	-9460
▁avalanche	-9461
▁balancing	-9462
▁ballpoint	-9463
▁birdhouse	-9464
▁bodyguard	-9465
▁breakdown	-9466
▁brilliant	-9467
▁cafeteria	-9468
▁cherished	-9469
▁chestnuts	-9470
▁classmate	-9471
▁committee	-9472
▁companies	-9473
▁competent	-9474
▁complaint	-9475
▁conceited	-9476
▁concluded	-9477
▁conductor	-9478
▁considers	-9479
▁contacted	-9480
▁contained	-9481
▁convicted	-9482
▁corkscrew	-9483
▁creatures	-9484
▁criminals	-9485
▁crocodile	-9486
▁deafening	-9487
▁decorated	-9488
▁deficient	-9489
▁delivered	-9490
▁deodorant	-9491
▁departure	-9492
▁descended	-9493
▁developed	-9494
▁disorient	-9495
▁dissolves	-9496
▁distilled	-9497
▁disturbed	-9498
▁drugstore	-9499
▁earphones	-9500
▁eccentric	-9501
▁education	-9502
▁eightyone	-9503
▁elections	-9504
▁emigrated	-9505
▁employees	-9506
▁energetic	-9507
▁establish	-9508
▁estimated	-9509
▁excessive	-9510
▁exercises	-9511
▁exhibited	-9512
▁extracted	-9513
▁exuberant	-9514
▁eyelashes	-9515
▁fascinate	-9516
▁favorites	-9517
▁favourite	-9518
▁fisherman	-9519
▁fivepound	-9520
▁foreigner	-9521
▁fortyfive	-9522
▁freerange	-9523
▁gentlemen	-9524
▁gunpowder	-9525
▁hangovers	-9526
▁hardships	-9527
▁healthier	-9528
▁healthily	-9529
▁hibernate	-9530
▁hollywood	-9531
▁housewife	-9532
▁identical	-9533
▁imitating	-9534
▁impartial	-9535
▁impounded	-9536
▁incurable	-9537
▁inherited	-9538
▁kidnapper	-9539
▁kilograms	-9540
▁lawnmower	-9541
▁lifeboats	-9542
▁lifeguard	-9543
▁lifesaver	-9544
▁machinery	-9545
▁margarine	-9546
▁maternity	-9547
▁mcdonalds	-9548
▁mercenary	-9549
▁messenger	-9550
▁microwave	-9551
▁mistletoe	-9552
▁motorbike	-9553
▁motorcade	-9554
▁narrowing	-9555
▁operating	-9556
▁orangutan	-9557
▁outnumber	-9558
▁overheard	-9559
▁paperwork	-9560
▁patiently	-9561
▁performed	-9562
▁perplexed	-9563
▁physicist	-9564
▁pneumonia	-9565
▁pointless	-9566
▁poisoning	-9567
▁policemen	-9568
▁political	-9569
▁populated	-9570
▁porcupine	-9571
▁postnatal	-9572
▁potassium	-9573
▁predicted	-9574
▁presented	-9575
▁proofread	-9576
▁protested	-9577
▁qualified	-9578
▁regularly	-9579
▁relations	-9580
▁reporters	-9581
▁reservoir	-9582
▁residence	-9583
▁schroeder	-9584
▁scorpions	-9585
▁scrambled	-9586
▁screaming	-9587
▁separates	-9588
▁september	-9589
▁shellfish	-9590
▁shivering	-9591
▁shortslee	-9592
▁signature	-9593
▁singapore	-9594
▁skydiving	-9595
▁snowslide	-9596
▁spectacle	-9597
▁staircase	-9598
▁statesman	-9599
▁stopwatch	-9600
▁strangest	-9601
▁strangled	-9602
▁stretched	-9603
▁sunflower	-9604
▁surrender	-9605
▁suspected	-9606
▁synthetic	-9607
▁talkative	-9608
▁taxpayers	-9609
▁technique	-9610
▁temporary	-9611
▁tightrope	-9612
▁toothpick	-9613
▁torturing	-9614
▁treasures	-9615
▁treatment	-9616
▁twothirds	-9617
▁unhealthy	-9618
▁universal	-9619
▁unnatural	-9620
▁vacuuming	-9621
▁violinist	-9622
▁voluntary	-9623
▁waterfall	-9624
▁witnesses	-9625
▁wrestling	-9626
▁xylophone	-9627
▁accessible	-9628
▁achievable	-9629
▁afterwards	-9630
▁antibodies	-9631
▁artificial	-9632
▁assistants	-9633
▁assumption	-9634
▁background	-9635
▁barbershop	-9636
▁binoculars	-9637
▁blackboard	-9638
▁carpenters	-9639
▁challenges	-9640
▁chancellor	-9641
▁characters	-9642
▁chessboard	-9643
▁chocolates	-9644
▁commercial	-9645
▁compulsory	-9646
▁confession	-9647
▁connection	-9648
▁conscience	-9649
▁consulting	-9650
▁containers	-9651
▁contradict	-9652
▁contribute	-9653
▁controlled	-9654
▁convenient	-9655
▁courageous	-9656
▁criticizes	-9657
▁depressing	-9658
▁determined	-9659
▁devastated	-9660
▁discourage	-9661
▁discussing	-9662
▁downloaded	-9663
▁economists	-9664
▁electrical	-9665
▁elementary	-9666
▁encouraged	-9667
▁excitement	-9668
▁exhausting	-9669
▁expedition	-9670
▁foundation	-9671
▁generation	-9672
▁grapefruit	-9673
▁halfsister	-9674
▁hardboiled	-9675
▁headphones	-9676
▁helicopter	-9677
▁horrifying	-9678
▁humiliated	-9679
▁illiterate	-9680
▁improvised	-9681
▁individual	-9682
▁infections	-9683
▁inflatable	-9684
▁ingredient	-9685
▁initiative	-9686
▁invincible	-9687
▁irrelevant	-9688
▁laundromat	-9689
▁manuscript	-9690
▁meningitis	-9691
▁microscope	-9692
▁misleading	-9693
▁motivation	-9694
▁negotiable	-9695
▁nightmares	-9696
▁nutritious	-9697
▁objections	-9698
▁obligation	-9699
▁occupation	-9700
▁originated	-9701
▁overcooked	-9702
▁overlooked	-9703
▁particular	-9704
▁peacefully	-9705
▁pedestrian	-9706
▁permitting	-9707
▁pilgrimage	-9708
▁playground	-9709
▁playwright	-9710
▁policemans	-9711
▁politician	-9712
▁portuguese	-9713
▁professors	-9714
▁programmer	-9715
▁pronounced	-9716
▁pronounces	-9717
▁psychology	-9718
▁recovering	-9719
▁refreshing	-9720
▁regardless	-9721
▁relatively	-9722
▁resistance	-9723
▁respectful	-9724
▁responding	-9725
▁satellites	-9726
▁sauerkraut	-9727
▁schweitzer	-9728
▁scientists	-9729
▁scratching	-9730
▁snorkeling	-9731
▁somersault	-9732
▁stepsister	-9733
▁stewardess	-9734
▁struggling	-9735
▁sufficient	-9736
▁symphonies	-9737
▁tambourine	-9738
▁tangerines	-9739
▁technician	-9740
▁temptation	-9741
▁tendinitis	-9742
▁tendonitis	-9743
▁therapists	-9744
▁trampoline	-9745
▁tremendous	-9746
▁twentyfive	-9747
▁ultimately	-9748
▁unbearable	-9749
▁underneath	-9750
▁undressing	-9751
▁unreliable	-9752
▁unsociable	-9753
▁vaccinated	-9754
▁weatherman	-9755
▁woodpecker	-9756
▁worthwhile	-9757
▁wristwatch	-9758
rocardiogram	-9759
▁advertising	-9760
▁alcoholfree	-9761
▁antibiotics	-9762
▁assassinate	-9763
▁automobiles	-9764
▁badmouthing	-9765
▁circulation	-9766
▁confiscated	-9767
▁convenience	-9768
▁convertible	-9769
▁dangerously	-9770
▁defenseless	-9771
▁dehydration	-9772
▁desperately	-9773
▁devastating	-9774
▁eightthirty	-9775
▁essentially	-9776
▁experiences	-9777
▁fascinating	-9778
▁financially	-9779
▁firefighter	-9780
▁fluorescent	-9781
▁forgiveness	-9782
▁friendliest	-9783
▁frustration	-9784
▁halfbrother	-9785
▁hiccoughing	-9786
▁hippopotami	-9787
▁housebroken	-9788
▁imaginative	-9789
▁inefficient	-9790
▁interpreted	-9791
▁intolerable	-9792
▁intoxicated	-9793
▁magnificent	-9794
▁nationalism	-9795
▁necessarily	-9796
▁negotiating	-9797
▁obstructing	-9798
▁predictable	-9799
▁predictions	-9800
▁prematurely	-9801
▁questioning	-9802
▁remembering	-9803
▁replaceable	-9804
▁replacement	-9805
▁represented	-9806
▁rescheduled	-9807
▁salesperson	-9808
▁spectacular	-9809
▁storyteller	-9810
▁subscribers	-9811
▁suggestions	-9812
▁thermometer	-9813
▁traditional	-9814
▁transfusion	-9815
▁translating	-9816
▁unavoidable	-9817
▁unimportant	-9818
▁volunteered	-9819
▁watermelons	-9820
▁accomplished	-9821
▁ambidextrous	-9822
▁appendicitis	-9823
▁christianity	-9824
▁confidential	-9825
▁congratulate	-9826
▁consequences	-9827
▁considerable	-9828
▁contradicted	-9829
▁disagreeable	-9830
▁encyclopedia	-9831
▁excruciating	-9832
▁extinguished	-9833
▁grandfathers	-9834
▁implications	-9835
▁improvements	-9836
▁intelligence	-9837
▁kleptomaniac	-9838
▁manipulative	-9839
▁manslaughter	-9840
▁melodramatic	-9841
▁monotheistic	-9842
▁nevertheless	-9843
▁nonalcoholic	-9844
▁participated	-9845
▁peacekeepers	-9846
▁perseverance	-9847
▁psychiatrist	-9848
▁pumpernickel	-9849
▁ridiculously	-9850
▁similarities	-9851
▁snowboarding	-9852
▁stepdaughter	-9853
▁troublemaker	-9854
▁unacceptable	-9855
▁uninterested	-9856
▁unreasonable	-9857
▁unseasonably	-9858
▁brainstorming	-9859
▁breastfeeding	-9860
▁comprehensive	-9861
▁deteriorating	-9862
▁disadvantages	-9863
▁disrespectful	-9864
▁exceptionally	-9865
▁frenchenglish	-9866
▁inconsiderate	-9867
▁irresponsible	-9868
▁misunderstand	-9869
▁overestimated	-9870
▁participation	-9871
▁pseudoscience	-9872
▁psychological	-9873
▁skateboarding	-9874
▁undergraduate	-9875
▁unintentional	-9876
▁untrustworthy	-9877
▁representative	-9878
▁underestimated	-9879
▁understandable	-9880
▁frequentlyasked	-9881
da	-9882
dp	-9883
gi	-9884
hj	-9885
la	-9886
lk	-9887
ma	-9888
my	-9889
ni	-9890
nn	-9891
rs	-9892
sw	-9893
ta	-9894
to	-9895
tz	-9896
va	-9897
wk	-9898
ws	-9899
gt	-9900
xe	-9901
yn	-9902
yp	-9903
ady	-9904
aly	-9905
ano	-9906
ari	-9907
arw	-9908
asa	-9909
awn	-9910
bre	-9911
bug	-9912
cke	-9913
ctu	-9914
def	-9915
dow	-9916
eah	-9917
eas	-9918
eav	-9919
edo	-9920
eed	-9921
ego	-9922
ene	-9923
eor	-9924
era	-9925
erp	-9926
err	-9927
fam	-9928
fat	-9929
fed	-9930
gor	-9931
hab	-9932
has	-9933
hew	-9934
ida	-9935
ima	-9936
iri	-9937
isa	-9938
ita	-9939
jar	-9940
kor	-9941
lar	-9942
lay	-9943
ldy	-9944
lem	-9945
lfe	-9946
lls	-9947
lot	-9948
meg	-9949
mic	-9950
mit	-9951
nam	-9952
nto	-9953
oen	-9954
oli	-9955
omi	-9956
oni	-9957
ony	-9958
opp	-9959
ora	-9960
ori	-9961
orr	-9962
pan	-9963
pat	-9964
pir	-9965
pts	-9966
raj	-9967
rig	-9968
ron	-9969
ros	-9970
rot	-9971
sec	-9972
see	-9973
sen	-9974
sid	-9975
sts	-9976
tar	-9977
the	-9978
ths	-9979
uan	-9980
uay	-9981
ubl	-9982
uet	-9983
uku	-9984
ulb	-9985
ulf	-9986
ulp	-9987
und	-9988
ura	-9989
vee	-9990
vil	-9991
vre	-9992
you	-9993
▁ah	-9994
▁az	-9995
▁dc	-9996
▁ep	-9997
▁iv	-9998
▁mi	-9999
alm	-10000
bec	-10001
bya	-10002
chu	-10003
det	-10004
ghd	-10005
kic	-10006
nce	-10007
nut	-10008
och	-10009
tic	-10010
ygh	-10011
zco	-10012
▁oz	-10013
▁si	-10014
▁ta	-10015
▁ub	-10016
▁yo	-10017
adan	-10018
agic	-10019
ales	-10020
alid	-10021
alis	-10022
alls	-10023
alow	-10024
apri	-10025
ateg	-10026
atia	-10027
atis	-10028
auge	-10029
beat	-10030
boon	-10031
brus	-10032
bump	-10033
char	-10034
ckle	-10035
ckon	-10036
coma	-10037
crib	-10038
crow	-10039
cuse	-10040
enha	-10041
eous	-10042
erad	-10043
erin	-10044
eror	-10045
esar	-10046
ewit	-10047
ffed	-10048
ffod	-10049
gles	-10050
glos	-10051
gose	-10052
grow	-10053
haly	-10054
hane	-10055
hate	-10056
heme	-10057
hent	-10058
heum	-10059
hill	-10060
iall	-10061
iaqu	-10062
igan	-10063
ileo	-10064
imed	-10065
iner	-10066
inge	-10067
inki	-10068
inse	-10069
inum	-10070
iral	-10071
irie	-10072
iser	-10073
isis	-10074
isle	-10075
isor	-10076
isse	-10077
jing	-10078
kins	-10079
lady	-10080
lars	-10081
lemm	-10082
lers	-10083
lvan	-10084
mbai	-10085
mets	-10086
nded	-10087
oese	-10088
onic	-10089
ooed	-10090
oomy	-10091
oppy	-10092
orns	-10093
orse	-10094
osce	-10095
ouqu	-10096
path	-10097
pens	-10098
perv	-10099
ada	-10100
adp	-10101
riz	-10102
tra	-10103
udi	-10104
wur	-10105
aign	-10106
andt	-10107
anus	-10108
boot	-10109
cars	-10110
coes	-10111
conn	-10112
cuts	-10113
eant	-10114
ping	-10115
pron	-10116
rawl	-10117
rier	-10118
rill	-10119
rink	-10120
sess	-10121
spea	-10122
stic	-10123
test	-10124
thon	-10125
unit	-10126
usks	-10127
uted	-10128
utor	-10129
vage	-10130
velt	-10131
want	-10132
▁abl	-10133
▁afg	-10134
▁bay	-10135
▁bew	-10136
▁bid	-10137
▁bol	-10138
▁boo	-10139
▁caf	-10140
▁cas	-10141
▁chu	-10142
▁dew	-10143
▁dyn	-10144
▁ech	-10145
▁ego	-10146
▁elo	-10147
▁exw	-10148
▁fai	-10149
▁fen	-10150
▁fru	-10151
▁gay	-10152
▁gin	-10153
▁hav	-10154
▁haz	-10155
▁hei	-10156
▁hex	-10157
▁hom	-10158
▁jur	-10159
▁kar	-10160
▁kis	-10161
▁lap	-10162
▁leo	-10163
▁lik	-10164
▁mas	-10165
▁meg	-10166
▁mes	-10167
▁mri	-10168
▁nag	-10169
▁nan	-10170
▁nep	-10171
▁nos	-10172
▁noz	-10173
▁ome	-10174
▁ore	-10175
▁pes	-10176
▁pit	-10177
▁pox	-10178
▁que	-10179
▁ree	-10180
▁ric	-10181
▁riv	-10182
▁sag	-10183
▁sem	-10184
▁sin	-10185
▁sul	-10186
▁ton	-10187
▁unh	-10188
▁uro	-10189
▁vom	-10190
▁wip	-10191
abled	-10192
acher	-10193
actor	-10194
ainer	-10195
aline	-10196
alled	-10197
ammar	-10198
anate	-10199
aco	-10200
urf	-10201
fill	-10202
fter	-10203
igra	-10204
nant	-10205
shot	-10206
sion	-10207
term	-10208
thle	-10209
wall	-10210
▁ath	-10211
▁aur	-10212
▁coc	-10213
▁dil	-10214
▁jit	-10215
▁joe	-10216
▁mac	-10217
▁roo	-10218
▁sce	-10219
▁tux	-10220
anoid	-10221
antee	-10222
apest	-10223
apply	-10224
arded	-10225
asant	-10226
asing	-10227
asive	-10228
ateur	-10229
aveng	-10230
ayons	-10231
beans	-10232
blood	-10233
cents	-10234
civil	-10235
ckefe	-10236
ddler	-10237
drobe	-10238
earth	-10239
eight	-10240
ertil	-10241
etime	-10242
field	-10243
ghdad	-10244
gular	-10245
heads	-10246
iably	-10247
iance	-10248
icing	-10249
icist	-10250
icket	-10251
icose	-10252
idyas	-10253
igued	-10254
igure	-10255
ilige	-10256
illar	-10257
inces	-10258
ingle	-10259
ingly	-10260
inter	-10261
inton	-10262
irits	-10263
isins	-10264
istor	-10265
itage	-10266
itone	-10267
ivion	-10268
leans	-10269
leton	-10270
lived	-10271
lland	-10272
meter	-10273
mills	-10274
minal	-10275
mouth	-10276
nasts	-10277
ntane	-10278
olina	-10279
onded	-10280
onged	-10281
orida	-10282
orrha	-10283
oting	-10284
ously	-10285
ouver	-10286
paper	-10287
piece	-10288
produ	-10289
psich	-10290
rient	-10291
ripts	-10292
sinki	-10293
stice	-10294
style	-10295
tably	-10296
ublai	-10297
unken	-10298
upils	-10299
imm	-10300
iop	-10301
ops	-10302
pop	-10303
top	-10304
affe	-10305
amel	-10306
ardv	-10307
ilch	-10308
nake	-10309
ocad	-10310
ogly	-10311
owel	-10312
rias	-10313
shed	-10314
untu	-10315
▁alp	-10316
▁alt	-10317
▁eag	-10318
▁sov	-10319
▁vul	-10320
casts	-10321
close	-10322
endid	-10323
flops	-10324
iopia	-10325
itake	-10326
oping	-10327
vable	-10328
vated	-10329
veled	-10330
woman	-10331
▁acad	-10332
▁acce	-10333
▁adds	-10334
▁alls	-10335
▁amoe	-10336
▁anac	-10337
▁asse	-10338
▁atms	-10339
▁atro	-10340
▁auck	-10341
▁auct	-10342
▁barg	-10343
▁blam	-10344
▁bolt	-10345
▁brad	-10346
▁bure	-10347
▁cann	-10348
▁carn	-10349
▁catn	-10350
▁chin	-10351
▁chol	-10352
▁clen	-10353
▁coke	-10354
▁cone	-10355
▁core	-10356
▁cozy	-10357
▁crab	-10358
▁crib	-10359
▁cupc	-10360
▁dant	-10361
▁dart	-10362
▁deco	-10363
▁depp	-10364
▁dork	-10365
▁dual	-10366
▁emot	-10367
▁excl	-10368
▁eyep	-10369
▁fals	-10370
▁fame	-10371
▁fang	-10372
▁fans	-10373
▁flop	-10374
▁fogg	-10375
▁ford	-10376
▁gall	-10377
▁gour	-10378
▁gras	-10379
▁grud	-10380
▁guar	-10381
▁gulf	-10382
▁hare	-10383
▁heal	-10384
▁hits	-10385
▁hook	-10386
▁hool	-10387
▁hors	-10388
▁howd	-10389
▁howl	-10390
▁inch	-10391
▁jack	-10392
▁jars	-10393
▁jogg	-10394
▁joys	-10395
▁khan	-10396
▁knot	-10397
▁lamb	-10398
▁lily	-10399
bia	-10400
dge	-10401
gee	-10402
gun	-10403
mun	-10404
rus	-10405
usk	-10406
gees	-10407
plan	-10408
unct	-10409
unes	-10410
▁cus	-10411
▁dun	-10412
▁hus	-10413
agedy	-10414
astin	-10415
bivor	-10416
heast	-10417
ighed	-10418
imble	-10419
mates	-10420
naiss	-10421
xplan	-10422
▁diox	-10423
▁dots	-10424
▁dusk	-10425
▁loop	-10426
▁mahj	-10427
▁mark	-10428
▁mart	-10429
▁mere	-10430
▁mint	-10431
▁mish	-10432
▁mong	-10433
▁monu	-10434
▁mort	-10435
▁muff	-10436
▁nept	-10437
▁nobr	-10438
▁noct	-10439
▁nonf	-10440
▁nonn	-10441
▁noun	-10442
▁nove	-10443
▁okra	-10444
▁opio	-10445
▁oral	-10446
▁orig	-10447
▁oxen	-10448
▁paws	-10449
▁peat	-10450
▁pile	-10451
▁ping	-10452
▁pist	-10453
▁plaz	-10454
▁pome	-10455
▁pong	-10456
▁pulp	-10457
▁punk	-10458
▁puri	-10459
▁rack	-10460
▁rage	-10461
▁rear	-10462
▁refe	-10463
▁reus	-10464
▁rigs	-10465
▁saff	-10466
▁scal	-10467
▁sele	-10468
▁shat	-10469
▁shel	-10470
▁shod	-10471
▁skid	-10472
▁skys	-10473
▁sobb	-10474
▁soil	-10475
▁solo	-10476
▁stal	-10477
▁ster	-10478
▁suck	-10479
▁sued	-10480
▁sunk	-10481
▁tere	-10482
▁thir	-10483
▁thou	-10484
▁toen	-10485
▁tomb	-10486
▁unor	-10487
▁vibr	-10488
▁wage	-10489
▁ware	-10490
▁wasp	-10491
▁wilt	-10492
▁wing	-10493
▁womb	-10494
▁wors	-10495
▁yoko	-10496
▁yush	-10497
000000	-10498
achute	-10499
ody	-10500
amis	-10501
bbon	-10502
ibis	-10503
izab	-10504
onda	-10505
ques	-10506
quis	-10507
temp	-10508
▁chi	-10509
▁jul	-10510
▁nun	-10511
▁ump	-10512
ander	-10513
comed	-10514
dried	-10515
inawa	-10516
itful	-10517
tyard	-10518
▁deed	-10519
▁dele	-10520
▁gand	-10521
▁gren	-10522
▁hind	-10523
▁isab	-10524
▁loon	-10525
▁maam	-10526
▁quot	-10527
▁spun	-10528
▁stag	-10529
▁tube	-10530
▁yere	-10531
▁zinc	-10532
adozen	-10533
ailing	-10534
aining	-10535
amides	-10536
ancies	-10537
antily	-10538
aprika	-10539
ashing	-10540
astern	-10541
astrop	-10542
atized	-10543
aucoma	-10544
botage	-10545
cedure	-10546
celona	-10547
churia	-10548
cupied	-10549
dcasts	-10550
degrad	-10551
ession	-10552
ethird	-10553
figure	-10554
goseek	-10555
hended	-10556
holics	-10557
huahua	-10558
iantly	-10559
icklay	-10560
iental	-10561
ighted	-10562
inator	-10563
ionate	-10564
ionist	-10565
ipated	-10566
iscope	-10567
issipp	-10568
isting	-10569
judged	-10570
ldness	-10571
leeves	-10572
lihood	-10573
logist	-10574
lvania	-10575
medies	-10576
noisse	-10577
nthrop	-10578
ntiful	-10579
oglyph	-10580
omated	-10581
ooking	-10582
ophies	-10583
orence	-10584
orious	-10585
orkers	-10586
ouquet	-10587
ousing	-10588
oustic	-10589
packed	-10590
rajuku	-10591
reated	-10592
ricted	-10593
rizona	-10594
ronted	-10595
served	-10596
sidies	-10597
spects	-10598
thouse	-10599
die	-10600
tsd	-10601
asel	-10602
eped	-10603
fice	-10604
hour	-10605
jack	-10606
nish	-10607
pent	-10608
▁hyp	-10609
aters	-10610
ishly	-10611
iuses	-10612
llent	-10613
odate	-10614
sters	-10615
ulate	-10616
venth	-10617
▁aide	-10618
▁dice	-10619
▁fate	-10620
▁flir	-10621
▁herb	-10622
▁herd	-10623
▁lays	-10624
▁moat	-10625
▁ptsd	-10626
▁redu	-10627
▁remb	-10628
▁sash	-10629
acting	-10630
enders	-10631
entive	-10632
ishing	-10633
marine	-10634
ophobe	-10635
tinent	-10636
uation	-10637
uffing	-10638
umbled	-10639
umsier	-10640
urping	-10641
vative	-10642
voland	-10643
▁abbre	-10644
▁acids	-10645
▁adore	-10646
▁adren	-10647
▁aires	-10648
▁amaze	-10649
▁ample	-10650
▁anest	-10651
▁areas	-10652
▁backs	-10653
▁badge	-10654
▁bands	-10655
▁beers	-10656
▁binge	-10657
▁brows	-10658
▁bunny	-10659
▁cable	-10660
▁cacti	-10661
▁cadet	-10662
▁canal	-10663
▁cared	-10664
▁carve	-10665
▁cases	-10666
▁chain	-10667
▁chart	-10668
▁chase	-10669
▁cheat	-10670
▁chill	-10671
▁circu	-10672
▁clapp	-10673
▁clash	-10674
▁coats	-10675
▁cowbo	-10676
▁crane	-10677
▁crept	-10678
▁curie	-10679
▁danes	-10680
▁dante	-10681
▁deity	-10682
▁doggy	-10683
▁doork	-10684
▁drain	-10685
▁drizz	-10686
▁drone	-10687
▁edged	-10688
▁eggpl	-10689
▁epide	-10690
▁evade	-10691
▁exboy	-10692
▁exten	-10693
▁files	-10694
▁finns	-10695
▁fires	-10696
▁flags	-10697
▁fleet	-10698
▁flock	-10699
cky	-10700
tie	-10701
avig	-10702
mart	-10703
robe	-10704
▁dav	-10705
▁ebo	-10706
▁ens	-10707
▁lee	-10708
▁une	-10709
heart	-10710
ibral	-10711
ifier	-10712
igned	-10713
stopp	-10714
strat	-10715
▁cart	-10716
▁clad	-10717
▁clap	-10718
▁dict	-10719
▁fart	-10720
▁icky	-10721
▁kite	-10722
▁mona	-10723
▁oslo	-10724
▁pess	-10725
▁prol	-10726
▁quas	-10727
mother	-10728
▁basis	-10729
▁carbo	-10730
▁cries	-10731
▁davis	-10732
▁decay	-10733
▁ebola	-10734
▁fares	-10735
▁fluid	-10736
▁forth	-10737
▁fract	-10738
▁frees	-10739
▁gauge	-10740
▁halal	-10741
▁hater	-10742
▁haven	-10743
▁havoc	-10744
▁hazel	-10745
▁headf	-10746
▁heals	-10747
▁heron	-10748
▁hexag	-10749
▁homet	-10750
▁howre	-10751
▁image	-10752
▁juven	-10753
▁kabuk	-10754
▁kneel	-10755
▁knits	-10756
▁lawab	-10757
▁layer	-10758
▁leash	-10759
▁leeds	-10760
▁levee	-10761
▁longr	-10762
▁loose	-10763
▁loser	-10764
▁lover	-10765
▁madam	-10766
▁mahar	-10767
▁maint	-10768
▁males	-10769
▁marsh	-10770
▁masks	-10771
▁mince	-10772
▁minus	-10773
▁mixed	-10774
▁model	-10775
▁modem	-10776
▁moldy	-10777
▁moust	-10778
▁nanny	-10779
▁nause	-10780
▁navig	-10781
▁ninth	-10782
▁notch	-10783
▁notre	-10784
▁obama	-10785
▁outsp	-10786
▁outst	-10787
▁overd	-10788
▁parag	-10789
▁pipes	-10790
▁plank	-10791
▁pluck	-10792
▁poets	-10793
▁polic	-10794
▁popey	-10795
▁procr	-10796
▁quito	-10797
▁recap	-10798
▁recur	-10799
cra	-10800
ols	-10801
rao	-10802
enos	-10803
kini	-10804
mine	-10805
opol	-10806
rael	-10807
vard	-10808
▁ami	-10809
▁blo	-10810
▁bye	-10811
▁yol	-10812
athed	-10813
craft	-10814
eroom	-10815
ieged	-10816
onven	-10817
orted	-10818
ousel	-10819
raohs	-10820
▁buoy	-10821
▁crum	-10822
▁dine	-10823
▁hygi	-10824
▁isol	-10825
▁peac	-10826
▁prev	-10827
▁tact	-10828
▁vice	-10829
▁wrap	-10830
araoke	-10831
gthens	-10832
ortion	-10833
ouched	-10834
rients	-10835
stance	-10836
washed	-10837
▁agric	-10838
▁insom	-10839
▁prost	-10840
▁refer	-10841
▁rents	-10842
▁reset	-10843
▁rheum	-10844
▁rigor	-10845
▁rinse	-10846
▁riser	-10847
▁roose	-10848
▁satin	-10849
▁shalt	-10850
▁shelt	-10851
▁shift	-10852
▁shine	-10853
▁shish	-10854
▁shone	-10855
▁shyly	-10856
▁sitar	-10857
▁snack	-10858
▁snare	-10859
▁sniff	-10860
▁sourp	-10861
▁spice	-10862
▁spied	-10863
▁spilt	-10864
▁spots	-10865
▁stain	-10866
▁stake	-10867
▁stool	-10868
▁stunt	-10869
▁swind	-10870
▁syria	-10871
▁tease	-10872
▁tenor	-10873
▁tense	-10874
▁tensp	-10875
▁tepid	-10876
▁texts	-10877
▁theyd	-10878
▁thorn	-10879
▁tidal	-10880
▁titic	-10881
▁tourn	-10882
▁tricy	-10883
▁turks	-10884
▁tutor	-10885
▁tying	-10886
▁unden	-10887
▁undid	-10888
▁unimp	-10889
▁unple	-10890
▁unpro	-10891
▁waits	-10892
▁warra	-10893
▁wella	-10894
▁welts	-10895
▁werew	-10896
▁whatd	-10897
▁whine	-10898
▁widen	-10899
nob	-10900
burn	-10901
osis	-10902
ryos	-10903
sery	-10904
▁bod	-10905
▁fug	-10906
▁keb	-10907
▁kos	-10908
▁lag	-10909
▁sms	-10910
actoe	-10911
aging	-10912
antal	-10913
intet	-10914
osion	-10915
pitor	-10916
rosse	-10917
urnal	-10918
urned	-10919
▁bled	-10920
▁bulb	-10921
▁cogn	-10922
▁dame	-10923
▁embr	-10924
▁flak	-10925
▁keen	-10926
▁leap	-10927
▁newb	-10928
▁pars	-10929
▁pitt	-10930
▁riot	-10931
▁tame	-10932
▁twit	-10933
aiting	-10934
cuador	-10935
ppings	-10936
stream	-10937
urning	-10938
▁arist	-10939
▁blush	-10940
▁brake	-10941
▁drift	-10942
▁exgir	-10943
▁flaky	-10944
▁kebab	-10945
▁lique	-10946
▁prick	-10947
▁rehab	-10948
▁swing	-10949
▁volga	-10950
▁width	-10951
▁withd	-10952
▁worka	-10953
▁yushu	-10954
▁zilch	-10955
adpoles	-10956
ainting	-10957
akistan	-10958
ardvark	-10959
arkable	-10960
ategory	-10961
ativity	-10962
avation	-10963
bitable	-10964
blooded	-10965
brained	-10966
chester	-10967
cutters	-10968
eavored	-10969
enhagen	-10970
ensable	-10971
entions	-10972
entious	-10973
erative	-10974
ffodils	-10975
gonally	-10976
granate	-10977
growing	-10978
hibians	-10979
ievably	-10980
ificate	-10981
igrants	-10982
ilation	-10983
illight	-10984
imistic	-10985
isation	-10986
isphere	-10987
jective	-10988
largest	-10989
licants	-10990
lighter	-10991
lorable	-10992
oglyphs	-10993
olished	-10994
orrhage	-10995
ounding	-10996
ounting	-10997
protein	-10998
putable	-10999
shk	-11000
avel	-11001
cies	-11002
gets	-11003
hies	-11004
horn	-11005
issy	-11006
lict	-11007
milk	-11008
omed	-11009
upon	-11010
wide	-11011
▁ads	-11012
black	-11013
erris	-11014
ggets	-11015
ifies	-11016
issue	-11017
shkov	-11018
▁aced	-11019
▁adul	-11020
▁gest	-11021
▁grat	-11022
▁lact	-11023
▁owed	-11024
▁pitc	-11025
▁poke	-11026
▁pose	-11027
▁quiz	-11028
▁recy	-11029
▁scan	-11030
▁scap	-11031
▁tict	-11032
▁tide	-11033
crimin	-11034
ipedia	-11035
shkova	-11036
▁arith	-11037
▁belch	-11038
▁buyer	-11039
▁cages	-11040
▁chief	-11041
▁dough	-11042
▁elbow	-11043
▁enorm	-11044
▁flyer	-11045
▁frail	-11046
▁navel	-11047
▁ropes	-11048
▁sissy	-11049
▁tread	-11050
▁trial	-11051
▁unfit	-11052
▁unnot	-11053
raction	-11054
ramento	-11055
reading	-11056
ressers	-11057
sessive	-11058
station	-11059
thlehem	-11060
ualties	-11061
uffling	-11062
ventful	-11063
working	-11064
▁abated	-11065
▁adjust	-11066
▁advers	-11067
▁alibis	-11068
▁allgir	-11069
▁allies	-11070
▁alphab	-11071
▁amends	-11072
▁annual	-11073
▁arabia	-11074
▁arable	-11075
▁attorn	-11076
▁avocad	-11077
▁backfl	-11078
▁barnac	-11079
▁basque	-11080
▁batons	-11081
▁behalf	-11082
▁berlin	-11083
▁bikini	-11084
▁bleach	-11085
▁booked	-11086
▁botany	-11087
▁boyish	-11088
▁bubble	-11089
▁buries	-11090
▁callus	-11091
▁cardin	-11092
▁caring	-11093
▁carver	-11094
▁catnip	-11095
▁cauter	-11096
▁ceased	-11097
▁cellar	-11098
▁cheats	-11099
ogw	-11100
abad	-11101
ancy	-11102
gloo	-11103
nsic	-11104
plug	-11105
rich	-11106
tail	-11107
▁dip	-11108
▁wik	-11109
abase	-11110
lades	-11111
zzled	-11112
▁dike	-11113
▁dire	-11114
▁flab	-11115
▁funn	-11116
▁glac	-11117
▁hogw	-11118
▁lave	-11119
▁legg	-11120
▁vult	-11121
itives	-11122
ladesh	-11123
terbox	-11124
uggler	-11125
ulture	-11126
▁asian	-11127
▁disse	-11128
▁drill	-11129
▁grain	-11130
▁handy	-11131
▁igloo	-11132
▁misqu	-11133
▁nagoy	-11134
▁nutty	-11135
▁overp	-11136
▁shove	-11137
▁sized	-11138
acuated	-11139
ctuates	-11140
idently	-11141
istible	-11142
usbands	-11143
▁braver	-11144
▁cabled	-11145
▁camper	-11146
▁career	-11147
▁chicks	-11148
▁chives	-11149
▁cliche	-11150
▁cognac	-11151
▁colada	-11152
▁colomb	-11153
▁cometh	-11154
▁comply	-11155
▁congen	-11156
▁copies	-11157
▁corpse	-11158
▁costly	-11159
▁covers	-11160
▁craves	-11161
▁crisis	-11162
▁cultiv	-11163
▁curric	-11164
▁dances	-11165
▁danube	-11166
▁dawned	-11167
▁digest	-11168
▁dipped	-11169
▁disloc	-11170
▁diving	-11171
▁donets	-11172
▁donkey	-11173
▁dormer	-11174
▁dormit	-11175
▁downed	-11176
▁downto	-11177
▁dreamt	-11178
▁durian	-11179
▁eagles	-11180
▁enamel	-11181
▁entert	-11182
▁examin	-11183
▁excurs	-11184
▁exhale	-11185
▁faking	-11186
▁farfet	-11187
▁faults	-11188
▁firefo	-11189
▁flashy	-11190
▁fluids	-11191
▁fogged	-11192
▁former	-11193
▁freely	-11194
▁futile	-11195
▁geneva	-11196
▁graves	-11197
▁greasy	-11198
▁greeks	-11199
mann	-11200
oken	-11201
resp	-11202
▁mrs	-11203
ckles	-11204
gance	-11205
vance	-11206
▁awak	-11207
▁clip	-11208
▁edge	-11209
▁honk	-11210
▁snea	-11211
▁wrig	-11212
haired	-11213
ruptly	-11214
uckled	-11215
▁ashes	-11216
▁fines	-11217
▁marie	-11218
▁mules	-11219
▁noses	-11220
▁poles	-11221
▁route	-11222
▁shock	-11223
▁teasp	-11224
▁tiles	-11225
▁towed	-11226
▁yolks	-11227
ographs	-11228
▁carved	-11229
▁dayold	-11230
▁famine	-11231
▁grated	-11232
▁hairst	-11233
▁halfdo	-11234
▁halved	-11235
▁hanger	-11236
▁hating	-11237
▁hatred	-11238
▁hearse	-11239
▁heartw	-11240
▁heater	-11241
▁herbiv	-11242
▁herded	-11243
▁heroes	-11244
▁hitman	-11245
▁househ	-11246
▁hyster	-11247
▁impels	-11248
▁impose	-11249
▁incess	-11250
▁indoor	-11251
▁ineffe	-11252
▁inning	-11253
▁inquis	-11254
▁integr	-11255
▁issues	-11256
▁jingle	-11257
▁johnny	-11258
▁judged	-11259
▁jurors	-11260
▁kabuki	-11261
▁leaped	-11262
▁liable	-11263
▁lifesp	-11264
▁limits	-11265
▁listed	-11266
▁lizard	-11267
▁loaned	-11268
▁locals	-11269
▁losers	-11270
▁madman	-11271
▁magnet	-11272
▁maniac	-11273
▁marshm	-11274
▁mayors	-11275
▁mercha	-11276
▁milder	-11277
▁mildly	-11278
▁minors	-11279
▁mocked	-11280
▁modest	-11281
▁monaco	-11282
▁monoch	-11283
▁morbid	-11284
▁mortis	-11285
▁motion	-11286
▁muffin	-11287
▁muscle	-11288
▁mustnt	-11289
▁narita	-11290
▁neater	-11291
▁nicest	-11292
▁noisec	-11293
▁notary	-11294
▁obamas	-11295
▁ocelot	-11296
▁omelet	-11297
▁opener	-11298
▁overly	-11299
tied	-11300
ulum	-11301
umbo	-11302
umer	-11303
▁bug	-11304
▁gem	-11305
▁owl	-11306
▁ros	-11307
berra	-11308
isely	-11309
japan	-11310
lance	-11311
rents	-11312
▁ajar	-11313
▁alum	-11314
▁bail	-11315
▁daft	-11316
▁hint	-11317
▁maps	-11318
▁robe	-11319
▁scum	-11320
▁sigh	-11321
▁soda	-11322
▁unoc	-11323
▁vanc	-11324
awning	-11325
idance	-11326
itance	-11327
ndered	-11328
oscope	-11329
▁broil	-11330
▁cliff	-11331
▁dumbo	-11332
▁meets	-11333
▁seoul	-11334
▁sizes	-11335
▁skull	-11336
▁spark	-11337
▁tents	-11338
▁thigh	-11339
cusable	-11340
endence	-11341
▁dilemm	-11342
▁dusted	-11343
▁eyelid	-11344
▁gemini	-11345
▁groans	-11346
▁isosce	-11347
▁nutmeg	-11348
▁overre	-11349
▁paraly	-11350
▁piccol	-11351
▁planes	-11352
▁poland	-11353
▁polish	-11354
▁poorer	-11355
▁popeye	-11356
▁porter	-11357
▁preced	-11358
▁prints	-11359
▁prizes	-11360
▁rabies	-11361
▁reckon	-11362
▁recoll	-11363
▁refund	-11364
▁region	-11365
▁rental	-11366
▁retail	-11367
▁revolt	-11368
▁ribbon	-11369
▁ripped	-11370
▁rubles	-11371
▁rulers	-11372
▁saddle	-11373
▁scoops	-11374
▁screen	-11375
▁seized	-11376
▁select	-11377
▁serial	-11378
▁shadow	-11379
▁sheeps	-11380
▁shells	-11381
▁shoved	-11382
▁shrank	-11383
▁shrill	-11384
▁singly	-11385
▁sitter	-11386
▁snowst	-11387
▁soared	-11388
▁somber	-11389
▁soviet	-11390
▁spaces	-11391
▁spells	-11392
▁spoils	-11393
▁squeak	-11394
▁storms	-11395
▁strain	-11396
▁stream	-11397
▁string	-11398
▁strung	-11399
ffle	-11400
girl	-11401
gues	-11402
phys	-11403
rane	-11404
▁axe	-11405
▁huh	-11406
atted	-11407
▁aids	-11408
▁cham	-11409
▁mini	-11410
▁oint	-11411
▁plug	-11412
▁rubb	-11413
▁serg	-11414
▁sham	-11415
▁slam	-11416
▁slip	-11417
▁whip	-11418
itcake	-11419
ranean	-11420
taking	-11421
wister	-11422
worked	-11423
▁elite	-11424
▁haird	-11425
▁hairs	-11426
▁prank	-11427
▁range	-11428
▁sworn	-11429
▁uncer	-11430
▁wakes	-11431
atician	-11432
brushes	-11433
nerable	-11434
▁approx	-11435
▁chamom	-11436
▁clamps	-11437
▁ending	-11438
▁fertil	-11439
▁herons	-11440
▁hikers	-11441
▁kindly	-11442
▁misspe	-11443
▁pigeon	-11444
▁prague	-11445
▁python	-11446
▁rebels	-11447
▁stuffs	-11448
▁superv	-11449
▁swears	-11450
▁sweatp	-11451
▁syrias	-11452
▁tables	-11453
▁tablet	-11454
▁tended	-11455
▁thirti	-11456
▁thresh	-11457
▁tigers	-11458
▁tragic	-11459
▁tricky	-11460
▁tripod	-11461
▁umpire	-11462
▁underl	-11463
▁underw	-11464
▁unforg	-11465
▁unhurt	-11466
▁untidy	-11467
▁untrue	-11468
▁unwant	-11469
▁uptake	-11470
▁usable	-11471
▁violet	-11472
▁visits	-11473
▁voting	-11474
▁waffle	-11475
▁warsaw	-11476
▁washer	-11477
▁whisky	-11478
▁wrongs	-11479
▁yachts	-11480
▁yearly	-11481
anceling	-11482
andmouth	-11483
arrative	-11484
atically	-11485
ationism	-11486
atisfact	-11487
centered	-11488
ckingham	-11489
dropping	-11490
erantist	-11491
erpillar	-11492
fectures	-11493
heastern	-11494
ialistic	-11495
ilingual	-11496
iminated	-11497
iodegrad	-11498
ittarius	-11499
avic	-11500
ords	-11501
pric	-11502
prus	-11503
▁hub	-11504
balls	-11505
egoat	-11506
irmed	-11507
orial	-11508
wurst	-11509
▁acts	-11510
▁arts	-11511
▁holy	-11512
▁obno	-11513
▁pawn	-11514
▁shru	-11515
▁uygh	-11516
▁arabs	-11517
▁bared	-11518
▁daddy	-11519
▁forts	-11520
▁libya	-11521
▁milky	-11522
▁minds	-11523
▁nonme	-11524
▁pyram	-11525
▁teams	-11526
▁warts	-11527
▁wrung	-11528
blading	-11529
portion	-11530
pricorn	-11531
▁allied	-11532
▁biased	-11533
▁breeds	-11534
▁cyprus	-11535
▁dioxin	-11536
▁divine	-11537
▁evenly	-11538
▁glared	-11539
▁lidyas	-11540
▁mutton	-11541
▁slavic	-11542
▁specul	-11543
▁uyghur	-11544
▁walker	-11545
▁walkin	-11546
japanese	-11547
mination	-11548
munition	-11549
ountered	-11550
pparents	-11551
rinkable	-11552
spective	-11553
sylvania	-11554
urements	-11555
▁abbrevi	-11556
▁admiral	-11557
▁admirer	-11558
▁admires	-11559
▁allergy	-11560
▁amateur	-11561
▁atheism	-11562
▁athlete	-11563
▁authent	-11564
▁balance	-11565
▁bandage	-11566
▁barrier	-11567
▁beaches	-11568
▁beating	-11569
▁bending	-11570
▁beneath	-11571
▁berries	-11572
▁biograp	-11573
▁blaming	-11574
▁blessed	-11575
▁blogger	-11576
▁bloomed	-11577
▁boasted	-11578
▁bonemar	-11579
▁bonfire	-11580
▁borrows	-11581
▁bostons	-11582
▁bouquet	-11583
▁branded	-11584
▁breaker	-11585
▁brushes	-11586
▁buckets	-11587
▁cannons	-11588
▁carpets	-11589
▁chasing	-11590
▁cheerle	-11591
▁circles	-11592
▁cocaine	-11593
▁coconut	-11594
▁coldest	-11595
▁compose	-11596
▁connect	-11597
▁contest	-11598
▁copying	-11599
six	-11600
coni	-11601
lied	-11602
baric	-11603
notes	-11604
▁filt	-11605
▁halt	-11606
▁hier	-11607
▁obse	-11608
▁tone	-11609
▁vein	-11610
▁vest	-11611
folded	-11612
ggered	-11613
izzard	-11614
lisher	-11615
rating	-11616
▁aloud	-11617
▁dense	-11618
▁dimin	-11619
▁embro	-11620
▁entry	-11621
▁frock	-11622
▁piled	-11623
▁rabbi	-11624
▁royal	-11625
licking	-11626
▁abuses	-11627
▁angkor	-11628
▁assure	-11629
▁extrem	-11630
▁formal	-11631
▁gloomy	-11632
▁headon	-11633
▁hotair	-11634
▁kisser	-11635
▁lovers	-11636
▁molars	-11637
▁prompt	-11638
▁pursue	-11639
▁relate	-11640
▁shaken	-11641
▁shaves	-11642
▁snored	-11643
▁socket	-11644
▁stoves	-11645
▁tatami	-11646
▁yogurt	-11647
▁alltime	-11648
▁chopped	-11649
▁classic	-11650
▁constit	-11651
▁corners	-11652
▁costing	-11653
▁crawled	-11654
▁cricket	-11655
▁croatia	-11656
▁crossle	-11657
▁crowbar	-11658
▁cumbers	-11659
▁cyclist	-11660
▁daytime	-11661
▁default	-11662
▁departs	-11663
▁deposit	-11664
▁designs	-11665
▁despite	-11666
▁dignity	-11667
▁dischar	-11668
▁dispens	-11669
▁distrib	-11670
▁donetsk	-11671
▁doordie	-11672
▁doubled	-11673
▁doubted	-11674
▁dripped	-11675
▁drought	-11676
▁drummer	-11677
▁earning	-11678
▁emperor	-11679
▁emptied	-11680
▁encores	-11681
▁ensures	-11682
▁entails	-11683
▁eternal	-11684
▁exhaled	-11685
▁exhilar	-11686
▁exposed	-11687
▁exwives	-11688
▁eyelids	-11689
▁facilit	-11690
▁fairies	-11691
▁familys	-11692
▁farming	-11693
▁fencing	-11694
▁fighter	-11695
▁finnish	-11696
▁fission	-11697
▁flights	-11698
▁floated	-11699
ymn	-11700
dled	-11701
scar	-11702
aurus	-11703
axons	-11704
backs	-11705
incts	-11706
oenix	-11707
▁cord	-11708
▁cyan	-11709
▁hymn	-11710
▁stem	-11711
▁zone	-11712
atical	-11713
mbrero	-11714
orical	-11715
▁coord	-11716
▁decea	-11717
▁feeds	-11718
▁grape	-11719
▁mooed	-11720
▁oscar	-11721
▁seals	-11722
▁slowd	-11723
▁steel	-11724
▁uncon	-11725
▁vines	-11726
autions	-11727
loaders	-11728
patitis	-11729
▁bungee	-11730
▁collar	-11731
▁dealer	-11732
▁drunks	-11733
▁eggshe	-11734
▁gladly	-11735
▁handcu	-11736
▁morals	-11737
▁reform	-11738
▁riddle	-11739
▁server	-11740
▁taurus	-11741
▁thrill	-11742
▁toured	-11743
tempered	-11744
▁condone	-11745
▁devices	-11746
▁florida	-11747
▁founded	-11748
▁fresher	-11749
▁funding	-11750
▁funnier	-11751
▁galileo	-11752
▁gallery	-11753
▁gallows	-11754
▁gardens	-11755
▁genoese	-11756
▁giraffe	-11757
▁glowing	-11758
▁grammar	-11759
▁grandad	-11760
▁grasped	-11761
▁greater	-11762
▁greener	-11763
▁grenade	-11764
▁grinned	-11765
▁grocery	-11766
▁grownup	-11767
▁guessed	-11768
▁gunshot	-11769
▁hackers	-11770
▁hallway	-11771
▁handled	-11772
▁handles	-11773
▁hatched	-11774
▁heaters	-11775
▁helmets	-11776
▁herring	-11777
▁hideand	-11778
▁holland	-11779
▁howling	-11780
▁hydrant	-11781
▁impulse	-11782
▁indepth	-11783
▁indians	-11784
▁instant	-11785
▁interns	-11786
▁intrude	-11787
▁invalid	-11788
▁joining	-11789
▁journey	-11790
▁justify	-11791
▁karaoke	-11792
▁killers	-11793
▁kindest	-11794
▁lacking	-11795
▁leaders	-11796
▁legally	-11797
▁lighten	-11798
▁lightly	-11799
deal	-11800
iety	-11801
achio	-11802
dling	-11803
emned	-11804
▁emus	-11805
▁junk	-11806
▁kyiv	-11807
▁pots	-11808
icrous	-11809
▁ablaz	-11810
▁bonus	-11811
▁booze	-11812
▁crook	-11813
▁desks	-11814
▁dived	-11815
▁draws	-11816
▁fangs	-11817
▁flunk	-11818
▁flush	-11819
▁frost	-11820
▁goats	-11821
▁golds	-11822
▁knead	-11823
▁knots	-11824
▁necks	-11825
▁quilt	-11826
▁rabat	-11827
▁sucks	-11828
▁yemen	-11829
merized	-11830
▁ablaze	-11831
▁adding	-11832
▁autobi	-11833
▁checks	-11834
▁deaths	-11835
▁encore	-11836
▁groggy	-11837
▁ordeal	-11838
▁platyp	-11839
▁ranked	-11840
▁safest	-11841
▁stocks	-11842
▁throne	-11843
▁worthy	-11844
friendly	-11845
udicrous	-11846
▁accepts	-11847
▁broiled	-11848
▁clicked	-11849
▁clipped	-11850
▁corresp	-11851
▁crowing	-11852
▁deadend	-11853
▁liqueur	-11854
▁liquids	-11855
▁locally	-11856
▁lovable	-11857
▁manages	-11858
▁marched	-11859
▁matured	-11860
▁meadows	-11861
▁measles	-11862
▁mediter	-11863
▁memento	-11864
▁milkman	-11865
▁minimal	-11866
▁minimum	-11867
▁mispron	-11868
▁mittens	-11869
▁monopol	-11870
▁motives	-11871
▁muffins	-11872
▁mumbles	-11873
▁mustard	-11874
▁natives	-11875
▁needles	-11876
▁neptune	-11877
▁newborn	-11878
▁notices	-11879
▁observe	-11880
▁okinawa	-11881
▁omitted	-11882
▁orleans	-11883
▁orphans	-11884
▁outcast	-11885
▁overall	-11886
▁panhand	-11887
▁paprika	-11888
▁passing	-11889
▁persian	-11890
▁pharmac	-11891
▁phoenix	-11892
▁phoning	-11893
▁pioneer	-11894
▁pleases	-11895
▁pollute	-11896
▁postman	-11897
▁pouring	-11898
▁praised	-11899
mint	-11900
neck	-11901
▁cze	-11902
aleas	-11903
atoid	-11904
▁fats	-11905
▁info	-11906
▁jeep	-11907
▁rhet	-11908
▁yale	-11909
imeter	-11910
ington	-11911
rences	-11912
rician	-11913
turned	-11914
▁broth	-11915
▁burps	-11916
▁chalk	-11917
▁clerk	-11918
▁clung	-11919
▁czech	-11920
▁ditch	-11921
▁drown	-11922
▁indes	-11923
▁indis	-11924
▁irres	-11925
▁manga	-11926
▁trait	-11927
▁tribe	-11928
▁trips	-11929
▁vneck	-11930
inarian	-11931
notized	-11932
▁armies	-11933
▁beaver	-11934
▁burger	-11935
▁demons	-11936
▁gandhi	-11937
▁heroin	-11938
▁holder	-11939
▁miscon	-11940
▁prohib	-11941
▁tomboy	-11942
▁wading	-11943
lessness	-11944
▁arizona	-11945
▁azaleas	-11946
▁bankers	-11947
▁burying	-11948
▁curling	-11949
▁dancers	-11950
▁discrep	-11951
▁failing	-11952
▁hailing	-11953
▁horsesh	-11954
▁kimonos	-11955
▁mailing	-11956
▁paramed	-11957
▁postage	-11958
▁prescri	-11959
▁pretzel	-11960
▁prevail	-11961
▁pricing	-11962
▁pricked	-11963
▁princes	-11964
▁puzzles	-11965
▁quarter	-11966
▁quieter	-11967
▁radiant	-11968
▁radical	-11969
▁raising	-11970
▁raisins	-11971
▁reaches	-11972
▁reacted	-11973
▁readers	-11974
▁reality	-11975
▁reapply	-11976
▁rebuild	-11977
▁rebuilt	-11978
▁regards	-11979
▁regular	-11980
▁reigned	-11981
▁remodel	-11982
▁remorse	-11983
▁renting	-11984
▁resolve	-11985
▁restore	-11986
▁returns	-11987
▁revolve	-11988
▁rockefe	-11989
▁rockets	-11990
▁romance	-11991
▁romania	-11992
▁roughly	-11993
▁rowboat	-11994
▁rubbish	-11995
▁ruining	-11996
▁rumored	-11997
▁rustled	-11998
▁sadness	-11999
▁iod	-12000
▁syd	-12001
▁dads	-12002
▁fade	-12003
▁fifa	-12004
▁inex	-12005
▁undo	-12006
ramble	-12007
stroke	-12008
▁abuse	-12009
▁blade	-12010
▁cells	-12011
▁excon	-12012
▁fuses	-12013
▁genes	-12014
▁iraqs	-12015
▁laces	-12016
▁maori	-12017
▁misin	-12018
▁races	-12019
▁rakes	-12020
▁saint	-12021
▁scoff	-12022
▁smith	-12023
▁waxed	-12024
pirited	-12025
▁bugged	-12026
▁chickp	-12027
▁ferris	-12028
▁fuming	-12029
▁iodine	-12030
▁issued	-12031
▁misled	-12032
▁oppose	-12033
▁parade	-12034
▁sydney	-12035
etyseven	-12036
ifferent	-12037
▁arrests	-12038
▁behaves	-12039
▁blinded	-12040
▁busiest	-12041
▁desired	-12042
▁drummed	-12043
▁earache	-12044
▁emerged	-12045
▁fooling	-12046
▁germans	-12047
▁harshly	-12048
▁knocker	-12049
▁purring	-12050
▁refrain	-12051
▁scalped	-12052
▁scarier	-12053
▁scented	-12054
▁scoffed	-12055
▁scorpio	-12056
▁scripts	-12057
▁serving	-12058
▁session	-12059
▁setback	-12060
▁seventy	-12061
▁sharing	-12062
▁sheared	-12063
▁shelves	-12064
▁shipped	-12065
▁shrilly	-12066
▁shuttle	-12067
▁signals	-12068
▁sixpack	-12069
▁skidded	-12070
▁skilled	-12071
▁sleeper	-12072
▁sliding	-12073
▁smartly	-12074
▁soaking	-12075
▁sobbing	-12076
▁spirits	-12077
▁spouses	-12078
▁spreads	-12079
▁sprouts	-12080
▁stables	-12081
▁starsha	-12082
▁stating	-12083
▁sticker	-12084
▁sucking	-12085
▁sulking	-12086
▁symbols	-12087
▁systems	-12088
▁takeoff	-12089
▁talents	-12090
▁tastier	-12091
▁tasting	-12092
▁tattoos	-12093
▁teenage	-12094
▁testify	-12095
▁therapy	-12096
▁thicker	-12097
▁thimble	-12098
▁toddler	-12099
arma	-12100
loid	-12101
loids	-12102
ounce	-12103
▁gear	-12104
▁posh	-12105
▁reef	-12106
▁reno	-12107
ivable	-12108
ounces	-12109
▁antif	-12110
▁beatn	-12111
▁cigar	-12112
▁dealt	-12113
▁fluff	-12114
▁grabs	-12115
▁grant	-12116
▁hangs	-12117
▁karma	-12118
▁nonen	-12119
▁popup	-12120
▁setup	-12121
▁swarm	-12122
▁toyed	-12123
▁volap	-12124
chinese	-12125
▁afghan	-12126
▁belief	-12127
▁bloody	-12128
▁golfer	-12129
▁melons	-12130
▁pegged	-12131
▁portra	-12132
▁relief	-12133
▁sharks	-12134
▁sienna	-12135
▁starry	-12136
▁superb	-12137
▁topics	-12138
▁beatnik	-12139
▁bottled	-12140
▁brushed	-12141
▁cowboys	-12142
▁deserts	-12143
▁hogwash	-12144
▁locking	-12145
▁mussels	-12146
▁necktie	-12147
▁parsley	-12148
▁pursued	-12149
▁records	-12150
▁recount	-12151
▁rounded	-12152
▁suffers	-12153
▁tempted	-12154
▁toolbox	-12155
▁tractor	-12156
▁tragedy	-12157
▁transit	-12158
▁tripled	-12159
▁tripoli	-12160
▁trouser	-12161
▁trucker	-12162
▁turnips	-12163
▁twister	-12164
▁unident	-12165
▁unstopp	-12166
▁untying	-12167
▁violate	-12168
▁visible	-12169
▁visibly	-12170
▁volcano	-12171
▁wagered	-12172
▁wagging	-12173
▁waiters	-12174
▁walkers	-12175
▁weakens	-12176
▁weighed	-12177
▁weights	-12178
▁widower	-12179
▁wiggled	-12180
▁witches	-12181
▁workman	-12182
▁worries	-12183
▁yokoham	-12184
glosaxons	-12185
hargeable	-12186
iatrician	-12187
ification	-12188
iligently	-12189
ilitation	-12190
olescents	-12191
▁aardvark	-12192
▁absorbed	-12193
▁accusing	-12194
▁acquired	-12195
▁affirmed	-12196
▁airports	-12197
▁alliance	-12198
▁americas	-12199
bulb	-12200
play	-12201
zzed	-12202
▁err	-12203
▁eru	-12204
affed	-12205
▁judo	-12206
▁zeus	-12207
iginal	-12208
minent	-12209
▁adapt	-12210
▁alley	-12211
▁balds	-12212
▁bucha	-12213
▁cabin	-12214
▁cargo	-12215
▁erase	-12216
▁fleas	-12217
▁getgo	-12218
▁lobby	-12219
▁peels	-12220
▁rural	-12221
▁slope	-12222
▁slums	-12223
▁stork	-12224
▁alarms	-12225
▁autism	-12226
▁buzzed	-12227
▁caesar	-12228
▁campus	-12229
▁cranes	-12230
▁crowds	-12231
▁folded	-12232
▁inhale	-12233
▁itches	-12234
▁judges	-12235
▁panels	-12236
▁santas	-12237
▁scraps	-12238
▁smoker	-12239
▁towels	-12240
oundings	-12241
▁crowned	-12242
▁display	-12243
▁existed	-12244
▁federal	-12245
▁filming	-12246
▁hissing	-12247
▁hunters	-12248
▁lending	-12249
▁sharpen	-12250
▁stuffed	-12251
▁thinner	-12252
▁trainee	-12253
▁amounted	-12254
▁anaconda	-12255
▁ancestor	-12256
▁antiitch	-12257
▁antiques	-12258
▁approves	-12259
▁archives	-12260
▁articles	-12261
▁assemble	-12262
▁assisted	-12263
▁atheists	-12264
▁attained	-12265
▁attitude	-12266
▁auckland	-12267
▁awakened	-12268
▁baldness	-12269
▁banished	-12270
▁banister	-12271
▁barbaric	-12272
▁barbeque	-12273
▁bathrobe	-12274
▁batterys	-12275
▁besieged	-12276
▁blisters	-12277
▁blizzard	-12278
▁blocking	-12279
▁borealis	-12280
▁breather	-12281
▁browsers	-12282
▁bullying	-12283
▁burglars	-12284
▁butchers	-12285
▁calculus	-12286
▁campfire	-12287
▁canberra	-12288
▁capacity	-12289
▁carolina	-12290
▁carousel	-12291
▁catching	-12292
▁category	-12293
▁cellmate	-12294
▁chairing	-12295
▁charging	-12296
▁choosing	-12297
▁citizens	-12298
▁clapping	-12299
holm	-12300
metic	-12301
putes	-12302
strue	-12303
▁romp	-12304
deness	-12305
imples	-12306
ioneer	-12307
ipline	-12308
▁aided	-12309
▁alleg	-12310
▁beaks	-12311
▁cache	-12312
▁lifts	-12313
▁obeys	-12314
▁shrew	-12315
lerated	-12316
▁amazon	-12317
▁duties	-12318
▁emphas	-12319
▁gently	-12320
▁layout	-12321
▁miller	-12322
▁morgue	-12323
▁oilier	-12324
▁placed	-12325
▁selfie	-12326
▁spains	-12327
▁tapped	-12328
ifically	-12329
olarship	-12330
▁appeals	-12331
▁denying	-12332
▁dimples	-12333
▁drunken	-12334
▁emotion	-12335
▁figures	-12336
▁foresee	-12337
▁gargled	-12338
▁majored	-12339
▁muscles	-12340
▁stubbed	-12341
▁tourism	-12342
▁venture	-12343
consuming	-12344
▁canaries	-12345
▁cleaners	-12346
▁clenched	-12347
▁climates	-12348
▁climbers	-12349
▁clumsier	-12350
▁collects	-12351
▁colombia	-12352
▁colonize	-12353
▁colorful	-12354
▁commutes	-12355
▁companys	-12356
▁conceive	-12357
▁conducts	-12358
▁consecut	-12359
▁constant	-12360
▁consumer	-12361
▁controls	-12362
▁copywrit	-12363
▁corporal	-12364
▁corridor	-12365
▁costumes	-12366
▁countrys	-12367
▁crawling	-12368
▁creating	-12369
▁crumbles	-12370
▁cupcakes	-12371
▁darkened	-12372
▁deadbeat	-12373
▁defended	-12374
▁deserved	-12375
▁destined	-12376
▁destroys	-12377
▁detained	-12378
▁diameter	-12379
▁dictates	-12380
▁directed	-12381
▁director	-12382
▁disabled	-12383
▁disclose	-12384
▁discover	-12385
▁disputes	-12386
▁domestic	-12387
▁download	-12388
▁drawings	-12389
▁dressing	-12390
▁drifting	-12391
▁dripping	-12392
▁edgewise	-12393
▁egyptian	-12394
▁eitheror	-12395
▁elements	-12396
▁eleventh	-12397
▁embraced	-12398
▁employer	-12399
gthy	-12400
risy	-12401
cases	-12402
▁bung	-12403
▁dodo	-12404
▁duet	-12405
▁jury	-12406
▁nasa	-12407
▁onto	-12408
▁ramb	-12409
namese	-12410
▁beets	-12411
▁deeds	-12412
▁exits	-12413
▁films	-12414
▁gramm	-12415
▁hilar	-12416
▁polka	-12417
▁tuned	-12418
▁argued	-12419
▁bombed	-12420
▁devoid	-12421
▁devout	-12422
▁hamlet	-12423
▁mashed	-12424
▁moaned	-12425
▁overdo	-12426
▁richer	-12427
▁rotted	-12428
▁rowing	-12429
▁shakes	-12430
▁truant	-12431
▁carpool	-12432
▁combine	-12433
▁cowards	-12434
▁hostage	-12435
▁lengthy	-12436
▁profits	-12437
▁rotates	-12438
▁rotting	-12439
▁sandbox	-12440
▁savings	-12441
▁spanked	-12442
▁striped	-12443
▁tighten	-12444
automated	-12445
▁bungalow	-12446
▁checking	-12447
▁collided	-12448
▁colorado	-12449
▁contents	-12450
▁covering	-12451
▁cowardly	-12452
▁cultural	-12453
▁delivers	-12454
▁detected	-12455
▁dutyfree	-12456
▁englishr	-12457
▁englishw	-12458
▁enormous	-12459
▁escaping	-12460
▁everyday	-12461
▁exceeded	-12462
▁eyeliner	-12463
▁failures	-12464
▁famished	-12465
▁fastened	-12466
▁feverish	-12467
▁filtered	-12468
▁findings	-12469
▁flabberg	-12470
▁flirting	-12471
▁floating	-12472
▁foggiest	-12473
▁fondness	-12474
▁forceful	-12475
▁forehead	-12476
▁forensic	-12477
▁fortress	-12478
▁frazzled	-12479
▁freaking	-12480
▁freckles	-12481
▁frequent	-12482
▁frescoes	-12483
▁freshmen	-12484
▁friction	-12485
▁galaxies	-12486
▁gangster	-12487
▁garments	-12488
▁gestures	-12489
▁glaciers	-12490
▁glaucoma	-12491
▁goodbyes	-12492
▁governed	-12493
▁gracious	-12494
▁graphics	-12495
▁greenish	-12496
▁grounded	-12497
▁growling	-12498
▁grumbled	-12499
▁darw	-12500
▁geek	-12501
famous	-12502
ippine	-12503
umnist	-12504
▁aisle	-12505
▁baker	-12506
▁crops	-12507
▁cubed	-12508
▁donor	-12509
▁eaves	-12510
▁flysw	-12511
▁gazed	-12512
▁liter	-12513
▁nests	-12514
▁spray	-12515
▁unify	-12516
factory	-12517
itorium	-12518
▁cereal	-12519
▁darwin	-12520
▁dipper	-12521
▁donate	-12522
▁funnel	-12523
▁mutate	-12524
▁putrid	-12525
▁ratted	-12526
▁screws	-12527
▁sprang	-12528
▁adviser	-12529
▁antenna	-12530
▁applies	-12531
▁decline	-12532
▁fogging	-12533
▁fridays	-12534
▁glutton	-12535
▁hungary	-12536
▁ladybug	-12537
▁lipitor	-12538
▁literal	-12539
▁magnets	-12540
▁pension	-12541
▁pottery	-12542
▁rattles	-12543
▁reunion	-12544
▁reverse	-12545
▁rocking	-12546
▁rooting	-12547
▁stepson	-12548
▁stormed	-12549
▁swedish	-12550
▁swerved	-12551
▁tenyear	-12552
▁tremble	-12553
▁warship	-12554
▁winners	-12555
▁worship	-12556
civilized	-12557
intendent	-12558
▁applause	-12559
▁battered	-12560
▁classify	-12561
▁clueless	-12562
▁fashions	-12563
▁gymnasts	-12564
▁handball	-12565
▁handling	-12566
▁hardware	-12567
▁heavenly	-12568
▁helsinki	-12569
▁henhouse	-12570
▁herbivor	-12571
▁heritage	-12572
▁heroines	-12573
▁hindered	-12574
▁hometown	-12575
▁horribly	-12576
▁horrific	-12577
▁humanity	-12578
▁ignorant	-12579
▁illusion	-12580
▁imagined	-12581
▁imitated	-12582
▁immature	-12583
▁inconven	-12584
▁informal	-12585
▁insomnia	-12586
▁juvenile	-12587
▁kitchens	-12588
▁kneeling	-12589
▁knighted	-12590
▁lacrosse	-12591
▁landlady	-12592
▁leftover	-12593
▁leggings	-12594
▁lifetime	-12595
▁lighting	-12596
▁lincolns	-12597
▁lingered	-12598
▁loosened	-12599
lift	-12600
▁cuba	-12601
▁ipod	-12602
▁rugs	-12603
▁suez	-12604
lifier	-12605
▁alder	-12606
▁gains	-12607
▁palms	-12608
▁plaza	-12609
▁pours	-12610
▁attrib	-12611
▁convey	-12612
▁flirts	-12613
▁frames	-12614
▁gothic	-12615
▁hickey	-12616
▁indisp	-12617
▁koalas	-12618
▁pitied	-12619
▁senior	-12620
▁snitch	-12621
▁tanker	-12622
▁teabag	-12623
▁tuxedo	-12624
▁uninha	-12625
▁widest	-12626
▁winked	-12627
▁affects	-12628
▁blender	-12629
▁britain	-12630
▁decades	-12631
▁decency	-12632
▁embryos	-12633
▁flooded	-12634
▁kittens	-12635
▁nodding	-12636
▁retreat	-12637
▁sneezes	-12638
amentally	-12639
uetwister	-12640
▁activity	-12641
▁asperger	-12642
▁diplomat	-12643
▁facility	-12644
▁firstaid	-12645
▁flossing	-12646
▁forklift	-12647
▁infected	-12648
▁maharash	-12649
▁makeover	-12650
▁marrying	-12651
▁marveled	-12652
▁massaged	-12653
▁matchbox	-12654
▁matching	-12655
▁merchant	-12656
▁monument	-12657
▁muttered	-12658
▁narrowly	-12659
▁nauseous	-12660
▁needless	-12661
▁nintendo	-12662
▁nobodyll	-12663
▁november	-12664
▁numbered	-12665
▁observed	-12666
▁obsessed	-12667
▁offguard	-12668
▁optimism	-12669
▁ordinary	-12670
▁organism	-12671
▁organize	-12672
▁oriental	-12673
▁outlived	-12674
▁outsider	-12675
▁overcast	-12676
▁overcomp	-12677
▁overdose	-12678
▁overhead	-12679
▁overpaid	-12680
▁overtime	-12681
▁painters	-12682
▁pakistan	-12683
▁pandemic	-12684
▁paraguay	-12685
▁parallel	-12686
▁parasite	-12687
▁partners	-12688
▁passions	-12689
▁pastries	-12690
▁perished	-12691
▁petition	-12692
▁plotting	-12693
▁plumbers	-12694
▁policies	-12695
▁polished	-12696
▁portions	-12697
▁precedes	-12698
▁predicts	-12699
ikal	-12700
ukio	-12701
▁odor	-12702
▁tidy	-12703
barrow	-12704
kindly	-12705
raints	-12706
▁funds	-12707
▁laura	-12708
▁molar	-12709
▁ulter	-12710
▁verbs	-12711
▁verge	-12712
▁yukio	-12713
lecting	-12714
onnaise	-12715
▁amoeba	-12716
▁arrows	-12717
▁baikal	-12718
▁bruise	-12719
▁budget	-12720
▁firing	-12721
▁horned	-12722
▁nozomi	-12723
▁olives	-12724
▁plague	-12725
▁prudes	-12726
▁sucker	-12727
▁tinted	-12728
▁verses	-12729
▁vienna	-12730
astrophe	-12731
portrait	-12732
stitious	-12733
▁ethical	-12734
▁gunfire	-12735
▁hammers	-12736
▁joggers	-12737
▁mirrors	-12738
▁nuggets	-12739
▁veteran	-12740
▁admiring	-12741
▁backpack	-12742
▁balloons	-12743
▁blessing	-12744
▁chatting	-12745
▁dissolve	-12746
▁earliest	-12747
▁guidance	-12748
▁halfdone	-12749
▁luxuries	-12750
▁meantime	-12751
▁neckties	-12752
▁pinpoint	-12753
▁pressing	-12754
▁presumed	-12755
▁produced	-12756
▁producer	-12757
▁projects	-12758
▁promoted	-12759
▁proposed	-12760
▁proverbs	-12761
▁provides	-12762
▁province	-12763
▁prussian	-12764
▁pumpkins	-12765
▁purposes	-12766
▁pyramids	-12767
▁quarrels	-12768
▁quitters	-12769
▁radiator	-12770
▁rainfore	-12771
▁rearview	-12772
▁receipts	-12773
▁receives	-12774
▁recorder	-12775
▁refusing	-12776
▁regional	-12777
▁relaxing	-12778
▁removing	-12779
▁repeated	-12780
▁resisted	-12781
▁respects	-12782
▁restored	-12783
▁reunited	-12784
▁reusable	-12785
▁revealed	-12786
▁revolted	-12787
▁roasting	-12788
▁rudeness	-12789
▁rushhour	-12790
▁salesmen	-12791
▁schoolte	-12792
▁seasoned	-12793
▁seawater	-12794
▁securely	-12795
▁selected	-12796
▁sequence	-12797
▁servants	-12798
▁settling	-12799
kok	-12800
anza	-12801
▁vcr	-12802
▁bugs	-12803
▁foul	-12804
▁jasm	-12805
▁lisp	-12806
▁yawn	-12807
pathic	-12808
▁beige	-12809
▁cease	-12810
▁claps	-12811
▁heaps	-12812
▁kabul	-12813
▁muggy	-12814
▁ramen	-12815
▁rusty	-12816
▁alpaca	-12817
▁ankara	-12818
▁canoed	-12819
▁ceases	-12820
▁coffin	-12821
▁decode	-12822
▁frying	-12823
▁kidnap	-12824
▁pantry	-12825
▁parrot	-12826
▁pebble	-12827
▁sailor	-12828
▁survey	-12829
▁syntax	-12830
▁bangkok	-12831
▁bruises	-12832
▁chaotic	-12833
▁degrade	-12834
▁exceeds	-12835
▁jasmine	-12836
▁kidneys	-12837
▁malaria	-12838
▁martial	-12839
▁mourned	-12840
▁mozarts	-12841
▁refuted	-12842
▁sailors	-12843
▁satisfy	-12844
▁scraped	-12845
▁senator	-12846
▁stretch	-12847
▁abruptly	-12848
▁bookworm	-12849
▁diabetic	-12850
▁dialects	-12851
▁journeys	-12852
▁meltdown	-12853
▁merciful	-12854
▁mouthing	-12855
▁overview	-12856
▁platform	-12857
▁romanias	-12858
▁severely	-12859
▁shameful	-12860
▁sharpest	-12861
▁shearing	-12862
▁shoehorn	-12863
▁shortcut	-12864
▁shortest	-12865
▁showtime	-12866
▁shrugged	-12867
▁sidewalk	-12868
▁silently	-12869
▁singular	-12870
▁sketched	-12871
▁sketches	-12872
▁skinning	-12873
▁slippers	-12874
▁smallest	-12875
▁smoothly	-12876
▁sneakers	-12877
▁snowfall	-12878
▁socrates	-12879
▁solitude	-12880
▁solstice	-12881
▁soninlaw	-12882
▁soybeans	-12883
▁spanking	-12884
▁speakers	-12885
▁speargun	-12886
▁speeding	-12887
▁spelling	-12888
▁spinning	-12889
▁spinster	-12890
▁splinter	-12891
▁stagnant	-12892
▁starling	-12893
▁stations	-12894
▁sterling	-12895
▁sticking	-12896
▁stickler	-12897
▁strained	-12898
▁strangle	-12899
odeler	-12900
▁dazed	-12901
▁honor	-12902
▁itchy	-12903
▁lungs	-12904
▁rifle	-12905
▁sulfa	-12906
▁taboo	-12907
▁vivid	-12908
unctory	-12909
▁blocks	-12910
▁breeze	-12911
▁brewed	-12912
▁choosy	-12913
▁chubby	-12914
▁finchs	-12915
▁flawed	-12916
▁galaxy	-12917
▁kimono	-12918
▁length	-12919
▁pandas	-12920
▁piping	-12921
▁rifles	-12922
▁thumbs	-12923
hydrates	-12924
undantly	-12925
▁alerted	-12926
▁anthems	-12927
▁aspects	-12928
▁brewing	-12929
▁catalog	-12930
▁dioxide	-12931
▁disobey	-12932
▁juniors	-12933
▁kicking	-12934
▁lantern	-12935
▁olympic	-12936
▁quantum	-12937
▁sciatic	-12938
▁seasick	-12939
▁seaside	-12940
▁seniors	-12941
▁stacked	-12942
▁surface	-12943
▁tonsils	-12944
▁trayful	-12945
▁yodeler	-12946
ventional	-12947
▁alarming	-12948
▁aluminum	-12949
▁arsonist	-12950
▁coconuts	-12951
▁consoled	-12952
▁document	-12953
▁external	-12954
▁finishes	-12955
▁injuries	-12956
▁inserted	-12957
▁lanterns	-12958
▁monoxide	-12959
▁olympics	-12960
▁quantity	-12961
▁radishes	-12962
▁robotics	-12963
▁sciences	-12964
▁stranded	-12965
▁strapped	-12966
▁stuffing	-12967
▁stutters	-12968
▁suggests	-12969
▁sunbathe	-12970
▁superior	-12971
▁superman	-12972
▁supplier	-12973
▁supports	-12974
▁surgeons	-12975
▁swimmers	-12976
▁swindled	-12977
▁tadpoles	-12978
▁tattered	-12979
▁teaspoon	-12980
▁tempting	-12981
▁tendency	-12982
▁tenspeed	-12983
▁termites	-12984
▁thankful	-12985
▁thankyou	-12986
▁theology	-12987
▁thorough	-12988
▁timeline	-12989
▁titicaca	-12990
▁tortured	-12991
▁traitors	-12992
▁transmit	-12993
▁traveler	-12994
▁treating	-12995
▁trembled	-12996
▁trickled	-12997
▁truthful	-12998
▁tsunamis	-12999
▁cnn	-13000
▁fdp	-13001
▁amni	-13002
▁hawk	-13003
▁kalm	-13004
▁lisa	-13005
▁yeah	-13006
▁yuan	-13007
becile	-13008
erinas	-13009
second	-13010
▁agony	-13011
▁cuzco	-13012
▁gotta	-13013
▁gummy	-13014
▁miami	-13015
▁natto	-13016
▁ozone	-13017
▁purrs	-13018
▁selfe	-13019
▁waltz	-13020
defense	-13021
eradish	-13022
fourths	-13023
halyzer	-13024
lemagne	-13025
▁accuse	-13026
▁baboon	-13027
▁baltic	-13028
▁buckle	-13029
▁eyewit	-13030
▁gibral	-13031
▁loosen	-13032
▁louvre	-13033
▁lowfat	-13034
▁meteor	-13035
▁oregon	-13036
▁queued	-13037
▁safari	-13038
▁turkic	-13039
▁walnut	-13040
cribable	-13041
ogeneous	-13042
theclock	-13043
▁females	-13044
▁gargles	-13045
▁ingalls	-13046
▁kalmius	-13047
▁methane	-13048
▁ramadan	-13049
▁victims	-13050
▁vietnam	-13051
▁altitude	-13052
▁amniotic	-13053
▁consumes	-13054
▁fistbump	-13055
▁harajuku	-13056
▁imbecile	-13057
▁lovehate	-13058
▁purchase	-13059
▁saucepan	-13060
▁seatbelt	-13061
▁ulterior	-13062
▁uniforms	-13063
▁unkindly	-13064
▁unpacked	-13065
▁unproven	-13066
▁unsolved	-13067
▁unturned	-13068
▁unwanted	-13069
▁upcoming	-13070
▁uptodate	-13071
▁variable	-13072
▁varicose	-13073
▁veracity	-13074
▁villages	-13075
▁volcanic	-13076
▁vultures	-13077
▁wardrobe	-13078
▁warnings	-13079
▁watchman	-13080
▁weakling	-13081
▁welcomed	-13082
▁wellmann	-13083
▁whodunit	-13084
▁windmill	-13085
▁windsurf	-13086
▁withdraw	-13087
▁withered	-13088
▁wobbling	-13089
▁worsened	-13090
▁wrapping	-13091
▁yokohama	-13092
antalizing	-13093
astinating	-13094
criminated	-13095
estionably	-13096
iallooking	-13097
ntaneously	-13098
productive	-13099
randt	-13100
immune	-13101
speare	-13102
▁brawl	-13103
▁ginza	-13104
▁grill	-13105
▁pesos	-13106
▁saudi	-13107
▁tusks	-13108
▁unpop	-13109
▁vowel	-13110
avenger	-13111
connect	-13112
izabeth	-13113
▁acorns	-13114
▁aurora	-13115
▁bureau	-13116
▁echoed	-13117
▁fennel	-13118
▁karate	-13119
▁kisses	-13120
▁kublai	-13121
▁mumbai	-13122
▁nephew	-13123
▁pupils	-13124
▁reboot	-13125
▁rivals	-13126
▁savage	-13127
▁scheme	-13128
▁serbia	-13129
▁sloppy	-13130
▁ubuntu	-13131
▁uranus	-13132
▁wiping	-13133
iaquatic	-13134
psichord	-13135
▁antlers	-13136
▁baghdad	-13137
▁beijing	-13138
▁cholera	-13139
▁crayons	-13140
▁drifter	-13141
▁dynasty	-13142
▁exclude	-13143
▁gourmet	-13144
▁grudges	-13145
▁heiress	-13146
▁hottest	-13147
▁jittery	-13148
▁likable	-13149
▁midterm	-13150
▁poplars	-13151
▁prairie	-13152
▁rooster	-13153
▁vomited	-13154
▁academic	-13155
▁acoustic	-13156
▁appalled	-13157
▁baritone	-13158
▁budapest	-13159
▁campaign	-13160
▁diligent	-13161
▁downhill	-13162
▁emotions	-13163
▁ethiopia	-13164
▁eyepatch	-13165
▁fatigued	-13166
▁firewall	-13167
▁hooligan	-13168
▁landfill	-13169
▁oblivion	-13170
▁paranoid	-13171
▁redheads	-13172
▁shiitake	-13173
▁skeleton	-13174
▁splendid	-13175
▁terminal	-13176
xplanatory	-13177
▁accepting	-13178
▁accordion	-13179
▁acquitted	-13180
▁activists	-13181
▁addicting	-13182
▁admitting	-13183
▁adversity	-13184
▁advertise	-13185
▁afterlife	-13186
▁agreement	-13187
▁alcoholic	-13188
▁allergies	-13189
▁alphabets	-13190
▁amplifier	-13191
▁annoyance	-13192
▁anxiously	-13193
▁appearing	-13194
▁arrogance	-13195
▁aspergers	-13196
▁assistive	-13197
▁atrocious	-13198
▁attentive	-13199
▁husky	-13200
▁lodge	-13201
issippi	-13202
▁amiens	-13203
▁buenos	-13204
▁cusses	-13205
▁dunham	-13206
▁israel	-13207
▁julius	-13208
▁parody	-13209
▁purify	-13210
▁shoddy	-13211
▁walrus	-13212
▁weasel	-13213
icklayer	-13214
noisseur	-13215
strators	-13216
▁anthrop	-13217
▁cheeped	-13218
▁circuit	-13219
▁craters	-13220
▁deleted	-13221
▁farther	-13222
▁harvard	-13223
▁hexagon	-13224
▁housing	-13225
▁hygiene	-13226
▁leeches	-13227
▁mahjong	-13228
▁martini	-13229
▁mishima	-13230
▁opioids	-13231
▁origins	-13232
▁peacock	-13233
▁quasars	-13234
▁renaiss	-13235
▁saffron	-13236
▁serpent	-13237
▁stalker	-13238
▁tactics	-13239
▁yerevan	-13240
▁bluffing	-13241
▁boldness	-13242
▁comedies	-13243
▁eggplant	-13244
▁epidemic	-13245
▁escorted	-13246
▁flashing	-13247
▁florence	-13248
▁geniuses	-13249
▁hamsters	-13250
▁isabella	-13251
▁isolated	-13252
▁mongoose	-13253
▁onethird	-13254
▁outsmart	-13255
▁pacifier	-13256
▁parasols	-13257
▁pharaohs	-13258
▁podcasts	-13259
▁referees	-13260
▁refugees	-13261
▁sabotage	-13262
▁scantily	-13263
▁slurping	-13264
▁toenails	-13265
▁twisting	-13266
▁authentic	-13267
▁authority	-13268
▁bachelors	-13269
▁backflips	-13270
▁backwards	-13271
▁badminton	-13272
▁barcelona	-13273
▁bargained	-13274
▁barricade	-13275
▁basically	-13276
▁beekeeper	-13277
▁bethlehem	-13278
▁bewitched	-13279
▁bilingual	-13280
▁blackbird	-13281
▁blackjack	-13282
▁bloodshed	-13283
▁blowdried	-13284
▁borrowing	-13285
▁breastfed	-13286
▁bucharest	-13287
▁calculate	-13288
▁canceling	-13289
▁candidate	-13290
▁captivity	-13291
▁cardboard	-13292
▁cardinals	-13293
▁carnation	-13294
▁catalonia	-13295
▁catholics	-13296
▁cauterize	-13297
▁chamomile	-13298
▁chauffeur	-13299
▁bodily	-13300
▁doomed	-13301
▁kebabs	-13302
▁kosher	-13303
▁nagoya	-13304
▁tissue	-13305
▁unplug	-13306
▁dilemma	-13307
▁ecuador	-13308
▁erosion	-13309
▁firefox	-13310
▁lactose	-13311
▁nursery	-13312
▁piccolo	-13313
▁pitcher	-13314
▁quintet	-13315
▁sniffed	-13316
▁yawning	-13317
physicist	-13318
▁adultery	-13319
▁allgirls	-13320
▁attorney	-13321
▁avocados	-13322
▁awaiting	-13323
▁chuckled	-13324
▁cocktail	-13325
▁conflict	-13326
▁crouched	-13327
▁database	-13328
▁doorknob	-13329
▁lavender	-13330
▁mounting	-13331
▁ointment	-13332
▁recycled	-13333
▁smuggler	-13334
▁sourpuss	-13335
▁squatted	-13336
▁stuntmen	-13337
▁toppings	-13338
▁torrents	-13339
▁werewolf	-13340
▁wriggled	-13341
▁adjective	-13342
▁barnacles	-13343
▁chickpeas	-13344
▁chihuahua	-13345
▁civilians	-13346
▁cockroach	-13347
▁collector	-13348
▁collision	-13349
▁colonized	-13350
▁commanded	-13351
▁commander	-13352
▁communism	-13353
▁communist	-13354
▁compasses	-13355
▁completed	-13356
▁composers	-13357
▁condemned	-13358
▁consisted	-13359
▁consoling	-13360
▁consulted	-13361
▁consuming	-13362
▁continues	-13363
▁corrected	-13364
▁corridors	-13365
▁courtyard	-13366
▁coworkers	-13367
▁crusaders	-13368
▁cultivate	-13369
▁curveball	-13370
▁cushioned	-13371
▁daffodils	-13372
▁dartboard	-13373
▁deadliest	-13374
▁deceitful	-13375
▁defective	-13376
▁defendant	-13377
▁defensive	-13378
▁delighted	-13379
▁demanding	-13380
▁dependent	-13381
▁deposited	-13382
▁described	-13383
▁detergent	-13384
▁determine	-13385
▁diagnosed	-13386
▁diagnosis	-13387
▁dignified	-13388
▁diplomacy	-13389
▁discarded	-13390
▁dishonest	-13391
▁disobeyed	-13392
▁dissected	-13393
▁distances	-13394
▁documents	-13395
▁donations	-13396
▁dormitory	-13397
▁downright	-13398
▁drizzling	-13399
▁marconi	-13400
▁saddled	-13401
▁variety	-13402
▁announce	-13403
▁deceased	-13404
▁eruption	-13405
▁imminent	-13406
▁paddling	-13407
▁rambling	-13408
▁sergeant	-13409
▁setbacks	-13410
▁sombrero	-13411
▁tabloids	-13412
▁unfolded	-13413
▁biodegrad	-13414
▁bookcases	-13415
▁capricorn	-13416
▁columnist	-13417
▁dispensed	-13418
▁earthworm	-13419
▁easygoing	-13420
▁economist	-13421
▁eggshells	-13422
▁elizabeth	-13423
▁eloquence	-13424
▁embroider	-13425
▁emphasize	-13426
▁engineers	-13427
▁enjoyable	-13428
▁entrusted	-13429
▁evacuated	-13430
▁evidently	-13431
▁exchanged	-13432
▁excursion	-13433
▁exercised	-13434
▁exploding	-13435
▁expressed	-13436
▁extension	-13437
▁falsified	-13438
▁fashioned	-13439
▁fiftyfive	-13440
▁fingertip	-13441
▁fireplace	-13442
▁flevoland	-13443
▁flipflops	-13444
▁foolishly	-13445
▁footnotes	-13446
▁foresters	-13447
▁formality	-13448
▁fractured	-13449
▁freelance	-13450
▁fruitcake	-13451
▁fugitives	-13452
▁gathering	-13453
▁generates	-13454
▁gibraltar	-13455
▁gossipers	-13456
▁gossiping	-13457
▁gratitude	-13458
▁graveyard	-13459
▁greetings	-13460
▁groceries	-13461
▁guarantee	-13462
▁hairbrush	-13463
▁hairstyle	-13464
▁halfdozen	-13465
▁harvested	-13466
▁hazelnuts	-13467
▁headaches	-13468
▁headfirst	-13469
▁headstand	-13470
▁heartburn	-13471
▁hedgehogs	-13472
▁hepatitis	-13473
▁hiccuping	-13474
▁highclass	-13475
▁hilarious	-13476
▁historian	-13477
▁horoscope	-13478
▁horseshoe	-13479
▁hospitals	-13480
▁hotheaded	-13481
▁household	-13482
▁humiliate	-13483
▁hungarian	-13484
▁hypocrisy	-13485
▁hypocrite	-13486
▁illegally	-13487
▁imagining	-13488
▁imitation	-13489
▁immediate	-13490
▁incentive	-13491
▁incidents	-13492
▁increases	-13493
▁indicates	-13494
▁indonesia	-13495
▁inflating	-13496
▁inspector	-13497
▁installed	-13498
▁instincts	-13499
▁integrity	-13500
▁interpret	-13501
▁introvert	-13502
▁inventive	-13503
▁irregular	-13504
▁irritable	-13505
▁islamabad	-13506
▁isosceles	-13507
▁judgement	-13508
▁justifies	-13509
▁kangaroos	-13510
▁legendary	-13511
▁liability	-13512
▁librarian	-13513
▁libraries	-13514
▁lifespans	-13515
▁lifestyle	-13516
▁lightbulb	-13517
▁lightyear	-13518
▁longrange	-13519
▁ludicrous	-13520
▁manchuria	-13521
▁marriages	-13522
▁mayflower	-13523
▁meatballs	-13524
▁mechanics	-13525
▁meditates	-13526
▁megaphone	-13527
▁merciless	-13528
▁misjudged	-13529
▁misquoted	-13530
▁moneyback	-13531
▁mosquitos	-13532
▁motorboat	-13533
▁moustache	-13534
▁musicians	-13535
▁mysteries	-13536
▁napoleons	-13537
▁narrative	-13538
▁neglected	-13539
▁nicknames	-13540
▁nightfall	-13541
▁nightlife	-13542
▁nintendos	-13543
▁nobrainer	-13544
▁nocturnal	-13545
▁nonnative	-13546
▁northeast	-13547
▁norwegian	-13548
▁nosmoking	-13549
▁notebooks	-13550
▁notorious	-13551
▁nutrients	-13552
▁obligated	-13553
▁obnoxious	-13554
▁offensive	-13555
▁officials	-13556
▁opposites	-13557
▁optimists	-13558
▁orphanage	-13559
▁otherwise	-13560
▁outspoken	-13561
▁overboard	-13562
▁overlooks	-13563
▁ownership	-13564
▁parachute	-13565
▁parallels	-13566
▁paralyzed	-13567
▁parasites	-13568
▁partially	-13569
▁partition	-13570
▁passports	-13571
▁passwords	-13572
▁pedometer	-13573
▁penniless	-13574
▁pepperoni	-13575
▁periscope	-13576
▁pertinent	-13577
▁pistachio	-13578
▁playfully	-13579
▁plentiful	-13580
▁polluting	-13581
▁portraits	-13582
▁postcards	-13583
▁practices	-13584
▁precisely	-13585
▁preserved	-13586
▁pressures	-13587
▁prickling	-13588
▁procedure	-13589
▁producing	-13590
▁projector	-13591
▁prolonged	-13592
▁prominent	-13593
▁prospects	-13594
▁protector	-13595
▁provinces	-13596
▁publisher	-13597
▁punctured	-13598
▁purchases	-13599
▁quickened	-13600
▁reactions	-13601
▁receptors	-13602
▁recession	-13603
▁reduction	-13604
▁reelected	-13605
▁refresher	-13606
▁refueling	-13607
▁relevance	-13608
▁remaining	-13609
▁rembrandt	-13610
▁remodeled	-13611
▁renewable	-13612
▁renovated	-13613
▁repainted	-13614
▁repellent	-13615
▁replicate	-13616
▁rereading	-13617
▁resisting	-13618
▁responses	-13619
▁restrooms	-13620
▁retreated	-13621
▁returning	-13622
▁roosevelt	-13623
▁sacrifice	-13624
▁saltwater	-13625
▁sandpaper	-13626
▁saturated	-13627
▁scapegoat	-13628
▁scarecrow	-13629
▁scavenger	-13630
▁sculptors	-13631
▁seatbelts	-13632
▁secretive	-13633
▁selection	-13634
▁sensation	-13635
▁separated	-13636
▁sharpener	-13637
▁shattered	-13638
▁sheltered	-13639
▁shepherds	-13640
▁shirtless	-13641
▁shoeshine	-13642
▁shortages	-13643
▁shortcuts	-13644
▁shorthand	-13645
▁shrinking	-13646
▁shuffling	-13647
▁sidewalks	-13648
▁sixfigure	-13649
▁sixthirty	-13650
▁sketching	-13651
▁smoothies	-13652
▁snorkeled	-13653
▁snorkeler	-13654
▁snowstorm	-13655
▁soldering	-13656
▁solutions	-13657
▁somebodys	-13658
▁southward	-13659
▁souvenirs	-13660
▁spaceship	-13661
▁specialty	-13662
▁speculate	-13663
▁spellings	-13664
▁sprouting	-13665
▁squeaking	-13666
▁squeezing	-13667
▁squirming	-13668
▁standards	-13669
▁stockholm	-13670
▁straighta	-13671
▁stressful	-13672
▁struggled	-13673
▁stupidest	-13674
▁submarine	-13675
▁submitted	-13676
▁subsidies	-13677
▁substance	-13678
▁sunburned	-13679
▁supported	-13680
▁surfboard	-13681
▁surrounds	-13682
▁suspended	-13683
▁sweetener	-13684
▁taillight	-13685
▁tasteless	-13686
▁teammates	-13687
▁tenminute	-13688
▁tenthirty	-13689
▁therefore	-13690
▁thirtieth	-13691
▁thirtysix	-13692
▁threeroom	-13693
▁threshold	-13694
▁tictactoe	-13695
▁timetable	-13696
▁tolerable	-13697
▁tolerance	-13698
▁traumatic	-13699
▁travelers	-13700
▁treadmill	-13701
▁tricycles	-13702
▁triggered	-13703
▁twentyone	-13704
▁twitching	-13705
▁twothirty	-13706
▁uncertain	-13707
▁underwear	-13708
▁undressed	-13709
▁unpopular	-13710
▁unrelated	-13711
▁unscathed	-13712
▁unusually	-13713
▁urologist	-13714
▁usernames	-13715
▁valentina	-13716
▁vancouver	-13717
▁viewpoint	-13718
▁violently	-13719
▁vivacious	-13720
▁volcanoes	-13721
▁warehouse	-13722
▁warranted	-13723
▁wellaimed	-13724
▁wikipedia	-13725
▁willpower	-13726
▁windmills	-13727
▁womanizer	-13728
▁worldwide	-13729
▁worsening	-13730
▁worstcase	-13731
atisfaction	-13732
▁abundantly	-13733
▁accountant	-13734
▁accounting	-13735
▁accurately	-13736
▁accusation	-13737
▁adrenaline	-13738
▁affordable	-13739
▁agreedupon	-13740
▁alcoholics	-13741
▁alcoholism	-13742
▁alligators	-13743
▁allowances	-13744
▁ammunition	-13745
▁amphibians	-13746
▁anesthetic	-13747
▁antarctica	-13748
▁anticipate	-13749
▁antifreeze	-13750
▁apartments	-13751
▁applicants	-13752
▁arithmetic	-13753
▁articulate	-13754
▁astounding	-13755
▁astronomer	-13756
▁attachment	-13757
▁attempting	-13758
▁attributes	-13759
▁auctioneer	-13760
▁auditorium	-13761
▁australias	-13762
▁autographs	-13763
▁autoimmune	-13764
▁backstroke	-13765
▁ballerinas	-13766
▁bangladesh	-13767
▁barefooted	-13768
▁barricaded	-13769
▁bartenders	-13770
▁beekeepers	-13771
▁believable	-13772
▁belongings	-13773
▁beneficial	-13774
▁birthplace	-13775
▁blackbirds	-13776
▁bonemarrow	-13777
▁bricklayer	-13778
▁brightened	-13779
▁buckingham	-13780
▁buttermilk	-13781
▁calculates	-13782
▁campground	-13783
▁candidates	-13784
▁cardiogram	-13785
▁casualties	-13786
▁cathedrals	-13787
▁cautiously	-13788
▁celebrates	-13789
▁centimeter	-13790
▁ceremonies	-13791
▁chatterbox	-13792
▁chauffeurs	-13793
▁chickenpox	-13794
▁childishly	-13795
▁christians	-13796
▁colleagues	-13797
▁collectors	-13798
▁compassion	-13799
▁compensate	-13800
▁complexion	-13801
▁confronted	-13802
▁congenital	-13803
▁consultant	-13804
▁copenhagen	-13805
▁copywriter	-13806
▁courthouse	-13807
▁creativity	-13808
▁criticized	-13809
▁cumbersome	-13810
▁currencies	-13811
▁curriculum	-13812
▁custommade	-13813
▁demolished	-13814
▁deplorable	-13815
▁destroying	-13816
▁developing	-13817
▁diagonally	-13818
▁diligently	-13819
▁diplomatic	-13820
▁discharged	-13821
▁discipline	-13822
▁disconnect	-13823
▁dislocated	-13824
▁distortion	-13825
▁distracted	-13826
▁downstream	-13827
▁elderberry	-13828
▁electronic	-13829
▁eliminated	-13830
▁endeavored	-13831
▁englishman	-13832
▁enthusiasm	-13833
▁ethnically	-13834
▁evaporated	-13835
▁evaporates	-13836
▁exaggerate	-13837
▁excavation	-13838
▁exceptions	-13839
▁exercising	-13840
▁exhusbands	-13841
▁expectancy	-13842
▁explaining	-13843
▁explosives	-13844
▁expression	-13845
▁expressway	-13846
▁extremists	-13847
▁eyewitness	-13848
▁facilitate	-13849
▁farfetched	-13850
▁fascinates	-13851
▁fertilizer	-13852
▁fingertips	-13853
▁firstclass	-13854
▁fiveminute	-13855
▁fluctuates	-13856
▁flyswatter	-13857
▁fortyeight	-13858
▁freshwater	-13859
▁generosity	-13860
▁goalkeeper	-13861
▁graduation	-13862
▁grandchild	-13863
▁gravestone	-13864
▁greenhouse	-13865
▁halfadozen	-13866
▁handcuffed	-13867
▁handsomely	-13868
▁harvesting	-13869
▁hemisphere	-13870
▁hemorrhage	-13871
▁herbivores	-13872
▁hesitation	-13873
▁historians	-13874
▁historical	-13875
▁hollywoods	-13876
▁horsepower	-13877
▁housewives	-13878
▁hypnotized	-13879
▁hysterical	-13880
▁immigrants	-13881
▁imperative	-13882
▁incentives	-13883
▁increasing	-13884
▁indonesian	-13885
▁inhabitant	-13886
▁innovative	-13887
▁intentions	-13888
▁intimidate	-13889
▁intolerant	-13890
▁intriguing	-13891
▁laboratory	-13892
▁lawabiding	-13893
▁lifeguards	-13894
▁likelihood	-13895
▁liverwurst	-13896
▁maintained	-13897
▁manchester	-13898
▁mayonnaise	-13899
▁meditating	-13900
▁memorizing	-13901
▁mesmerized	-13902
▁messengers	-13903
▁middleaged	-13904
▁miniskirts	-13905
▁minorities	-13906
▁misfortune	-13907
▁misspelled	-13908
▁monochrome	-13909
▁monopolies	-13910
▁multiplied	-13911
▁mysterious	-13912
▁navigating	-13913
▁neglecting	-13914
▁nightstand	-13915
▁nomination	-13916
▁nonenglish	-13917
▁nonfiction	-13918
▁nonmembers	-13919
▁nonsmoking	-13920
▁norwegians	-13921
▁noticeable	-13922
▁operations	-13923
▁oppression	-13924
▁oppressive	-13925
▁outrageous	-13926
▁overflowed	-13927
▁overheated	-13928
▁overturned	-13929
▁overworked	-13930
▁painkiller	-13931
▁paintbrush	-13932
▁paramedics	-13933
▁passionate	-13934
▁peppermint	-13935
▁persecuted	-13936
▁personable	-13937
▁persuasive	-13938
▁philippine	-13939
▁physically	-13940
▁physicists	-13941
▁pickpocket	-13942
▁pineapples	-13943
▁pitchblack	-13944
▁platypuses	-13945
▁popularity	-13946
▁possessive	-13947
▁postponing	-13948
▁preferable	-13949
▁prescribed	-13950
▁presentday	-13951
▁presidents	-13952
▁previously	-13953
▁principles	-13954
▁priorities	-13955
▁profitable	-13956
▁proportion	-13957
▁prosecuted	-13958
▁prosperity	-13959
▁prosperous	-13960
▁prosthetic	-13961
▁protective	-13962
▁protesters	-13963
▁quarantine	-13964
▁quotations	-13965
▁recurrence	-13966
▁remarkable	-13967
▁repainting	-13968
▁repairable	-13969
▁requesting	-13970
▁reschedule	-13971
▁restarting	-13972
▁restricted	-13973
▁revolution	-13974
▁rhetorical	-13975
▁rheumatoid	-13976
▁rhinestone	-13977
▁sacramento	-13978
▁sacrificed	-13979
▁sacrifices	-13980
▁satisfying	-13981
▁schoolgirl	-13982
▁sculptures	-13983
▁separately	-13984
▁sheepishly	-13985
▁shopkeeper	-13986
▁shoplifted	-13987
▁singlecell	-13988
▁situations	-13989
▁slowdanced	-13990
▁soundproof	-13991
▁spacecraft	-13992
▁specialist	-13993
▁specialize	-13994
▁speechless	-13995
▁starshaped	-13996
▁statements	-13997
▁stepmother	-13998
▁straighten	-13999
▁streetcars	-14000
▁stubbornly	-14001
▁successive	-14002
▁suffocated	-14003
▁suggesting	-14004
▁sulfamides	-14005
▁supervisor	-14006
▁supposedly	-14007
▁sweatpants	-14008
▁sweetheart	-14009
▁symbolizes	-14010
▁tastefully	-14011
▁tatoebaorg	-14012
▁telepathic	-14013
▁tereshkova	-14014
▁thankfully	-14015
▁tournament	-14016
▁traditions	-14017
▁transistor	-14018
▁travelling	-14019
▁unbearably	-14020
▁undeniably	-14021
▁underlined	-14022
▁underrated	-14023
▁underwater	-14024
▁uneventful	-14025
▁unoccupied	-14026
▁unoriginal	-14027
▁unpleasant	-14028
▁unscramble	-14029
▁vibraphone	-14030
▁vietnamese	-14031
▁vulnerable	-14032
▁wellington	-14033
▁workaholic	-14034
▁worldclass	-14035
▁zealanders	-14036
grandfathers	-14037
▁abnormality	-14038
▁accelerated	-14039
▁accusations	-14040
▁adjustments	-14041
▁adolescents	-14042
▁afghanistan	-14043
▁agriculture	-14044
▁allegations	-14045
▁anglosaxons	-14046
▁anticipated	-14047
▁appearances	-14048
▁apprehended	-14049
▁aristocracy	-14050
▁astrologers	-14051
▁badtempered	-14052
▁battlefield	-14053
▁biographies	-14054
▁blindfolded	-14055
▁bookkeepers	-14056
▁brainwashed	-14057
▁breakfasted	-14058
▁brilliantly	-14059
▁bulletproof	-14060
▁candlelight	-14061
▁catastrophe	-14062
▁caterpillar	-14063
▁certificate	-14064
▁challenging	-14065
▁charlemagne	-14066
▁classifying	-14067
▁coldblooded	-14068
▁collaborate	-14069
▁combination	-14070
▁comfortably	-14071
▁competition	-14072
▁competitors	-14073
▁compilation	-14074
▁compliments	-14075
▁composition	-14076
▁conditioner	-14077
▁connoisseur	-14078
▁consecutive	-14079
▁constipated	-14080
▁constraints	-14081
▁contributed	-14082
▁contributes	-14083
▁controversy	-14084
▁coordinator	-14085
▁countryside	-14086
▁creationism	-14087
▁credibility	-14088
▁criticizing	-14089
▁crosslegged	-14090
▁departments	-14091
▁destruction	-14092
▁differences	-14093
▁diminishing	-14094
▁discouraged	-14095
▁dishwashers	-14096
▁disoriented	-14097
▁distraction	-14098
▁downtoearth	-14099
▁dragonflies	-14100
▁encountered	-14101
▁encouraging	-14102
▁esperantist	-14103
▁exaggerates	-14104
▁exboyfriend	-14105
▁exceedingly	-14106
▁experiments	-14107
▁extravagant	-14108
▁fastgrowing	-14109
▁freeloaders	-14110
▁frustrating	-14111
▁fundamental	-14112
▁generations	-14113
▁glassblower	-14114
▁governments	-14115
▁grammatical	-14116
▁grandparent	-14117
▁grapefruits	-14118
▁hardworking	-14119
▁harebrained	-14120
▁harpsichord	-14121
▁heartbroken	-14122
▁herbivorous	-14123
▁hieroglyphs	-14124
▁highlighter	-14125
▁highprotein	-14126
▁homogeneous	-14127
▁honeymooned	-14128
▁horseradish	-14129
▁hummingbird	-14130
▁implication	-14131
▁impressions	-14132
▁improvement	-14133
▁incessantly	-14134
▁incorrectly	-14135
▁indifferent	-14136
▁ineffective	-14137
▁inexcusable	-14138
▁inflammable	-14139
▁influential	-14140
▁ingredients	-14141
▁inheritance	-14142
▁inquisitive	-14143
▁inspiration	-14144
▁instruments	-14145
▁intentional	-14146
▁interviewed	-14147
▁intimidated	-14148
▁introducing	-14149
▁investigate	-14150
▁investments	-14151
▁invitations	-14152
▁involvement	-14153
▁kitesurfing	-14154
▁linguistics	-14155
▁maharashtra	-14156
▁manipulated	-14157
▁masterpiece	-14158
▁misconstrue	-14159
▁misfortunes	-14160
▁mississippi	-14161
▁mountainous	-14162
▁mountaintop	-14163
▁ninetyseven	-14164
▁noiselessly	-14165
▁observation	-14166
▁outstanding	-14167
▁overhearing	-14168
▁painkillers	-14169
▁panhandling	-14170
▁parasailing	-14171
▁perfunctory	-14172
▁pessimistic	-14173
▁pharmacists	-14174
▁photographs	-14175
▁picturesque	-14176
▁playstation	-14177
▁politically	-14178
▁pomegranate	-14179
▁precautions	-14180
▁prefectures	-14181
▁pretentious	-14182
▁probability	-14183
▁prohibiting	-14184
▁proposition	-14185
▁publication	-14186
▁quarantined	-14187
▁rainforests	-14188
▁rattlesnake	-14189
▁regrettably	-14190
▁renaissance	-14191
▁resignation	-14192
▁revolutions	-14193
▁rockefeller	-14194
▁sagittarius	-14195
▁scholarship	-14196
▁selfdefense	-14197
▁selfrespect	-14198
▁semiaquatic	-14199
▁sensational	-14200
▁shakespeare	-14201
▁shepherdess	-14202
▁shoplifting	-14203
▁shortsleeve	-14204
▁snowcovered	-14205
▁specialties	-14206
▁stepparents	-14207
▁strengthens	-14208
▁superficial	-14209
▁surrendered	-14210
▁sympathized	-14211
▁tantalizing	-14212
▁technophobe	-14213
▁territorial	-14214
▁territories	-14215
▁threatening	-14216
▁transferred	-14217
▁translators	-14218
▁transported	-14219
▁traumatized	-14220
▁troublesome	-14221
▁twentyseven	-14222
▁uncivilized	-14223
▁undercooked	-14224
▁underground	-14225
▁undrinkable	-14226
▁unimpressed	-14227
▁unqualified	-14228
▁unstoppable	-14229
▁untraceable	-14230
▁wheelbarrow	-14231
▁whitehaired	-14232
▁willingness	-14233
▁windsurfing	-14234
▁woodcutters	-14235
▁worldfamous	-14236
▁abbreviation	-14237
▁absentminded	-14238
▁alphabetical	-14239
▁appreciation	-14240
▁astrological	-14241
▁backwardness	-14242
▁bikefriendly	-14243
▁blackberries	-14244
▁breathalyzer	-14245
▁breathtaking	-14246
▁cheerleaders	-14247
▁civilization	-14248
▁compensation	-14249
▁complimented	-14250
▁conditioning	-14251
▁constitution	-14252
▁corresponded	-14253
▁disappearing	-14254
▁distribution	-14255
▁englishwomen	-14256
▁entertaining	-14257
▁examinations	-14258
▁exgirlfriend	-14259
▁exhilarating	-14260
▁explanations	-14261
▁extinguisher	-14262
▁extravaganza	-14263
▁faithfulness	-14264
▁fifthlargest	-14265
▁fingerprints	-14266
▁firefighters	-14267
▁footandmouth	-14268
▁freespirited	-14269
▁grandmothers	-14270
▁hairdressers	-14271
▁heartwarming	-14272
▁hospitalized	-14273
▁hummingbirds	-14274
▁independence	-14275
▁indisputable	-14276
▁inflammation	-14277
▁installments	-14278
▁instrumental	-14279
[...]
