<pad>	0
<unk>	0
<s>	0
</s>	0
en	-0
▁h	-1
▁i	-2
▁d	-3
er	-4
et	-5
▁w	-6
▁t	-7
aa	-8
ij	-9
▁m	-10
▁v	-11
om	-12
▁g	-13
▁z	-14
▁ik	-15
▁n	-16
an	-17
el	-18
▁b	-19
at	-20
▁j	-21
▁tom	-22
st	-23
▁k	-24
een	-25
oo	-26
▁he	-27
▁de	-28
▁is	-29
▁het	-30
▁je	-31
▁ni	-32
aar	-33
ch	-34
▁o	-35
▁dat	-36
▁niet	-37
ijn	-38
▁een	-39
ie	-40
▁ge	-41
al	-42
oe	-43
in	-44
▁l	-45
it	-46
▁s	-47
▁heb	-48
▁we	-49
on	-50
ou	-51
gen	-52
▁te	-53
aan	-54
▁p	-55
de	-56
oor	-57
▁van	-58
▁in	-59
▁ver	-60
cht	-61
▁zijn	-62
▁u	-63
▁al	-64
den	-65
ar	-66
ft	-67
ee	-68
▁ze	-69
il	-70
as	-71
▁er	-72
ig	-73
der	-74
▁op	-75
ken	-76
▁hij	-77
▁me	-78
▁ben	-79
▁be	-80
is	-81
or	-82
▁r	-83
eft	-84
▁st	-85
▁heeft	-86
▁wat	-87
▁a	-88
ijk	-89
▁mijn	-90
▁was	-91
oet	-92
▁waar	-93
▁on	-94
▁voor	-95
▁aan	-96
ur	-97
eer	-98
aat	-99
kt	-100
ul	-101
▁wil	-102
ien	-103
oen	-104
em	-105
▁kan	-106
lie	-107
▁vr	-108
▁om	-109
▁met	-110
ier	-111
and	-112
▁f	-113
▁no	-114
ven	-115
▁en	-116
▁mar	-117
ad	-118
eel	-119
le	-120
▁dit	-121
▁moet	-122
ing	-123
▁naar	-124
ro	-125
ag	-126
je	-127
▁hoe	-128
ver	-129
pen	-130
am	-131
acht	-132
▁e	-133
▁gel	-134
▁uit	-135
un	-136
ze	-137
aag	-138
▁sch	-139
ge	-140
▁geen	-141
ist	-142
▁dr	-143
▁doen	-144
▁sp	-145
▁als	-146
ben	-147
▁hebben	-148
ol	-149
re	-150
▁jul	-151
▁jullie	-152
sch	-153
nen	-154
oon	-155
▁weet	-156
▁zou	-157
ond	-158
▁wer	-159
len	-160
▁nog	-161
dig	-162
eten	-163
▁le	-164
aal	-165
uis	-166
▁had	-167
▁gr	-168
▁hier	-169
▁mary	-170
ap	-171
▁zo	-172
▁hou	-173
ouw	-174
ot	-175
ijd	-176
sen	-177
uk	-178
▁die	-179
ang	-180
▁over	-181
eren	-182
▁bl	-183
▁zal	-184
uw	-185
aten	-186
▁au	-187
▁goe	-188
▁kun	-189
▁re	-190
▁den	-191
elijk	-192
▁geb	-193
▁deze	-194
▁vert	-195
te	-196
▁gew	-197
▁hel	-198
id	-199
▁waarom	-200
▁veel	-201
ak	-202
▁kom	-203
▁dan	-204
▁ko	-205
us	-206
ten	-207
▁mij	-208
▁moe	-209
elk	-210
▁ga	-211
▁c	-212
▁gaan	-213
dt	-214
ooit	-215
▁bent	-216
oek	-217
iet	-218
emand	-219
▁hem	-220
ste	-221
▁denk	-222
gel	-223
▁goed	-224
op	-225
▁maar	-226
▁all	-227
oeg	-228
ker	-229
aakt	-230
▁haar	-231
▁wie	-232
rij	-233
▁laat	-234
▁af	-235
ië	-236
▁bo	-237
▁wor	-238
▁meer	-239
ant	-240
ui	-241
▁nu	-242
▁ons	-243
▁erg	-244
zen	-245
ind	-246
▁ged	-247
agen	-248
oel	-249
▁nodig	-250
▁pro	-251
▁daar	-252
▁huis	-253
▁sl	-254
eld	-255
▁kl	-256
▁br	-257
▁beg	-258
lijk	-259
▁zei	-260
ia	-261
icht	-262
▁moeten	-263
ets	-264
▁gev	-265
▁pl	-266
▁iets	-267
str	-268
▁alle	-269
▁zeg	-270
▁jij	-271
▁ont	-272
▁gek	-273
orgen	-274
▁bet	-275
▁men	-276
▁nooit	-277
▁gaat	-278
▁maria	-279
▁bij	-280
▁prob	-281
▁kunnen	-282
▁fr	-283
uur	-284
eur	-285
▁gez	-286
▁vrien	-287
aak	-288
▁pr	-289
ans	-290
deren	-291
es	-292
ocht	-293
▁echt	-294
▁tijd	-295
▁hebt	-296
sl	-297
▁ou	-298
uit	-299
▁of	-300
▁sn	-301
ug	-302
eem	-303
▁bel	-304
alië	-305
▁vand	-306
oord	-307
▁blij	-308
ter	-309
omen	-310
▁austr	-311
ston	-312
▁australië	-313
ood	-314
sp	-315
ich	-316
aken	-317
▁boston	-318
▁aut	-319
▁vol	-320
ik	-321
▁wist	-322
he	-323
▁zw	-324
veel	-325
▁ter	-326
eder	-327
▁uw	-328
men	-329
▁zien	-330
eest	-331
elf	-332
▁tw	-333
blie	-334
▁niets	-335
ingen	-336
huis	-337
▁laten	-338
▁vandaag	-339
▁ieder	-340
▁drie	-341
elen	-342
▁zich	-343
oop	-344
ers	-345
▁auto	-346
▁eten	-347
▁graag	-348
ader	-349
▁lie	-350
blieft	-351
▁mis	-352
▁kw	-353
emaal	-354
eerd	-355
▁frans	-356
aren	-357
▁kon	-358
▁geld	-359
▁heel	-360
▁elk	-361
▁vertel	-362
eed	-363
▁niemand	-364
ef	-365
iek	-366
ook	-367
oof	-368
tijd	-369
ander	-370
▁jouw	-371
▁woon	-372
amer	-373
▁weg	-374
▁gebeur	-375
▁bed	-376
▁werd	-377
oot	-378
ree	-379
▁door	-380
▁nie	-381
▁boek	-382
▁morgen	-383
▁zit	-384
▁wel	-385
ff	-386
▁nieuw	-387
▁iedereen	-388
▁zon	-389
aam	-390
innen	-391
ige	-392
▁gem	-393
▁ging	-394
▁toms	-395
▁dacht	-396
▁tegen	-397
ann	-398
▁alleen	-399
▁gedaan	-400
▁vroeg	-401
▁altijd	-402
▁man	-403
▁zij	-404
ed	-405
▁dag	-406
ool	-407
▁iemand	-408
▁hoeveel	-409
▁terug	-410
▁wij	-411
▁gist	-412
▁eer	-413
onden	-414
ast	-415
▁mensen	-416
▁gen	-417
▁helpen	-418
ent	-419
lo	-420
▁mee	-421
▁jaar	-422
oren	-423
ong	-424
▁vriend	-425
▁wann	-426
▁wanneer	-427
▁leuk	-428
▁lang	-429
▁geh	-430
▁mag	-431
▁worden	-432
▁komen	-433
isch	-434
rouw	-435
▁twee	-436
▁ook	-437
▁alles	-438
tje	-439
▁houdt	-440
af	-441
▁eens	-442
▁maken	-443
▁onder	-444
av	-445
heid	-446
▁willen	-447
▁werk	-448
▁waren	-449
▁thuis	-450
▁jou	-451
▁wacht	-452
▁wilde	-453
▁leven	-454
▁tel	-455
▁gezien	-456
▁vraag	-457
▁doe	-458
▁plan	-459
pel	-460
▁ander	-461
▁gewoon	-462
▁kin	-463
im	-464
alen	-465
▁vader	-466
▁maakt	-467
▁toe	-468
oos	-469
▁vin	-470
▁komt	-471
▁weten	-472
ert	-473
ijkt	-474
▁beter	-475
ic	-476
▁water	-477
amen	-478
▁verk	-479
▁school	-480
▁kinderen	-481
dag	-482
▁uur	-483
▁lu	-484
zelf	-485
▁voel	-486
be	-487
eek	-488
oeken	-489
▁verg	-490
▁geluk	-491
▁kamer	-492
open	-493
schien	-494
▁misschien	-495
▁best	-496
▁gisteren	-497
eeds	-498
ade	-499
▁toen	-500
▁wordt	-501
▁probl	-502
au	-503
gd	-504
uiten	-505
gens	-506
▁steeds	-507
ies	-508
▁stu	-509
erk	-510
emen	-511
▁kle	-512
▁bang	-513
▁deed	-514
▁zeker	-515
br	-516
kel	-517
gels	-518
▁zie	-519
▁bez	-520
▁ken	-521
▁to	-522
▁open	-523
▁vind	-524
▁sle	-525
▁doet	-526
ijt	-527
kken	-528
oog	-529
gaan	-530
reken	-531
▁gest	-532
oorden	-533
▁praten	-534
▁gekocht	-535
aas	-536
art	-537
og	-538
▁her	-539
ct	-540
kig	-541
rui	-542
▁acht	-543
▁alsje	-544
▁tot	-545
▁kwam	-546
▁zeggen	-547
▁kunt	-548
▁ziet	-549
▁alsjeblieft	-550
▁hond	-551
▁verd	-552
▁weer	-553
▁snel	-554
mer	-555
igen	-556
kelijk	-557
▁koff	-558
▁ber	-559
▁gele	-560
▁keer	-561
▁groot	-562
▁wee	-563
▁welk	-564
▁goede	-565
▁onze	-566
antw	-567
▁kat	-568
ief	-569
▁vrouw	-570
▁ro	-571
▁drin	-572
▁moeder	-573
etje	-574
▁verl	-575
▁par	-576
▁allemaal	-577
um	-578
▁bro	-579
▁nieuwe	-580
▁na	-581
eerde	-582
▁gelukkig	-583
we	-584
▁zegt	-585
▁buiten	-586
▁kopen	-587
▁regen	-588
▁elkaar	-589
▁moo	-590
▁maan	-591
▁zwem	-592
▁ker	-593
▁staat	-594
▁genoeg	-595
ort	-596
stu	-597
uil	-598
oud	-599
▁zag	-600
▁ooit	-601
▁lijkt	-602
▁spree	-603
▁helemaal	-604
ess	-605
▁vl	-606
▁vaak	-607
pt	-608
▁stop	-609
▁gemaakt	-610
gev	-611
kte	-612
anden	-613
▁paar	-614
▁vragen	-615
oofd	-616
▁bijn	-617
▁ouder	-618
▁vrienden	-619
▁eet	-620
▁deur	-621
▁houden	-622
apen	-623
iel	-624
▁ap	-625
▁gebrui	-626
▁ger	-627
▁zul	-628
ilijk	-629
▁moeilijk	-630
▁probleem	-631
▁tre	-632
▁vrij	-633
▁bijna	-634
arm	-635
sten	-636
▁aar	-637
avond	-638
▁hele	-639
▁hoop	-640
▁oud	-641
▁geef	-642
▁net	-643
komen	-644
▁alstu	-645
▁alstublieft	-646
▁verw	-647
▁per	-648
▁spreken	-649
dee	-650
ees	-651
▁koffie	-652
▁str	-653
▁idee	-654
▁klaar	-655
▁blijven	-656
ut	-657
ulp	-658
▁gaf	-659
ieren	-660
ach	-661
jes	-662
▁gesch	-663
▁speel	-664
▁begrij	-665
▁vinden	-666
▁geweest	-667
gt	-668
▁ch	-669
▁verb	-670
teress	-671
ijden	-672
eeuw	-673
ijken	-674
ijf	-675
▁achter	-676
▁vertellen	-677
uz	-678
▁gro	-679
▁druk	-680
▁wilt	-681
▁woont	-682
▁wachten	-683
ve	-684
▁lig	-685
▁kerst	-686
ellen	-687
▁besl	-688
▁ontm	-689
onger	-690
▁toch	-691
▁waarsch	-692
geven	-693
▁even	-694
▁bloe	-695
▁hulp	-696
▁binnen	-697
▁slecht	-698
▁ontmoet	-699
ank	-700
van	-701
▁begon	-702
▁klein	-703
▁lezen	-704
▁kn	-705
▁min	-706
▁dood	-707
▁geze	-708
▁neem	-709
▁jap	-710
▁hand	-711
of	-712
▁week	-713
os	-714
onen	-715
▁gezegd	-716
dat	-717
▁schrij	-718
én	-719
oten	-720
▁win	-721
allen	-722
▁elke	-723
▁slaa	-724
▁beetje	-725
eling	-726
▁hoor	-727
▁broer	-728
▁werkt	-729
eef	-730
▁leren	-731
▁engels	-732
ust	-733
▁do	-734
antwoord	-735
dr	-736
▁con	-737
▁fou	-738
roken	-739
▁zelf	-740
▁gebeurd	-741
▁ve	-742
▁bew	-743
▁bus	-744
▁wou	-745
end	-746
▁krij	-747
▁land	-748
ijnlijk	-749
▁moest	-750
▁zonder	-751
ir	-752
erg	-753
▁welke	-754
▁ke	-755
eert	-756
▁fot	-757
aats	-758
afel	-759
bl	-760
ite	-761
oenen	-762
▁verm	-763
▁hoofd	-764
▁werken	-765
iets	-766
▁dicht	-767
▁volgen	-768
▁verteld	-769
▁é	-770
bal	-771
▁één	-772
▁luist	-773
▁telef	-774
▁boeken	-775
▁gl	-776
▁pi	-777
pels	-778
▁jon	-779
▁versch	-780
uin	-781
▁ex	-782
▁get	-783
auw	-784
▁pol	-785
▁waarschijnlijk	-786
ip	-787
ion	-788
▁tr	-789
atie	-790
▁nemen	-791
▁woorden	-792
orm	-793
▁har	-794
▁verst	-795
▁zwemmen	-796
▁gevonden	-797
uren	-798
▁tafel	-799
▁ne	-800
▁verh	-801
▁vond	-802
▁trein	-803
▁tv	-804
▁hun	-805
▁zin	-806
▁kijk	-807
▁stad	-808
▁besch	-809
▁zitten	-810
iden	-811
▁vis	-812
▁anders	-813
akkelijk	-814
itie	-815
aad	-816
baar	-817
rijk	-818
▁spelen	-819
oc	-820
▁ner	-821
▁ligt	-822
▁eigen	-823
▁samen	-824
▁spijt	-825
▁andere	-826
▁telefoon	-827
▁kr	-828
kend	-829
▁ten	-830
▁koud	-831
achtig	-832
pl	-833
bij	-834
oed	-835
▁haat	-836
▁honger	-837
per	-838
▁opge	-839
▁geven	-840
ogelijk	-841
inn	-842
onk	-843
▁maak	-844
▁wonen	-845
uid	-846
▁com	-847
▁ogen	-848
rouwen	-849
▁zullen	-850
oort	-851
▁allerg	-852
aart	-853
uldig	-854
ussen	-855
▁voet	-856
▁blijf	-857
▁th	-858
werk	-859
uziek	-860
▁enige	-861
▁horen	-862
▁allergisch	-863
ater	-864
▁meis	-865
▁eerste	-866
▁sneeuw	-867
▁hal	-868
▁interess	-869
boek	-870
▁pers	-871
▁plaats	-872
se	-873
del	-874
ilm	-875
▁ler	-876
▁huil	-877
▁geloof	-878
nis	-879
▁keu	-880
ouden	-881
▁dert	-882
▁vlie	-883
▁bedan	-884
▁nacht	-885
▁ouders	-886
▁duur	-887
zelfde	-888
▁geleden	-889
▁vergeten	-890
ide	-891
▁mo	-892
▁bev	-893
▁naam	-894
▁slaap	-895
▁spreekt	-896
ks	-897
▁beh	-898
▁pre	-899
▁gelo	-900
▁feest	-901
▁zorgen	-902
els	-903
▁hoel	-904
▁gesp	-905
▁denkt	-906
▁licht	-907
▁hoelang	-908
▁vertelde	-909
amil	-910
▁som	-911
▁tro	-912
▁zet	-913
▁oude	-914
▁hadden	-915
▁gebeuren	-916
onder	-917
▁famil	-918
▁ongel	-919
▁vertre	-920
▁drinken	-921
iv	-922
ass	-923
▁sm	-924
enen	-925
▁lee	-926
▁vor	-927
geten	-928
▁boos	-929
▁muziek	-930
ber	-931
▁jong	-932
▁dagen	-933
▁fiets	-934
▁persoon	-935
opt	-936
assen	-937
▁ster	-938
▁gevaar	-939
▁slapen	-940
▁studen	-941
bo	-942
fde	-943
▁ad	-944
aald	-945
angen	-946
▁mooi	-947
▁grote	-948
▁politie	-949
▁volgende	-950
ab	-951
ijs	-952
ine	-953
int	-954
▁fout	-955
▁belang	-956
▁av	-957
▁ij	-958
uist	-959
▁dol	-960
▁zat	-961
▁brief	-962
adeau	-963
ation	-964
▁film	-965
▁kijken	-966
erde	-967
over	-968
onken	-969
▁grap	-970
▁kind	-971
▁rijk	-972
▁ziek	-973
▁beste	-974
▁maakte	-975
bei	-976
▁pijn	-977
▁mogelijk	-978
land	-979
▁dokt	-980
▁herinn	-981
▁wereld	-982
▁schoenen	-983
▁spr	-984
akker	-985
▁bier	-986
▁bren	-987
▁zoon	-988
▁aange	-989
▁draag	-990
▁vindt	-991
▁antwoord	-992
▁vanavond	-993
▁vriendin	-994
oem	-995
aagd	-996
▁tien	-997
▁gelijk	-998
▁laatste	-999
stel	-1000
▁park	-1001
▁gegaan	-1002
▁bedankt	-1003
▁familie	-1004
▁verwacht	-1005
▁waarheid	-1006
ger	-1007
▁kop	-1008
▁rest	-1009
▁staan	-1010
▁vroeger	-1011
▁bi	-1012
waar	-1013
▁zus	-1014
▁gesl	-1015
▁hard	-1016
▁avond	-1017
▁dokter	-1018
▁allebei	-1019
▁proberen	-1020
▁buur	-1021
▁prec	-1022
▁wijn	-1023
▁gehad	-1024
ost	-1025
▁oor	-1026
▁rij	-1027
▁wees	-1028
▁leraar	-1029
▁belangrijk	-1030
iën	-1031
mid	-1032
aast	-1033
▁sin	-1034
aasap	-1035
▁melk	-1036
▁enkel	-1037
anderen	-1038
▁dingen	-1039
▁jongen	-1040
▁ongeluk	-1041
▁precies	-1042
▁sinaasap	-1043
▁gep	-1044
zicht	-1045
▁heen	-1046
▁vast	-1047
▁woordenboek	-1048
ok	-1049
▁ontb	-1050
▁sk	-1051
avor	-1052
▁heet	-1053
▁favor	-1054
▁stond	-1055
▁woonde	-1056
▁zieken	-1057
▁verhaal	-1058
▁denken	-1059
▁schoon	-1060
▁krijgen	-1061
io	-1062
▁vijf	-1063
▁japan	-1064
▁vreem	-1065
▁gegeten	-1066
▁geloven	-1067
▁favoriet	-1068
lu	-1069
zz	-1070
kom	-1071
kun	-1072
elde	-1073
▁comp	-1074
▁thee	-1075
▁zingen	-1076
▁ervan	-1077
▁roken	-1078
▁uitge	-1079
▁meisje	-1080
▁volgens	-1081
ail	-1082
oep	-1083
vis	-1084
▁or	-1085
reven	-1086
▁kent	-1087
▁liet	-1088
veling	-1089
▁ongev	-1090
▁bloemen	-1091
ne	-1092
gem	-1093
uld	-1094
▁vo	-1095
▁ijs	-1096
▁huiswerk	-1097
▁lieveling	-1098
▁ziekenhuis	-1099
▁ple	-1100
▁kost	-1101
▁viel	-1102
▁praat	-1103
▁verlie	-1104
▁begrijp	-1105
lar	-1106
uig	-1107
rouwd	-1108
▁blauw	-1109
▁reken	-1110
▁hoorde	-1111
▁rui	-1112
akken	-1113
▁aard	-1114
▁gedr	-1115
▁kant	-1116
▁dertig	-1117
▁spreek	-1118
ijl	-1119
kker	-1120
▁nat	-1121
uizen	-1122
▁kans	-1123
▁verr	-1124
▁recht	-1125
▁gister	-1126
▁keuken	-1127
▁stoppen	-1128
eken	-1129
olen	-1130
▁ren	-1131
▁minu	-1132
▁groen	-1133
▁gezond	-1134
▁liever	-1135
▁wakker	-1136
▁verdien	-1137
als	-1138
aur	-1139
eid	-1140
mee	-1141
▁lopen	-1142
rik	-1143
▁pen	-1144
▁leer	-1145
▁tuin	-1146
▁hoeft	-1147
▁omdat	-1148
▁verander	-1149
gr	-1150
man	-1151
leven	-1152
▁later	-1153
▁honden	-1154
▁tennis	-1155
▁gegeven	-1156
▁probeer	-1157
▁getrouwd	-1158
staan	-1159
▁raam	-1160
▁lievelings	-1161
res	-1162
▁zom	-1163
orden	-1164
▁foto	-1165
▁zeer	-1166
▁alsof	-1167
▁verge	-1168
▁eerder	-1169
▁voorzicht	-1170
schap	-1171
▁rood	-1172
▁brood	-1173
▁ontsl	-1174
▁katten	-1175
indelijk	-1176
▁maandag	-1177
▁favoriete	-1178
ce	-1179
ec	-1180
ts	-1181
amp	-1182
ure	-1183
urk	-1184
jaar	-1185
▁wis	-1186
▁pizz	-1187
aurant	-1188
▁lucht	-1189
▁momen	-1190
▁dansen	-1191
▁dollar	-1192
▁huilen	-1193
▁gevangen	-1194
uc	-1195
▁dik	-1196
achen	-1197
▁baan	-1198
▁cont	-1199
▁schil	-1200
▁sleut	-1201
▁eieren	-1202
▁langer	-1203
▁gehoord	-1204
▁studeren	-1205
▁gesproken	-1206
▁geschreven	-1207
▁gevaarlijk	-1208
▁voorzichtig	-1209
00	-1210
erd	-1211
oopt	-1212
raagd	-1213
▁prij	-1214
▁stil	-1215
▁tand	-1216
▁veil	-1217
▁afgel	-1218
▁parap	-1219
▁winnen	-1220
▁zouden	-1221
▁regenen	-1222
▁beginnen	-1223
▁restaurant	-1224
od	-1225
ect	-1226
ett	-1227
ield	-1228
inkt	-1229
▁nam	-1230
iteit	-1231
▁half	-1232
▁maand	-1233
▁mooie	-1234
▁cadeau	-1235
▁moment	-1236
▁winkel	-1237
uidelijk	-1238
▁erv	-1239
▁mid	-1240
▁riv	-1241
▁wit	-1242
▁bank	-1243
▁zoek	-1244
▁appels	-1245
▁nieuws	-1246
▁vergeet	-1247
▁gebruiken	-1248
▁makkelijk	-1249
▁probeerde	-1250
▁fa	-1251
eden	-1252
▁droeg	-1253
▁meest	-1254
▁geboren	-1255
▁gekomen	-1256
▁verloren	-1257
▁schrijven	-1258
fd	-1259
gde	-1260
▁can	-1261
▁pizza	-1262
▁handen	-1263
▁voelde	-1264
▁verschil	-1265
unt	-1266
tjes	-1267
veus	-1268
▁dor	-1269
▁hot	-1270
▁hoog	-1271
▁jurk	-1272
▁keek	-1273
houden	-1274
▁buurt	-1275
▁drink	-1276
▁kocht	-1277
▁lenen	-1278
▁betalen	-1279
▁nerveus	-1280
▁geworden	-1281
age	-1282
ele	-1283
spr	-1284
aden	-1285
uter	-1286
▁hen	-1287
▁taal	-1288
▁speelt	-1289
▁zoveel	-1290
▁verlaten	-1291
▁duidelijk	-1292
▁problemen	-1293
ift	-1294
val	-1295
▁ja	-1296
▁adv	-1297
▁dus	-1298
▁pas	-1299
onnen	-1300
▁amer	-1301
▁pian	-1302
▁post	-1303
▁eerst	-1304
▁trots	-1305
▁rivier	-1306
▁veilig	-1307
▁station	-1308
▁voetbal	-1309
▁vergader	-1310
▁afgelopen	-1311
ën	-1312
aard	-1313
hand	-1314
zaam	-1315
▁kap	-1316
▁pot	-1317
▁rond	-1318
▁tele	-1319
▁warm	-1320
▁halen	-1321
▁leeft	-1322
▁woord	-1323
▁draagt	-1324
oh	-1325
sn	-1326
arts	-1327
▁arm	-1328
▁pap	-1329
▁val	-1330
▁gehe	-1331
▁hoed	-1332
▁rust	-1333
▁zond	-1334
▁hield	-1335
▁kijkt	-1336
uwelijk	-1337
▁gebeurt	-1338
▁paraplu	-1339
▁stellen	-1340
▁ongeveer	-1341
▁begrijpen	-1342
elden	-1343
reden	-1344
▁zoals	-1345
▁gebouw	-1346
▁schree	-1347
▁nietwaar	-1348
get	-1349
wel	-1350
gene	-1351
▁don	-1352
▁jas	-1353
▁zen	-1354
▁docht	-1355
▁overt	-1356
▁zeven	-1357
▁gelezen	-1358
▁gevraagd	-1359
log	-1360
ren	-1361
zet	-1362
zig	-1363
▁fl	-1364
sing	-1365
achte	-1366
regen	-1367
▁fabr	-1368
▁niks	-1369
▁stude	-1370
▁aardig	-1371
▁amerik	-1372
▁japans	-1373
▁televis	-1374
▁computer	-1375
▁gestolen	-1376
▁hetzelfde	-1377
▁vergadering	-1378
▁sinaasappels	-1379
▁at	-1380
▁dronk	-1381
▁hotel	-1382
▁lekker	-1383
▁vissen	-1384
▁zondag	-1385
▁eerlijk	-1386
▁vertrekken	-1387
ei	-1388
aai	-1389
ell	-1390
druk	-1391
ieuw	-1392
room	-1393
kunde	-1394
okken	-1395
▁houd	-1396
▁stap	-1397
▁appel	-1398
▁bleef	-1399
▁brand	-1400
▁eruit	-1401
▁zenuw	-1402
▁bellen	-1403
▁manier	-1404
▁tussen	-1405
▁vreemd	-1406
▁nergens	-1407
▁gisteravond	-1408
▁interessant	-1409
ke	-1410
rek	-1411
▁em	-1412
ster	-1413
▁ern	-1414
▁zes	-1415
olpen	-1416
▁conc	-1417
▁mond	-1418
morgen	-1419
▁piano	-1420
▁degene	-1421
▁donker	-1422
▁enkele	-1423
▁minuten	-1424
▁trouwen	-1425
▁vertrouwen	-1426
are	-1427
leg	-1428
inds	-1429
wijl	-1430
▁hor	-1431
▁vij	-1432
ieten	-1433
▁dank	-1434
▁reis	-1435
▁skiën	-1436
▁verjaar	-1437
ax	-1438
los	-1439
ser	-1440
doen	-1441
▁mes	-1442
ische	-1443
▁doos	-1444
▁slim	-1445
▁verdr	-1446
▁rijden	-1447
▁bezocht	-1448
▁gebroken	-1449
oth	-1450
oemd	-1451
▁lin	-1452
▁tas	-1453
otheek	-1454
stellen	-1455
▁aardbe	-1456
▁begint	-1457
▁beslis	-1458
▁student	-1459
antwoorden	-1460
act	-1461
gest	-1462
▁pop	-1463
▁lied	-1464
elijke	-1465
▁soort	-1466
▁sterk	-1467
▁stier	-1468
▁bescher	-1469
▁geholpen	-1470
▁verjaardag	-1471
org	-1472
▁am	-1473
anen	-1474
loge	-1475
odig	-1476
▁bal	-1477
▁ein	-1478
▁verz	-1479
▁gingen	-1480
▁geleerd	-1481
▁gemakkelijk	-1482
▁zenuwachtig	-1483
les	-1484
wer	-1485
ocol	-1486
ookt	-1487
ucht	-1488
▁les	-1489
▁zak	-1490
derij	-1491
rokken	-1492
▁sinds	-1493
▁zomer	-1494
▁kennen	-1495
▁klinkt	-1496
▁horloge	-1497
▁ontbijt	-1498
bli	-1499
▁ar	-1500
▁dom	-1501
▁eur	-1502
▁med	-1503
eldig	-1504
nacht	-1505
▁somm	-1506
▁stuk	-1507
▁wand	-1508
nteress	-1509
▁chocol	-1510
▁groter	-1511
▁vorige	-1512
▁fabriek	-1513
▁luister	-1514
▁besloten	-1515
▁dezelfde	-1516
▁geweldig	-1517
nteresseerd	-1518
▁buitenland	-1519
est	-1520
▁sh	-1521
▁rad	-1522
leden	-1523
nieuw	-1524
wezig	-1525
▁aant	-1526
▁bibli	-1527
▁reden	-1528
▁canade	-1529
▁lachen	-1530
▁mannen	-1531
▁kantoor	-1532
▁gekregen	-1533
▁televisie	-1534
apt	-1535
ont	-1536
vol	-1537
eeld	-1538
▁bad	-1539
▁glas	-1540
▁feestje	-1541
▁gebruik	-1542
▁begonnen	-1543
akt	-1544
bel	-1545
toe	-1546
weg	-1547
stad	-1548
▁tev	-1549
▁gere	-1550
▁haal	-1551
▁hiel	-1552
▁leek	-1553
▁pind	-1554
▁vlees	-1555
▁waard	-1556
▁gewond	-1557
▁liefde	-1558
▁regent	-1559
▁dochter	-1560
▁sleutel	-1561
▁sterven	-1562
▁voorbij	-1563
▁bibliotheek	-1564
par	-1565
▁red	-1566
▁word	-1567
▁koken	-1568
▁marys	-1569
▁prijs	-1570
▁kleren	-1571
▁straat	-1572
▁strand	-1573
▁tijden	-1574
▁veroor	-1575
▁gebruikt	-1576
ffen	-1577
▁bab	-1578
▁joh	-1579
▁lun	-1580
maken	-1581
ureau	-1582
▁chin	-1583
▁deel	-1584
▁doel	-1585
▁erop	-1586
▁soms	-1587
▁geeft	-1588
▁bedoel	-1589
▁gevoel	-1590
▁stierf	-1591
▁beteken	-1592
▁verkeerd	-1593
ry	-1594
ale	-1595
pijn	-1596
▁oom	-1597
▁rom	-1598
stand	-1599
▁baby	-1600
▁klas	-1601
▁norm	-1602
▁rode	-1603
▁stel	-1604
spraak	-1605
▁boven	-1606
▁sprak	-1607
▁verdw	-1608
▁zwaar	-1609
▁betaald	-1610
▁slechte	-1611
▁eigenlijk	-1612
▁hoofdstad	-1613
cus	-1614
irt	-1615
aven	-1616
▁lan	-1617
antie	-1618
▁groe	-1619
middel	-1620
▁breng	-1621
▁talen	-1622
▁schuld	-1623
uwelijks	-1624
▁dronken	-1625
▁schrijf	-1626
▁vertrouw	-1627
▁chocolade	-1628
▁herinneren	-1629
▁veranderen	-1630
sm	-1631
ens	-1632
▁ho	-1633
ling	-1634
lood	-1635
▁leg	-1636
▁oog	-1637
▁pak	-1638
▁honk	-1639
achine	-1640
▁dorst	-1641
▁kwijt	-1642
▁lange	-1643
▁radio	-1644
▁stoel	-1645
gemaakt	-1646
▁kleine	-1647
▁werden	-1648
▁anderen	-1649
▁normaal	-1650
▁voordat	-1651
▁zichzelf	-1652
▁studenten	-1653
iml	-1654
ming	-1655
▁bek	-1656
▁goo	-1657
eiden	-1658
▁heer	-1659
▁john	-1660
achten	-1661
▁fotos	-1662
▁gliml	-1663
▁haast	-1664
▁juist	-1665
▁lunch	-1666
▁raakt	-1667
▁geheim	-1668
▁tanden	-1669
▁teleur	-1670
▁vallen	-1671
▁vliegt	-1672
▁opnieuw	-1673
▁potlood	-1674
▁prachtig	-1675
▁wiskunde	-1676
▁y	-1677
gew	-1678
ied	-1679
pig	-1680
ager	-1681
gebr	-1682
komt	-1683
ugen	-1684
uurd	-1685
vers	-1686
▁afw	-1687
▁bot	-1688
▁tax	-1689
kamer	-1690
▁help	-1691
▁verv	-1692
vangen	-1693
▁blijft	-1694
▁fouten	-1695
▁iedere	-1696
▁verder	-1697
▁sommige	-1698
▁tandarts	-1699
▁luisteren	-1700
zel	-1701
rijf	-1702
ummer	-1703
▁kree	-1704
▁stem	-1705
▁bezig	-1706
▁email	-1707
▁europ	-1708
akantie	-1709
▁blauwe	-1710
▁ergens	-1711
▁tweede	-1712
▁vrouwen	-1713
▁gewoonlijk	-1714
ias	-1715
iep	-1716
▁un	-1717
gang	-1718
inig	-1719
ijnen	-1720
ouder	-1721
▁ocht	-1722
▁raad	-1723
▁gepro	-1724
▁helpt	-1725
▁kreeg	-1726
▁oplos	-1727
▁verle	-1728
▁versl	-1729
▁voelt	-1730
▁vogel	-1731
▁jezelf	-1732
▁moeite	-1733
▁sokken	-1734
▁gewoond	-1735
▁meestal	-1736
▁gebeurde	-1737
▁verschrik	-1738
ac	-1739
az	-1740
up	-1741
ard	-1742
oft	-1743
sel	-1744
tig	-1745
▁exp	-1746
beerd	-1747
▁fles	-1748
▁goud	-1749
▁leeg	-1750
▁begin	-1751
▁kapot	-1752
▁vlieg	-1753
▁zelfs	-1754
▁bekend	-1755
▁hoefde	-1756
▁meeste	-1757
▁natuur	-1758
▁oorlog	-1759
▁weinig	-1760
▁brengen	-1761
▁ochtend	-1762
▁gewonnen	-1763
me	-1764
ord	-1765
ots	-1766
ult	-1767
▁la	-1768
iste	-1769
▁kal	-1770
▁sta	-1771
▁boom	-1772
▁kerk	-1773
▁vier	-1774
▁vuur	-1775
middag	-1776
nummer	-1777
▁kopje	-1778
▁kwaad	-1779
▁vandaan	-1780
▁schuldig	-1781
▁tevreden	-1782
▁avondeten	-1783
▁aangekomen	-1784
▁geprobeerd	-1785
▁verschrikkelijk	-1786
if	-1787
iens	-1788
igde	-1789
loos	-1790
chten	-1791
vader	-1792
▁afge	-1793
▁bril	-1794
▁medic	-1795
▁sport	-1796
▁stuur	-1797
▁veren	-1798
▁zwart	-1799
▁honkbal	-1800
▁aanwezig	-1801
▁onmiddel	-1802
▁verdient	-1803
▁vermoord	-1804
▁vliegtuig	-1805
▁nauwelijks	-1806
▁persoonlijk	-1807
▁onmiddellijk	-1808
elt	-1809
igd	-1810
ler	-1811
moe	-1812
atis	-1813
erkt	-1814
ooft	-1815
zijn	-1816
▁ser	-1817
kende	-1818
orven	-1819
▁kaar	-1820
▁koop	-1821
▁snap	-1822
achter	-1823
elkast	-1824
▁belde	-1825
▁duren	-1826
▁goedk	-1827
▁krant	-1828
▁krijg	-1829
▁neemt	-1830
▁vorig	-1831
gesteld	-1832
▁gemist	-1833
▁indruk	-1834
▁marias	-1835
▁slaapt	-1836
▁gelooft	-1837
▁genomen	-1838
▁tijdens	-1839
▁weekend	-1840
▁koelkast	-1841
▁ontmoeten	-1842
▁ontslagen	-1843
▁gevangenis	-1844
▁gezondheid	-1845
bs	-1846
dige	-1847
eefd	-1848
entr	-1849
voor	-1850
▁ban	-1851
▁nou	-1852
uigen	-1853
▁klok	-1854
▁liep	-1855
▁mens	-1856
▁spel	-1857
▁uite	-1858
▁zaak	-1859
aatsen	-1860
▁berei	-1861
▁einde	-1862
▁negen	-1863
▁plots	-1864
▁taart	-1865
▁verpl	-1866
gekomen	-1867
▁broers	-1868
▁bureau	-1869
▁dragen	-1870
▁jonger	-1871
▁pindas	-1872
▁uitleg	-1873
▁winter	-1874
▁gezicht	-1875
▁naartoe	-1876
▁herinner	-1877
▁verkopen	-1878
▁verlegen	-1879
▁veranderd	-1880
▁uiteindelijk	-1881
eeg	-1882
▁ac	-1883
▁di	-1884
▁gef	-1885
▁wed	-1886
aaien	-1887
ippen	-1888
▁aanv	-1889
▁boer	-1890
▁kast	-1891
▁lees	-1892
▁ruim	-1893
▁team	-1894
▁droom	-1895
▁gezin	-1896
▁volle	-1897
▁beiden	-1898
▁beloof	-1899
▁dieren	-1900
▁europa	-1901
▁landen	-1902
▁minder	-1903
▁amerika	-1904
▁handsch	-1905
▁speelde	-1906
▁terwijl	-1907
▁verliefd	-1908
ces	-1909
eet	-1910
ick	-1911
rit	-1912
king	-1913
ving	-1914
▁gij	-1915
▁god	-1916
▁dier	-1917
▁valt	-1918
▁zult	-1919
onderd	-1920
▁mijne	-1921
▁mogen	-1922
▁rende	-1923
▁twijf	-1924
ochtend	-1925
▁drinkt	-1926
▁meteen	-1927
▁mezelf	-1928
▁zelden	-1929
▁biertje	-1930
▁gestopt	-1931
▁jongens	-1932
▁vermoed	-1933
▁gesloten	-1934
▁leeftijd	-1935
▁eindelijk	-1936
▁beantwoorden	-1937
ow	-1938
dem	-1939
emd	-1940
kto	-1941
▁ok	-1942
ante	-1943
cept	-1944
ingt	-1945
oets	-1946
▁suc	-1947
▁tok	-1948
ement	-1949
ieden	-1950
uiker	-1951
▁kort	-1952
▁okto	-1953
▁plek	-1954
▁toek	-1955
▁advoc	-1956
▁hielp	-1957
▁keuze	-1958
▁leest	-1959
▁witte	-1960
spreken	-1961
▁konden	-1962
▁stopte	-1963
▁succes	-1964
▁beroemd	-1965
▁geraakt	-1966
▁meisjes	-1967
▁oktober	-1968
▁schreef	-1969
▁betekent	-1970
▁vriendelijk	-1971
kw	-1972
app	-1973
itu	-1974
oef	-1975
leed	-1976
▁git	-1977
▁law	-1978
▁nee	-1979
▁vul	-1980
annen	-1981
halen	-1982
▁fijn	-1983
▁hart	-1984
▁taxi	-1985
▁trok	-1986
▁autos	-1987
▁eraan	-1988
▁ermee	-1989
▁klopt	-1990
▁weken	-1991
▁wiens	-1992
genomen	-1993
▁betaal	-1994
▁gratis	-1995
▁opende	-1996
▁papier	-1997
▁suiker	-1998
▁zoiets	-1999
▁dertien	-2000
▁bezoeken	-2001
▁grootste	-2002
▁overtuig	-2003
▁vannacht	-2004
ake	-2005
bad	-2006
mis	-2007
anje	-2008
heen	-2009
omst	-2010
▁app	-2011
▁bos	-2012
▁ges	-2013
▁mil	-2014
▁rug	-2015
▁sol	-2016
▁uni	-2017
▁zee	-2018
getar	-2019
ierig	-2020
intig	-2021
▁plat	-2022
▁situ	-2023
▁slie	-2024
▁zorg	-2025
▁beide	-2026
▁hopen	-2027
▁kleur	-2028
▁loopt	-2029
▁naast	-2030
▁shirt	-2031
▁versp	-2032
▁zaten	-2033
▁contro	-2034
▁eentje	-2035
▁ernaar	-2036
▁liggen	-2037
▁concert	-2038
▁grappig	-2039
▁univers	-2040
▁vegetar	-2041
▁verstop	-2042
▁toekomst	-2043
▁gestorven	-2044
antwoordelijk	-2045
oer	-2046
daan	-2047
eend	-2048
ioen	-2049
maal	-2050
ogen	-2051
stem	-2052
wijs	-2053
▁dak	-2054
▁gar	-2055
▁int	-2056
▁let	-2057
▁ruz	-2058
▁war	-2059
odigd	-2060
▁hoef	-2061
▁ving	-2062
▁voed	-2063
▁sloeg	-2064
▁vanaf	-2065
▁kwamen	-2066
▁uitgen	-2067
▁voelen	-2068
▁ziekte	-2069
▁bedrijf	-2070
▁advocaat	-2071
▁probeert	-2072
▁situatie	-2073
▁gedronken	-2074
▁overtuigd	-2075
▁vanmiddag	-2076
▁vanmorgen	-2077
▁vertrokken	-2078
▁uitgenodigd	-2079
rok	-2080
ula	-2081
▁dw	-2082
▁su	-2083
▁ty	-2084
oeid	-2085
orry	-2086
rest	-2087
rift	-2088
▁kou	-2089
▁pat	-2090
unten	-2091
▁baas	-2092
▁dien	-2093
▁last	-2094
▁muur	-2095
▁punt	-2096
▁uitz	-2097
cadeau	-2098
uizend	-2099
▁bezor	-2100
▁bleek	-2101
▁echte	-2102
▁fruit	-2103
▁sorry	-2104
▁advies	-2105
▁behand	-2106
▁erover	-2107
▁hoogte	-2108
▁kosten	-2109
▁mening	-2110
▁regels	-2111
▁rennen	-2112
▁zoeken	-2113
gevallen	-2114
▁gedacht	-2115
▁schelen	-2116
▁verschillen	-2117
▁telefoonnummer	-2118
ame	-2119
ente	-2120
kort	-2121
spel	-2122
stof	-2123
veld	-2124
▁ang	-2125
▁gol	-2126
▁oef	-2127
appen	-2128
ikken	-2129
▁berg	-2130
▁rijd	-2131
▁rook	-2132
▁wegg	-2133
▁weig	-2134
▁mocht	-2135
▁gebeld	-2136
▁koffer	-2137
gebracht	-2138
▁gebouwd	-2139
▁schrijft	-2140
▁studeert	-2141
▁verenigde	-2142
▁verliezen	-2143
▁voorstellen	-2144
▁teleurgesteld	-2145
tr	-2146
vl	-2147
eum	-2148
iër	-2149
▁im	-2150
dekt	-2151
ijst	-2152
kaar	-2153
kant	-2154
kwam	-2155
ress	-2156
teur	-2157
▁ind	-2158
▁koe	-2159
▁los	-2160
▁res	-2161
anten	-2162
heden	-2163
kelen	-2164
oegen	-2165
▁begr	-2166
▁neer	-2167
▁wind	-2168
bewijs	-2169
▁paard	-2170
▁tokio	-2171
▁postze	-2172
▁raakte	-2173
▁toeval	-2174
▁zetten	-2175
schuldig	-2176
▁geleend	-2177
▁plannen	-2178
▁verrast	-2179
▁vliegen	-2180
▁zwembad	-2181
▁heerlijk	-2182
▁overleden	-2183
▁vliegveld	-2184
▁beslissing	-2185
▁natuurlijk	-2186
lig	-2187
uff	-2188
echt	-2189
eter	-2190
fect	-2191
ieke	-2192
olog	-2193
uwen	-2194
▁bar	-2195
▁ele	-2196
▁kor	-2197
▁mus	-2198
aring	-2199
illen	-2200
▁diep	-2201
▁duit	-2202
▁mist	-2203
▁past	-2204
▁port	-2205
▁slot	-2206
strijd	-2207
▁allen	-2208
▁langs	-2209
▁nogal	-2210
▁ontsn	-2211
▁repar	-2212
▁zonne	-2213
▁zowel	-2214
▁bereid	-2215
▁examen	-2216
▁leugen	-2217
▁missen	-2218
▁popula	-2219
▁werkte	-2220
▁besloot	-2221
▁bestaat	-2222
▁bezorgd	-2223
▁gewerkt	-2224
▁ontslag	-2225
▁canadees	-2226
▁rekening	-2227
▁sneeuwen	-2228
▁ontvangen	-2229
pd	-2230
zin	-2231
▁ir	-2232
auff	-2233
derd	-2234
▁amb	-2235
▁gat	-2236
▁lag	-2237
▁mot	-2238
▁oké	-2239
▁rei	-2240
beeld	-2241
isten	-2242
licht	-2243
sioen	-2244
▁adem	-2245
▁blik	-2246
▁kalm	-2247
▁noem	-2248
▁plez	-2249
▁spec	-2250
▁trap	-2251
▁afwas	-2252
▁bomen	-2253
▁boter	-2254
▁geval	-2255
▁liegt	-2256
▁rijst	-2257
▁sliep	-2258
▁vrees	-2259
▁zette	-2260
auffeur	-2261
▁appart	-2262
▁gitaar	-2263
▁lawaai	-2264
▁liedje	-2265
▁result	-2266
▁smaakt	-2267
▁besteld	-2268
▁daarmee	-2269
▁verhuis	-2270
▁gestuurd	-2271
▁gevallen	-2272
▁pensioen	-2273
▁beschermen	-2274
▁grootvader	-2275
▁vegetariër	-2276
▁sinaasappel	-2277
▁universiteit	-2278
ric	-2279
vel	-2280
arte	-2281
gele	-2282
goed	-2283
ieus	-2284
lang	-2285
▁bas	-2286
▁dou	-2287
▁dui	-2288
▁kam	-2289
▁las	-2290
▁sig	-2291
▁vre	-2292
▁woe	-2293
anger	-2294
loven	-2295
racht	-2296
wagen	-2297
▁geel	-2298
▁angst	-2299
▁bloed	-2300
▁elekt	-2301
▁opsch	-2302
▁verbl	-2303
▁zagen	-2304
▁behoor	-2305
▁bewijs	-2306
▁bezoek	-2307
▁gemeen	-2308
▁lachte	-2309
▁liegen	-2310
▁ruimte	-2311
▁schijn	-2312
▁waarde	-2313
▁zwarte	-2314
stemming	-2315
▁beneden	-2316
▁dichtst	-2317
▁maanden	-2318
▁begrijpt	-2319
▁vakantie	-2320
▁boerderij	-2321
▁rijbewijs	-2322
▁appartement	-2323
▁veroorloven	-2324
▁sinaasappelsap	-2325
agh	-2326
hou	-2327
tel	-2328
iend	-2329
oekt	-2330
tern	-2331
▁nag	-2332
▁num	-2333
▁onm	-2334
atief	-2335
etten	-2336
ieven	-2337
terij	-2338
▁bood	-2339
▁knap	-2340
▁prod	-2341
▁slap	-2342
▁vern	-2343
aghett	-2344
groeid	-2345
zetten	-2346
▁douch	-2347
▁erger	-2348
▁excus	-2349
▁kaart	-2350
▁kunst	-2351
▁schat	-2352
▁schip	-2353
▁steen	-2354
achtige	-2355
▁aantal	-2356
▁bewust	-2357
▁ervoor	-2358
▁garage	-2359
▁kussen	-2360
▁reizen	-2361
▁rustig	-2362
▁wisten	-2363
▁bericht	-2364
▁sneller	-2365
▁sterren	-2366
▁twintig	-2367
▁verbaas	-2368
▁voedsel	-2369
▁voorber	-2370
▁gebleven	-2371
▁kerstmis	-2372
▁spaghett	-2373
▁verkocht	-2374
▁aardbeien	-2375
▁onmogelijk	-2376
▁kerstcadeau	-2377
▁handschoenen	-2378
ud	-2379
gek	-2380
ikt	-2381
onn	-2382
alve	-2383
bren	-2384
doek	-2385
rect	-2386
▁bla	-2387
▁mob	-2388
▁nut	-2389
▁ste	-2390
dagen	-2391
ouwen	-2392
spect	-2393
woord	-2394
▁bevr	-2395
▁brak	-2396
▁meen	-2397
▁raar	-2398
▁vlak	-2399
▁zout	-2400
▁ernst	-2401
▁frank	-2402
▁grond	-2403
▁hekel	-2404
▁jaren	-2405
▁speci	-2406
▁trouw	-2407
brengen	-2408
▁bracht	-2409
▁geluid	-2410
▁koning	-2411
▁laatst	-2412
▁levens	-2413
▁middag	-2414
▁staten	-2415
▁stelde	-2416
▁vogels	-2417
▁wassen	-2418
▁gedicht	-2419
▁vertrek	-2420
▁gewassen	-2421
▁luistert	-2422
▁verstaan	-2423
▁voorstel	-2424
▁ontmoette	-2425
▁uitleggen	-2426
fo	-2427
kl	-2428
bod	-2429
fst	-2430
win	-2431
▁pa	-2432
auze	-2433
erig	-2434
geld	-2435
keur	-2436
▁mer	-2437
▁wol	-2438
deerd	-2439
ijven	-2440
ongen	-2441
repen	-2442
veren	-2443
wegen	-2444
▁enig	-2445
▁huur	-2446
▁kies	-2447
▁onge	-2448
▁vlug	-2449
▁vuil	-2450
genoot	-2451
gierig	-2452
plaats	-2453
▁drank	-2454
▁hallo	-2455
▁ontsp	-2456
▁opgel	-2457
▁polit	-2458
▁ruzie	-2459
▁sluit	-2460
▁super	-2461
▁wapen	-2462
gelaten	-2463
▁betere	-2464
▁gedood	-2465
▁hoeven	-2466
▁middel	-2467
▁mobiel	-2468
▁nummer	-2469
▁overal	-2470
▁zussen	-2471
▁beloofd	-2472
▁gewacht	-2473
▁slechts	-2474
▁spinnen	-2475
▁ervaring	-2476
▁goedkoop	-2477
▁wandelen	-2478
▁frankrijk	-2479
▁hoofdpijn	-2480
▁spaghetti	-2481
▁aardbeving	-2482
▁opgegroeid	-2483
▁toestemming	-2484
▁nieuwsgierig	-2485
na	-2486
sb	-2487
mar	-2488
urt	-2489
zer	-2490
▁ei	-2491
▁fe	-2492
▁it	-2493
naam	-2494
ozen	-2495
▁act	-2496
▁dis	-2497
▁opt	-2498
▁wen	-2499
ullen	-2500
wezen	-2501
▁aand	-2502
▁brug	-2503
▁cake	-2504
▁draa	-2505
▁golf	-2506
▁gras	-2507
▁loog	-2508
▁stom	-2509
▁uitn	-2510
▁vres	-2511
gelijk	-2512
lingen	-2513
moeder	-2514
▁aarde	-2515
▁autor	-2516
▁bloem	-2517
▁hemel	-2518
▁richt	-2519
▁ruikt	-2520
▁steek	-2521
▁teken	-2522
▁vrije	-2523
atterij	-2524
machine	-2525
▁gewend	-2526
▁grapje	-2527
▁ideeën	-2528
▁museum	-2529
▁openen	-2530
▁passen	-2531
▁uitste	-2532
▁bananen	-2533
▁gelogen	-2534
▁japanse	-2535
▁perfect	-2536
▁prijzen	-2537
▁sneeuwt	-2538
▁twijfel	-2539
▁vechten	-2540
▁verveel	-2541
▁daarover	-2542
▁sleutels	-2543
▁vertalen	-2544
▁vertrekt	-2545
▁prachtige	-2546
▁behoorlijk	-2547
▁leerlingen	-2548
▁verschillende	-2549
bb	-2550
kk	-2551
nt	-2552
aap	-2553
ukt	-2554
boom	-2555
form	-2556
oken	-2557
ropd	-2558
zoen	-2559
▁ham	-2560
▁wal	-2561
ijker	-2562
ijzen	-2563
markt	-2564
teken	-2565
▁been	-2566
▁eeuw	-2567
▁extr	-2568
▁hang	-2569
▁koek	-2570
▁orde	-2571
▁pist	-2572
▁zoet	-2573
▁zons	-2574
aarden	-2575
gegaan	-2576
▁blind	-2577
▁china	-2578
▁droog	-2579
▁kende	-2580
▁lijst	-2581
▁moord	-2582
▁sigar	-2583
▁zingt	-2584
▁daarom	-2585
▁klagen	-2586
▁redden	-2587
▁stropd	-2588
▁behalve	-2589
▁control	-2590
▁plezier	-2591
▁regende	-2592
▁rekenen	-2593
▁serieus	-2594
▁afspraak	-2595
▁batterij	-2596
▁geslapen	-2597
▁langzaam	-2598
▁populair	-2599
▁oplossing	-2600
▁autorijden	-2601
▁overtuigen	-2602
▁plotseling	-2603
pr	-2604
geb	-2605
hal	-2606
one	-2607
pro	-2608
vou	-2609
▁sy	-2610
aagt	-2611
aans	-2612
bare	-2613
taal	-2614
uild	-2615
uwde	-2616
▁abs	-2617
▁art	-2618
▁bes	-2619
▁lui	-2620
▁neg	-2621
▁new	-2622
▁rec	-2623
atuur	-2624
etjes	-2625
itter	-2626
kaart	-2627
moord	-2628
oorts	-2629
wijls	-2630
▁dorp	-2631
▁gepl	-2632
▁kaal	-2633
▁loop	-2634
▁sold	-2635
▁toon	-2636
▁zijt	-2637
denken	-2638
winkel	-2639
▁beurt	-2640
▁broek	-2641
▁camer	-2642
▁dieet	-2643
▁duurt	-2644
▁engel	-2645
▁flauw	-2646
▁grijs	-2647
▁hamer	-2648
▁overh	-2649
▁pauze	-2650
▁rijdt	-2651
▁rookt	-2652
▁smaak	-2653
▁toets	-2654
▁tweel	-2655
▁zaken	-2656
▁eenvou	-2657
▁harder	-2658
▁huilde	-2659
▁krijgt	-2660
▁nachts	-2661
▁vergat	-2662
▁brieven	-2663
▁rechter	-2664
▁respect	-2665
▁stonden	-2666
▁verkeer	-2667
▁vreemde	-2668
▁dikwijls	-2669
▁verbaasd	-2670
▁beslissen	-2671
▁luisterde	-2672
▁zelfmoord	-2673
▁politieagen	-2674
enk	-2675
iss	-2676
ket	-2677
deel	-2678
ding	-2679
ieve	-2680
zien	-2681
▁akk	-2682
▁aub	-2683
▁bui	-2684
▁col	-2685
▁rot	-2686
▁yen	-2687
ieken	-2688
iezen	-2689
▁gear	-2690
▁lamp	-2691
▁milj	-2692
▁neus	-2693
▁prof	-2694
▁real	-2695
▁spin	-2696
▁stak	-2697
entuin	-2698
kijken	-2699
▁friet	-2700
▁gered	-2701
▁knuff	-2702
▁korte	-2703
▁legde	-2704
▁namen	-2705
▁overw	-2706
▁ramen	-2707
iedenis	-2708
▁accept	-2709
▁bleven	-2710
▁dromen	-2711
▁franse	-2712
▁herken	-2713
▁onderz	-2714
▁schiet	-2715
▁zakken	-2716
gevonden	-2717
▁akkoord	-2718
▁chinees	-2719
▁contact	-2720
▁ongeval	-2721
▁pistool	-2722
▁planeet	-2723
▁schijnt	-2724
▁spijker	-2725
▁bereiken	-2726
▁ondersch	-2727
▁onderweg	-2728
▁ontbeten	-2729
▁ophouden	-2730
▁slaperig	-2731
▁stropdas	-2732
▁tweeling	-2733
▁verkoopt	-2734
▁winkelen	-2735
▁verkeerde	-2736
▁antwoorden	-2737
▁dichtstbij	-2738
▁dierentuin	-2739
▁schilderij	-2740
▁voorbereid	-2741
▁geschiedenis	-2742
ib	-2743
dra	-2744
ogr	-2745
uut	-2746
zij	-2747
▁cd	-2748
▁mn	-2749
▁vi	-2750
▁zn	-2751
azen	-2752
ders	-2753
digd	-2754
imen	-2755
oper	-2756
punt	-2757
▁bep	-2758
▁eil	-2759
▁kip	-2760
▁ris	-2761
▁tem	-2762
▁ven	-2763
▁won	-2764
▁zil	-2765
▁zui	-2766
bliek	-2767
delen	-2768
eloos	-2769
feest	-2770
ident	-2771
oemen	-2772
usten	-2773
▁bele	-2774
▁cent	-2775
▁fiet	-2776
▁fris	-2777
▁kaas	-2778
▁maal	-2779
▁reed	-2780
▁soep	-2781
▁stof	-2782
▁trui	-2783
▁vers	-2784
▁zuur	-2785
▁zwak	-2786
oestel	-2787
ubliek	-2788
zijnde	-2789
▁enorm	-2790
▁lente	-2791
▁raken	-2792
▁roman	-2793
▁vrede	-2794
▁warme	-2795
▁zodra	-2796
elligen	-2797
kantoor	-2798
▁biolog	-2799
▁douche	-2800
▁gooide	-2801
▁inform	-2802
▁kennis	-2803
▁lijken	-2804
▁gelaten	-2805
▁kleuren	-2806
▁moesten	-2807
▁volgend	-2808
▁geduldig	-2809
▁geslagen	-2810
▁groenten	-2811
▁eenvoudig	-2812
▁opgegeten	-2813
▁repareren	-2814
▁verhuizen	-2815
▁intelligen	-2816
▁ongelukkig	-2817
▁onschuldig	-2818
▁opschieten	-2819
▁postkantoor	-2820
▁interesseert	-2821
▁morgenochtend	-2822
di	-2823
hi	-2824
ama	-2825
anc	-2826
aut	-2827
bur	-2828
ham	-2829
min	-2830
zak	-2831
aris	-2832
coop	-2833
ings	-2834
kers	-2835
oden	-2836
reep	-2837
wege	-2838
▁bur	-2839
▁rol	-2840
▁sec	-2841
▁sla	-2842
▁ufo	-2843
aalde	-2844
aanse	-2845
brand	-2846
poort	-2847
uiven	-2848
▁ding	-2849
▁klim	-2850
▁lich	-2851
▁noch	-2852
▁nood	-2853
▁ontw	-2854
▁wens	-2855
▁adres	-2856
▁buren	-2857
▁hangt	-2858
▁klass	-2859
▁links	-2860
▁motor	-2861
▁regel	-2862
▁zulke	-2863
▁camera	-2864
▁juiste	-2865
▁linker	-2866
▁ogenbl	-2867
▁rechts	-2868
▁slager	-2869
▁veront	-2870
▁voeten	-2871
▁bestaan	-2872
▁gelieve	-2873
▁studeer	-2874
▁verdiep	-2875
▁vooruit	-2876
▁wachtte	-2877
▁weggaan	-2878
▁medicijn	-2879
▁paspoort	-2880
▁schouder	-2881
▁uitnodig	-2882
▁verstand	-2883
▁cadeautje	-2884
▁momenteel	-2885
▁wedstrijd	-2886
▁informatie	-2887
▁supermarkt	-2888
▁wachtwoord	-2889
▁schoonmaken	-2890
ub	-2891
amm	-2892
goo	-2893
ico	-2894
ium	-2895
red	-2896
aars	-2897
cent	-2898
eekt	-2899
gend	-2900
ikel	-2901
ject	-2902
kens	-2903
orst	-2904
raat	-2905
▁det	-2906
▁gsm	-2907
▁hit	-2908
▁log	-2909
▁mel	-2910
▁omh	-2911
▁zor	-2912
aagde	-2913
apper	-2914
komst	-2915
oluut	-2916
stoel	-2917
▁bord	-2918
▁fant	-2919
▁hemd	-2920
▁hoge	-2921
▁kwal	-2922
▁saai	-2923
▁uren	-2924
▁vent	-2925
▁wort	-2926
boeken	-2927
school	-2928
slagen	-2929
udeerd	-2930
wassen	-2931
▁bruin	-2932
▁doden	-2933
▁kerel	-2934
▁leert	-2935
▁onver	-2936
▁storm	-2937
▁tante	-2938
▁aanger	-2939
▁gebied	-2940
▁haalde	-2941
▁hambur	-2942
▁leggen	-2943
▁oranje	-2944
▁produc	-2945
▁sprong	-2946
▁tijdje	-2947
▁verber	-2948
▁verzam	-2949
▁wilden	-2950
rouwbaar	-2951
▁bewegen	-2952
▁fietsen	-2953
▁kleiner	-2954
▁knippen	-2955
▁koekjes	-2956
▁lichaam	-2957
▁paarden	-2958
▁sluiten	-2959
▁tomaten	-2960
▁trekken	-2961
▁verliet	-2962
▁verrass	-2963
▁vertrok	-2964
▁begrepen	-2965
▁erachter	-2966
▁herhalen	-2967
▁oplossen	-2968
▁richting	-2969
▁soldaten	-2970
▁verdriet	-2971
▁vergeven	-2972
▁verhuisd	-2973
▁klassieke	-2974
▁schaatsen	-2975
▁moedertaal	-2976
▁uitgegeven	-2977
▁vermoorden	-2978
▁grootmoeder	-2979
vo	-2980
aft	-2981
kle	-2982
ork	-2983
dien	-2984
icit	-2985
iënt	-2986
line	-2987
onde	-2988
slag	-2989
werp	-2990
▁cou	-2991
▁hum	-2992
▁kil	-2993
▁lid	-2994
▁pan	-2995
▁typ	-2996
alent	-2997
ampen	-2998
aptop	-2999
digde	-3000
haven	-3001
iegel	-3002
juist	-3003
lopen	-3004
sland	-3005
stens	-3006
zeker	-3007
▁aanr	-3008
▁arts	-3009
▁inge	-3010
▁keus	-3011
▁kook	-3012
▁lach	-3013
▁leef	-3014
▁trek	-3015
▁vies	-3016
▁vlag	-3017
▁york	-3018
aarzen	-3019
aasten	-3020
entrum	-3021
etting	-3022
rijven	-3023
speler	-3024
vallen	-3025
▁beval	-3026
▁bevin	-3027
▁deden	-3028
▁fotot	-3029
▁gevol	-3030
▁hoort	-3031
▁irrit	-3032
▁koude	-3033
▁onbel	-3034
▁onzin	-3035
▁rozen	-3036
▁slaat	-3037
▁zwemt	-3038
▁aanbod	-3039
▁laptop	-3040
▁minuut	-3041
▁oudere	-3042
▁tranen	-3043
▁vijand	-3044
▁volgde	-3045
▁vraagt	-3046
▁vracht	-3047
▁aantrek	-3048
▁begreep	-3049
▁druiven	-3050
▁eenzaam	-3051
▁oefenen	-3052
▁publiek	-3053
▁aankomen	-3054
▁absoluut	-3055
▁bescherm	-3056
▁geschenk	-3057
▁kerstman	-3058
▁ogenblik	-3059
▁overhemd	-3060
▁volledig	-3061
▁bespreken	-3062
▁boodschap	-3063
▁interesse	-3064
▁kerstkaar	-3065
▁moeilijke	-3066
▁overleven	-3067
▁speelgoed	-3068
▁tegenover	-3069
▁toevallig	-3070
▁verandert	-3071
▁postzegels	-3072
▁wetenschap	-3073
▁fototoestel	-3074
▁uitgevonden	-3075
▁uitnodiging	-3076
▁aantrekkelijk	-3077
ada	-3078
ain	-3079
bby	-3080
cks	-3081
gan	-3082
ima	-3083
omp	-3084
pad	-3085
put	-3086
vig	-3087
▁ku	-3088
ares	-3089
aste	-3090
dder	-3091
dend	-3092
dent	-3093
gist	-3094
iest	-3095
mers	-3096
owbo	-3097
stuk	-3098
vert	-3099
weer	-3100
wijf	-3101
zaak	-3102
▁bag	-3103
▁idi	-3104
▁ket	-3105
▁nad	-3106
▁opa	-3107
▁rel	-3108
▁rok	-3109
▁sal	-3110
broek	-3111
ckson	-3112
iding	-3113
laten	-3114
oppen	-3115
▁erin	-3116
▁feit	-3117
▁onbe	-3118
▁oren	-3119
▁prin	-3120
▁raak	-3121
▁vele	-3122
▁vloe	-3123
▁wier	-3124
▁zong	-3125
eizoen	-3126
genaam	-3127
teland	-3128
▁blijk	-3129
▁blond	-3130
▁kookt	-3131
▁kuste	-3132
▁proef	-3133
▁schud	-3134
▁sneed	-3135
▁twaal	-3136
▁vijft	-3137
blijven	-3138
honderd	-3139
schrift	-3140
station	-3141
▁belach	-3142
▁beloft	-3143
▁dienst	-3144
▁direct	-3145
▁koorts	-3146
▁modder	-3147
▁vanuit	-3148
stelling	-3149
vakantie	-3150
▁gerucht	-3151
▁gewicht	-3152
▁gezocht	-3153
▁haasten	-3154
▁jackson	-3155
▁laarzen	-3156
▁lunchen	-3157
▁opdagen	-3158
▁vanwege	-3159
▁vertelt	-3160
▁zachter	-3161
▁dankbaar	-3162
▁gehouden	-3163
▁handdoek	-3164
▁redelijk	-3165
▁speciaal	-3166
▁vriendje	-3167
▁blijkbaar	-3168
▁tennissen	-3169
▁verkouden	-3170
▁volwassen	-3171
▁vreselijk	-3172
▁beantwoord	-3173
▁gestudeerd	-3174
▁ontsnappen	-3175
▁overmorgen	-3176
▁platteland	-3177
▁verdieping	-3178
▁belachelijk	-3179
▁doorbrengen	-3180
▁intelligent	-3181
▁vrachtwagen	-3182
▁politieagent	-3183
cu	-3184
sh	-3185
eep	-3186
erp	-3187
lus	-3188
▁as	-3189
▁ol	-3190
▁oo	-3191
enis	-3192
foon	-3193
reek	-3194
rika	-3195
tien	-3196
zeel	-3197
▁din	-3198
▁eén	-3199
▁pad	-3200
▁vlo	-3201
▁wet	-3202
ammer	-3203
atten	-3204
bsite	-3205
emonn	-3206
erend	-3207
etter	-3208
halte	-3209
kleur	-3210
maakt	-3211
steld	-3212
uster	-3213
verfd	-3214
vlees	-3215
water	-3216
▁besp	-3217
▁eind	-3218
▁hoek	-3219
▁knop	-3220
▁lift	-3221
▁maat	-3222
▁pres	-3223
▁stij	-3224
▁volg	-3225
orstel	-3226
▁bezit	-3227
▁hobby	-3228
▁overl	-3229
▁poort	-3230
▁prima	-3231
▁zater	-3232
▁zodat	-3233
astisch	-3234
emonnee	-3235
istisch	-3236
ressief	-3237
▁bagage	-3238
▁canada	-3239
▁duurde	-3240
▁eeuwig	-3241
▁eiland	-3242
▁gekust	-3243
▁groene	-3244
▁liepen	-3245
▁schrik	-3246
▁slagen	-3247
▁spanje	-3248
▁stapte	-3249
▁twaalf	-3250
▁vlucht	-3251
▁aandoen	-3252
▁engelse	-3253
▁gevecht	-3254
▁geverfd	-3255
▁groeide	-3256
▁jongste	-3257
▁kasteel	-3258
▁kleding	-3259
▁knuffel	-3260
▁lerares	-3261
▁meegaan	-3262
▁meerder	-3263
▁mooiste	-3264
▁praatte	-3265
▁stuurde	-3266
▁verloor	-3267
▁vlakbij	-3268
▁website	-3269
▁wortels	-3270
▁badkamer	-3271
▁bedanken	-3272
▁beloofde	-3273
▁bushalte	-3274
▁geloofde	-3275
▁geslaagd	-3276
▁minstens	-3277
▁schieten	-3278
▁verboden	-3279
▁verpleeg	-3280
▁weigerde	-3281
▁bedoeling	-3282
▁duitsland	-3283
▁nieuwzeel	-3284
▁onbeleefd	-3285
▁opgestaan	-3286
▁president	-3287
▁resultaat	-3288
▁verdragen	-3289
▁verdwaald	-3290
▁batterijen	-3291
▁binnenkort	-3292
▁controleer	-3293
▁echtgenoot	-3294
▁verdrietig	-3295
▁portemonnee	-3296
cr	-3297
sk	-3298
aaf	-3299
eng	-3300
fte	-3301
lom	-3302
rag	-3303
tie	-3304
unn	-3305
▁cr	-3306
▁sj	-3307
anks	-3308
bril	-3309
haal	-3310
keld	-3311
ntry	-3312
sdag	-3313
ukte	-3314
ushi	-3315
woor	-3316
▁dun	-3317
▁eff	-3318
▁fil	-3319
▁mon	-3320
▁oce	-3321
▁roe	-3322
▁zol	-3323
eters	-3324
gewik	-3325
kkend	-3326
langs	-3327
nemen	-3328
oedig	-3329
oorde	-3330
ukken	-3331
zelig	-3332
▁gauw	-3333
▁luid	-3334
▁nijl	-3335
▁slag	-3336
▁verf	-3337
afenis	-3338
buiten	-3339
eertig	-3340
ikbaar	-3341
oorlog	-3342
ruimen	-3343
▁derde	-3344
▁hitte	-3345
▁medel	-3346
▁sushi	-3347
▁toege	-3348
▁uiter	-3349
▁vloog	-3350
▁avonds	-3351
▁basket	-3352
▁bedekt	-3353
▁bijeen	-3354
▁danken	-3355
▁gasten	-3356
▁gouden	-3357
▁hoewel	-3358
▁jammer	-3359
▁lastig	-3360
▁nuttig	-3361
▁paniek	-3362
▁realis	-3363
▁steden	-3364
▁sterke	-3365
▁stinkt	-3366
▁temper	-3367
▁vrijge	-3368
▁warmer	-3369
▁wijzen	-3370
▁zanger	-3371
▁zilver	-3372
▁zonsop	-3373
▁afstand	-3374
▁beslist	-3375
▁betwijf	-3376
▁buurman	-3377
▁country	-3378
▁gepraat	-3379
▁gesprek	-3380
▁ingewik	-3381
▁machine	-3382
▁planten	-3383
▁spiegel	-3384
▁spoedig	-3385
▁sterker	-3386
▁verkoop	-3387
▁veroorz	-3388
▁voldoen	-3389
▁woedend	-3390
▁aandacht	-3391
▁aanvaard	-3392
▁elektric	-3393
▁gebakken	-3394
▁gebracht	-3395
▁gedragen	-3396
▁gespeeld	-3397
▁politiek	-3398
▁uitgeput	-3399
▁verdween	-3400
▁vervelen	-3401
▁zaterdag	-3402
▁geweldige	-3403
▁mobieltje	-3404
▁onderwerp	-3405
▁toespraak	-3406
▁wandeling	-3407
▁begrafenis	-3408
▁veranderde	-3409
▁temperatuur	-3410
▁mogelijkheid	-3411
▁nieuwzeeland	-3412
▁spijkerbroek	-3413
eg	-3414
ob	-3415
aus	-3416
cin	-3417
con	-3418
han	-3419
ius	-3420
mat	-3421
uct	-3422
urf	-3423
uwd	-3424
wit	-3425
agne	-3426
cten	-3427
cuss	-3428
gers	-3429
ickn	-3430
ieën	-3431
merk	-3432
oers	-3433
stte	-3434
unst	-3435
zine	-3436
▁ant	-3437
▁das	-3438
▁des	-3439
▁hop	-3440
▁hui	-3441
▁imm	-3442
▁oma	-3443
▁opl	-3444
autom	-3445
hands	-3446
icket	-3447
keerd	-3448
reekt	-3449
uppel	-3450
zamer	-3451
▁aanb	-3452
▁aten	-3453
▁beer	-3454
▁dief	-3455
▁doof	-3456
▁kamp	-3457
▁mars	-3458
▁oper	-3459
▁taak	-3460
▁toer	-3461
▁vaat	-3462
assade	-3463
▁aanbe	-3464
▁bedre	-3465
▁benen	-3466
▁gaten	-3467
▁gestr	-3468
▁gunst	-3469
▁huren	-3470
▁pickn	-3471
▁vulde	-3472
▁zoekt	-3473
▁zover	-3474
appelen	-3475
borstel	-3476
inderen	-3477
▁bakken	-3478
▁daarna	-3479
▁detail	-3480
▁geduld	-3481
▁helaas	-3482
▁huizen	-3483
▁idioot	-3484
▁intern	-3485
▁italië	-3486
▁kiezen	-3487
▁komkom	-3488
▁kostte	-3489
▁lossen	-3490
▁parijs	-3491
▁plegen	-3492
▁rusten	-3493
▁schaam	-3494
▁schaar	-3495
▁verbet	-3496
▁verwij	-3497
▁welkom	-3498
▁wiskun	-3499
▁zuiden	-3500
resteerd	-3501
▁belofte	-3502
▁benzine	-3503
▁bereikt	-3504
▁discuss	-3505
▁drankje	-3506
▁duizend	-3507
▁extreem	-3508
▁hiervan	-3509
▁slimmer	-3510
▁telefon	-3511
▁verniet	-3512
▁beschouw	-3513
▁bewijzen	-3514
▁boterham	-3515
▁canadese	-3516
▁concentr	-3517
▁schattig	-3518
▁slechter	-3519
▁verdiend	-3520
▁verstopt	-3521
▁vijanden	-3522
▁zuurstof	-3523
▁ambassade	-3524
▁aanvaarden	-3525
▁beschuldig	-3526
▁glimlachte	-3527
▁herstellen	-3528
▁luchthaven	-3529
▁medelijden	-3530
▁middelbare	-3531
▁schilderen	-3532
▁schreeuwen	-3533
▁slaapkamer	-3534
▁terugkomen	-3535
▁uitstekend	-3536
▁verrassing	-3537
▁zonsopgang	-3538
▁aardappelen	-3539
▁betrouwbaar	-3540
▁meegebracht	-3541
▁tijdschrift	-3542
▁tweedehands	-3543
▁verjaardags	-3544
▁gearresteerd	-3545
▁elektriciteit	-3546
▁zomervakantie	-3547
ko	-3548
ago	-3549
coh	-3550
col	-3551
don	-3552
ilt	-3553
jar	-3554
lub	-3555
mel	-3556
ote	-3557
pak	-3558
und	-3559
▁sc	-3560
▁wc	-3561
aait	-3562
auwe	-3563
azie	-3564
azil	-3565
dpad	-3566
iële	-3567
leet	-3568
pers	-3569
vrij	-3570
▁cor	-3571
▁fin	-3572
▁nul	-3573
▁off	-3574
▁ond	-3575
▁sim	-3576
▁sym	-3577
▁tek	-3578
▁the	-3579
▁top	-3580
▁vak	-3581
▁var	-3582
blind	-3583
cohol	-3584
geluk	-3585
gramm	-3586
inken	-3587
ooien	-3588
ookte	-3589
ormul	-3590
steen	-3591
vrouw	-3592
▁blad	-3593
▁buik	-3594
▁gast	-3595
▁held	-3596
▁hout	-3597
▁inst	-3598
▁leen	-3599
▁lijk	-3600
▁neef	-3601
▁schr	-3602
▁toil	-3603
▁vide	-3604
▁voeg	-3605
▁wijs	-3606
▁zakl	-3607
▁zwij	-3608
andoor	-3609
azilië	-3610
ballen	-3611
gelegd	-3612
muziek	-3613
oefend	-3614
oscoop	-3615
uiloft	-3616
wonden	-3617
zonder	-3618
▁fijne	-3619
▁films	-3620
▁gepar	-3621
▁haten	-3622
▁india	-3623
▁jonge	-3624
▁keren	-3625
▁knoop	-3626
▁koopt	-3627
▁naakt	-3628
▁opzet	-3629
▁overd	-3630
▁pasta	-3631
▁patat	-3632
▁plank	-3633
▁prakt	-3634
▁sjaal	-3635
▁vloer	-3636
▁vocht	-3637
▁zoudt	-3638
▁zusje	-3639
▁zware	-3640
drukken	-3641
wekkend	-3642
▁altern	-3643
▁beseft	-3644
▁bevalt	-3645
▁expres	-3646
▁fluist	-3647
▁gehoor	-3648
▁gelukt	-3649
▁humeur	-3650
▁kinder	-3651
▁liefst	-3652
▁londen	-3653
▁merkte	-3654
▁midden	-3655
▁noemen	-3656
▁oceaan	-3657
▁pakken	-3658
▁scherp	-3659
▁snelle	-3660
▁snowbo	-3661
▁stilte	-3662
▁sturen	-3663
▁versta	-3664
▁vinger	-3665
▁vooral	-3666
▁waarop	-3667
▁zuster	-3668
ettelijk	-3669
▁afwezig	-3670
▁bedoelt	-3671
▁bevindt	-3672
▁beweert	-3673
▁dagboek	-3674
▁eenmaal	-3675
▁ernstig	-3676
▁gehaald	-3677
▁gehuild	-3678
▁gekeken	-3679
▁gelopen	-3680
▁genoemd	-3681
▁gestemd	-3682
▁groeien	-3683
▁groente	-3684
▁ontdekt	-3685
▁profess	-3686
▁seizoen	-3687
▁spullen	-3688
▁verslag	-3689
▁vertaal	-3690
▁weggaat	-3691
▁zojuist	-3692
▁bladeren	-3693
▁brazilië	-3694
▁bruiloft	-3695
▁dichtbij	-3696
▁dochters	-3697
▁doelpunt	-3698
▁geoefend	-3699
▁jongetje	-3700
▁ongelijk	-3701
▁opgelost	-3702
▁spinazie	-3703
▁werkloos	-3704
▁basketbal	-3705
▁ervandoor	-3706
▁langzamer	-3707
▁ontbreekt	-3708
▁postzegel	-3709
▁studeerde	-3710
▁terugkomt	-3711
▁verdienen	-3712
▁vergelijk	-3713
▁verplicht	-3714
▁waarschuw	-3715
▁zonnebril	-3716
▁medicijnen	-3717
▁ontspannen	-3718
▁produceert	-3719
▁resultaten	-3720
▁veiligheid	-3721
▁verwachten	-3722
▁amerikaanse	-3723
▁fantastisch	-3724
▁doorgebracht	-3725
▁kleurenblind	-3726
▁tandenborstel	-3727
▁voorzichtiger	-3728
ica	-3729
lok	-3730
orn	-3731
out	-3732
riv	-3733
zie	-3734
▁an	-3735
▁du	-3736
▁eg	-3737
▁ob	-3738
▁po	-3739
▁wr	-3740
eegd	-3741
eens	-3742
ging	-3743
houd	-3744
ider	-3745
iers	-3746
ijft	-3747
uvel	-3748
verd	-3749
▁jal	-3750
▁lat	-3751
▁mex	-3752
▁mor	-3753
▁opp	-3754
▁tol	-3755
adres	-3756
akaas	-3757
asser	-3758
boden	-3759
icago	-3760
itief	-3761
loden	-3762
opend	-3763
recht	-3764
reker	-3765
snaam	-3766
wapen	-3767
▁bedr	-3768
▁beet	-3769
▁belt	-3770
▁boot	-3771
▁chec	-3772
▁gead	-3773
▁gesm	-3774
▁gooi	-3775
▁gord	-3776
▁misd	-3777
▁moed	-3778
▁muis	-3779
▁oest	-3780
▁opdr	-3781
▁rapp	-3782
▁rare	-3783
▁ring	-3784
▁sche	-3785
▁tent	-3786
▁vals	-3787
▁wint	-3788
anders	-3789
blemen	-3790
eerden	-3791
eester	-3792
gewoon	-3793
handig	-3794
keurig	-3795
oorten	-3796
raging	-3797
rekken	-3798
rijden	-3799
scheid	-3800
▁delen	-3801
▁emmer	-3802
▁gezet	-3803
▁kwest	-3804
▁leeuw	-3805
▁miste	-3806
▁nadat	-3807
▁naged	-3808
▁neder	-3809
▁nijlp	-3810
▁prins	-3811
▁reser	-3812
▁stief	-3813
▁stort	-3814
▁verkl	-3815
▁voort	-3816
▁weegt	-3817
▁wenen	-3818
duizend	-3819
pareerd	-3820
woordig	-3821
▁aanbev	-3822
▁brengt	-3823
▁dapper	-3824
▁gedrag	-3825
▁genees	-3826
▁gereed	-3827
▁hersen	-3828
▁heuvel	-3829
▁hoopte	-3830
▁japann	-3831
▁leerde	-3832
▁meneer	-3833
▁naaien	-3834
▁omhoog	-3835
▁schoen	-3836
▁sparen	-3837
▁tellen	-3838
▁ticket	-3839
▁toilet	-3840
▁wapens	-3841
▁artikel	-3842
▁chicago	-3843
▁draaide	-3844
▁duurder	-3845
▁excuses	-3846
▁genoten	-3847
▁geopend	-3848
▁geschil	-3849
▁liedjes	-3850
▁morgens	-3851
▁oesters	-3852
▁ontspan	-3853
▁treinen	-3854
▁uitdoen	-3855
▁waarmee	-3856
▁zondags	-3857
hankelijk	-3858
▁aanraken	-3859
▁bestelde	-3860
▁bioscoop	-3861
▁compleet	-3862
▁doorgaan	-3863
▁duizelig	-3864
▁ernstige	-3865
▁eventjes	-3866
▁geregend	-3867
▁glimlach	-3868
▁huwelijk	-3869
▁ochtends	-3870
▁potloden	-3871
▁schilder	-3872
▁speelden	-3873
▁springen	-3874
▁tvkijken	-3875
▁verkeers	-3876
▁vloeiend	-3877
▁aangenaam	-3878
▁bestellen	-3879
▁betrokken	-3880
▁betwijfel	-3881
▁bijzonder	-3882
▁gevoelens	-3883
▁overkomen	-3884
▁pindakaas	-3885
▁praktisch	-3886
▁schildpad	-3887
▁thuiskwam	-3888
▁vervangen	-3889
▁voldoende	-3890
▁vrijgezel	-3891
▁aangeboden	-3892
▁geparkeerd	-3893
▁meegenomen	-3894
▁opgewonden	-3895
▁schoonheid	-3896
▁sigaretten	-3897
▁verdronken	-3898
▁verspillen	-3899
▁vertraging	-3900
▁binnenkomen	-3901
▁gerepareerd	-3902
▁waarschuwen	-3903
▁wereldoorlog	-3904
▁achtergelaten	-3905
▁onderscheiden	-3906
▁schoongemaakt	-3907
gl	-3908
ho	-3909
kn	-3910
kr	-3911
vr	-3912
ace	-3913
ash	-3914
bed	-3915
bet	-3916
ema	-3917
ese	-3918
ici	-3919
ina	-3920
ink	-3921
uar	-3922
wil	-3923
▁ag	-3924
▁az	-3925
▁hé	-3926
▁il	-3927
▁pe	-3928
abel	-3929
akel	-3930
arwe	-3931
ball	-3932
deur	-3933
gaat	-3934
ikte	-3935
isme	-3936
ment	-3937
naar	-3938
oorn	-3939
opig	-3940
opte	-3941
port	-3942
ract	-3943
rapt	-3944
sver	-3945
uzik	-3946
vaar	-3947
verg	-3948
voer	-3949
▁cit	-3950
▁cre	-3951
▁dem	-3952
▁elf	-3953
▁geë	-3954
▁jun	-3955
▁kik	-3956
▁kus	-3957
▁lit	-3958
▁rem	-3959
▁tsh	-3960
aaide	-3961
arden	-3962
ascin	-3963
eegde	-3964
eraar	-3965
iging	-3966
neden	-3967
roomd	-3968
wacht	-3969
▁boog	-3970
▁cool	-3971
▁gede	-3972
▁inse	-3973
▁jazz	-3974
▁lief	-3975
▁lood	-3976
▁loon	-3977
▁lust	-3978
▁mang	-3979
▁onaf	-3980
▁pass	-3981
▁pond	-3982
▁roze	-3983
▁tong	-3984
▁zing	-3985
assist	-3986
bureau	-3987
gemeen	-3988
kracht	-3989
ouders	-3990
sneeuw	-3991
▁bevol	-3992
▁bezet	-3993
▁compl	-3994
▁dikke	-3995
▁duwde	-3996
▁gegoo	-3997
▁gemak	-3998
▁groep	-3999
▁ijsje	-4000
▁jacht	-4001
▁keken	-4002
▁meter	-4003
▁oefen	-4004
▁plant	-4005
▁stand	-4006
▁steun	-4007
▁strak	-4008
▁tarwe	-4009
▁tekst	-4010
▁toren	-4011
▁traag	-4012
▁vegan	-4013
▁wezen	-4014
▁wierp	-4015
▁zocht	-4016
centrum	-4017
sluiten	-4018
▁afrika	-4019
▁beroep	-4020
▁bijbel	-4021
▁bruine	-4022
▁elektr	-4023
▁ergste	-4024
▁gebrek	-4025
▁graden	-4026
▁kleink	-4027
▁koppig	-4028
▁lelijk	-4029
▁nation	-4030
▁omgaan	-4031
▁oorspr	-4032
▁oudste	-4033
▁overst	-4034
▁punten	-4035
▁ruiken	-4036
▁simpel	-4037
▁spoken	-4038
▁staart	-4039
▁streek	-4040
▁streng	-4041
▁tshirt	-4042
▁vonden	-4043
▁waarin	-4044
▁wegens	-4045
▁wekker	-4046
▁zeiden	-4047
▁zomaar	-4048
gisteren	-4049
▁besefte	-4050
▁bewaren	-4051
▁dwingen	-4052
▁honderd	-4053
▁huidige	-4054
▁koffers	-4055
▁kranten	-4056
▁kwestie	-4057
▁negeren	-4058
▁ondanks	-4059
▁onlangs	-4060
▁oorzaak	-4061
▁opstaan	-4062
▁project	-4063
▁rapport	-4064
▁sigaret	-4065
▁stemmen	-4066
▁trouwde	-4067
▁uitgaan	-4068
▁venster	-4069
▁verspil	-4070
▁vrijwel	-4071
▁winkels	-4072
oordenaar	-4073
▁algemeen	-4074
▁bedenken	-4075
▁beledigd	-4076
▁bewonder	-4077
▁contract	-4078
▁eindigde	-4079
▁engeland	-4080
▁gedachte	-4081
▁geheimen	-4082
▁gestoord	-4083
▁getalent	-4084
▁hierheen	-4085
▁irritant	-4086
▁leerling	-4087
▁opruimen	-4088
▁toestaan	-4089
▁verbrand	-4090
▁wegwezen	-4091
▁wellicht	-4092
▁aangedaan	-4093
▁herinnert	-4094
▁teruggaan	-4095
▁verbergen	-4096
▁verrassen	-4097
▁verstopte	-4098
▁vooraleer	-4099
▁voorbeeld	-4100
▁antwoordde	-4101
▁glimlachen	-4102
▁komkommers	-4103
▁vanochtend	-4104
▁verstoppen	-4105
▁verwachtte	-4106
▁beschikbaar	-4107
▁bijeenkomst	-4108
▁eergisteren	-4109
▁geschilderd	-4110
▁veroorzaakt	-4111
▁belangrijkste	-4112
ai	-4113
ex	-4114
ka	-4115
ra	-4116
sy	-4117
000	-4118
ali	-4119
arr	-4120
bak	-4121
bus	-4122
ipt	-4123
itt	-4124
jas	-4125
ner	-4126
ocr	-4127
oes	-4128
oom	-4129
oto	-4130
ret	-4131
sto	-4132
wed	-4133
▁el	-4134
▁ma	-4135
aamd	-4136
akte	-4137
arig	-4138
boog	-4139
omas	-4140
past	-4141
stig	-4142
stro	-4143
team	-4144
uige	-4145
unde	-4146
ustr	-4147
vest	-4148
▁hek	-4149
▁jui	-4150
▁laf	-4151
▁opz	-4152
▁pos	-4153
▁ton	-4154
▁vir	-4155
▁vle	-4156
aasje	-4157
ament	-4158
arten	-4159
ergie	-4160
ettig	-4161
geval	-4162
haald	-4163
houdt	-4164
ienen	-4165
ineel	-4166
iëren	-4167
keren	-4168
lijke	-4169
noten	-4170
oging	-4171
ograf	-4172
oorte	-4173
▁aank	-4174
▁cult	-4175
▁euro	-4176
▁gedw	-4177
▁gene	-4178
▁grij	-4179
▁juni	-4180
▁kano	-4181
▁keel	-4182
▁knip	-4183
▁maag	-4184
▁olif	-4185
▁papa	-4186
▁part	-4187
▁poet	-4188
▁race	-4189
▁rent	-4190
▁roep	-4191
▁snur	-4192
▁stok	-4193
▁vaas	-4194
▁zoen	-4195
▁zonn	-4196
▁zuid	-4197
▁zwit	-4198
ertuin	-4199
geving	-4200
gramma	-4201
ijfers	-4202
jarige	-4203
ometer	-4204
ontste	-4205
roffen	-4206
steken	-4207
▁aller	-4208
▁bevat	-4209
▁bevel	-4210
▁domme	-4211
▁halsk	-4212
▁helft	-4213
▁ident	-4214
▁ijzer	-4215
▁illeg	-4216
▁itali	-4217
▁jarig	-4218
▁kleed	-4219
▁kluis	-4220
▁kruis	-4221
▁leger	-4222
▁macht	-4223
▁ongem	-4224
▁rauwe	-4225
▁react	-4226
▁snoep	-4227
▁spell	-4228
▁steeg	-4229
▁stopt	-4230
▁tonen	-4231
▁train	-4232
▁verre	-4233
▁verte	-4234
▁voorr	-4235
▁zacht	-4236
▁zonen	-4237
landers	-4238
schoten	-4239
sneeuwd	-4240
▁bergen	-4241
▁bloedt	-4242
▁donder	-4243
▁enorme	-4244
▁explos	-4245
▁feiten	-4246
▁financ	-4247
▁formul	-4248
▁frisse	-4249
▁geweld	-4250
▁groeit	-4251
▁lukken	-4252
▁mexico	-4253
▁misver	-4254
▁moedig	-4255
▁munten	-4256
▁onderb	-4257
▁online	-4258
▁opeten	-4259
▁paarse	-4260
▁schonk	-4261
▁schoot	-4262
▁thomas	-4263
▁tyfoon	-4264
▁uitdag	-4265
▁verwoe	-4266
▁vieren	-4267
▁zolang	-4268
▁zorgde	-4269
zekering	-4270
▁afbeeld	-4271
▁alcohol	-4272
▁beleefd	-4273
▁bestuur	-4274
▁bezwaar	-4275
▁bloeden	-4276
▁daarvan	-4277
▁dichter	-4278
▁dringen	-4279
▁gebeten	-4280
▁gerecht	-4281
▁gesteld	-4282
▁glaasje	-4283
▁grieken	-4284
▁jaloers	-4285
▁kaartje	-4286
▁klimaat	-4287
▁lachten	-4288
▁logisch	-4289
▁maakten	-4290
▁soorten	-4291
▁vergist	-4292
▁verlaat	-4293
▁vijftig	-4294
▁bepaalde	-4295
▁biologie	-4296
▁excuseer	-4297
▁feestjes	-4298
▁geboorte	-4299
▁gedroomd	-4300
▁gestraft	-4301
▁herkende	-4302
▁hopelijk	-4303
▁insecten	-4304
▁koningin	-4305
▁meerdere	-4306
▁verleden	-4307
▁verloofd	-4308
▁volkomen	-4309
▁waarvoor	-4310
ontsteking	-4311
▁brandweer	-4312
▁canadezen	-4313
▁chauffeur	-4314
▁computers	-4315
▁gedachten	-4316
▁gedichten	-4317
▁gedwongen	-4318
▁goedkoper	-4319
▁hamburger	-4320
▁hartelijk	-4321
▁onderhand	-4322
▁overleefd	-4323
▁schrijver	-4324
▁voorkomen	-4325
▁werkelijk	-4326
▁achtertuin	-4327
▁bescherming	-4328
▁halsketting	-4329
▁handschrift	-4330
▁sportschool	-4331
▁tegenhouden	-4332
▁uitstekende	-4333
▁belangrijker	-4334
▁getalenteerd	-4335
▁persoonlijke	-4336
▁schilderijen	-4337
▁tegenwoordig	-4338
▁verpleegster	-4339
▁kleinkinderen	-4340
▁kerstcadeautje	-4341
▁verontschuldig	-4342
ys	-4343
all	-4344
chn	-4345
ein	-4346
fum	-4347
ibi	-4348
idt	-4349
iem	-4350
iez	-4351
ire	-4352
key	-4353
nam	-4354
pje	-4355
plo	-4356
pop	-4357
ril	-4358
rol	-4359
tas	-4360
ugd	-4361
won	-4362
zam	-4363
▁et	-4364
▁hy	-4365
▁os	-4366
aaid	-4367
ance	-4368
ator	-4369
band	-4370
card	-4371
chup	-4372
coln	-4373
eekh	-4374
gedr	-4375
gesp	-4376
ieel	-4377
ilen	-4378
kied	-4379
leut	-4380
lied	-4381
oede	-4382
oerd	-4383
pakt	-4384
sbed	-4385
ween	-4386
▁bom	-4387
▁cur	-4388
▁del	-4389
▁dep	-4390
▁ego	-4391
▁ene	-4392
▁gas	-4393
▁gul	-4394
▁pag	-4395
▁pij	-4396
▁rus	-4397
▁wan	-4398
aling	-4399
apend	-4400
ekend	-4401
feren	-4402
iddag	-4403
iplom	-4404
issen	-4405
licit	-4406
oeven	-4407
oning	-4408
orten	-4409
veerd	-4410
▁aarz	-4411
▁amus	-4412
▁azië	-4413
▁blut	-4414
▁bouw	-4415
▁club	-4416
▁comm	-4417
▁drug	-4418
▁eekh	-4419
▁gekl	-4420
▁gekw	-4421
▁huid	-4422
▁insp	-4423
▁mede	-4424
▁olie	-4425
▁perz	-4426
▁serv	-4427
▁sing	-4428
▁toeg	-4429
▁toel	-4430
▁touw	-4431
▁vere	-4432
▁verp	-4433
▁vlin	-4434
▁volt	-4435
▁wiss	-4436
▁zeld	-4437
▁zomb	-4438
gedaan	-4439
ichten	-4440
letter	-4441
minste	-4442
schuld	-4443
verzam	-4444
vuldig	-4445
wasser	-4446
▁april	-4447
▁babys	-4448
▁bemoe	-4449
▁duits	-4450
▁geste	-4451
▁inwon	-4452
▁jagen	-4453
▁kraan	-4454
▁lacht	-4455
▁lever	-4456
▁nader	-4457
▁sloot	-4458
▁staar	-4459
▁stofz	-4460
▁straf	-4461
▁verde	-4462
▁video	-4463
▁viool	-4464
▁volgt	-4465
▁voorz	-4466
elsnaam	-4467
geraakt	-4468
waarsch	-4469
▁acteur	-4470
▁actief	-4471
▁assist	-4472
▁autoon	-4473
▁bakker	-4474
▁banaan	-4475
▁bitter	-4476
▁burgem	-4477
▁drieën	-4478
▁gevuld	-4479
▁hangen	-4480
▁herfst	-4481
▁keerde	-4482
▁kippen	-4483
▁koeien	-4484
▁leuker	-4485
▁lieten	-4486
▁minste	-4487
▁mooier	-4488
▁nagels	-4489
▁ontplo	-4490
▁opties	-4491
▁romans	-4492
▁schoor	-4493
▁stroom	-4494
▁veters	-4495
▁vijver	-4496
▁vooraf	-4497
▁voorsp	-4498
automaat	-4499
geslagen	-4500
▁aankomt	-4501
▁armoede	-4502
▁betaalt	-4503
▁bladzij	-4504
▁correct	-4505
▁cultuur	-4506
▁dakloos	-4507
▁geskied	-4508
▁geweten	-4509
▁gezeten	-4510
▁hielpen	-4511
▁jongere	-4512
▁kaarsen	-4513
▁kaarten	-4514
▁ketchup	-4515
▁lincoln	-4516
▁mobiele	-4517
▁opgeven	-4518
▁parkeer	-4519
▁patiënt	-4520
▁salaris	-4521
▁schamen	-4522
▁scheren	-4523
▁slangen	-4524
▁snijden	-4525
▁stoelen	-4526
▁veertig	-4527
▁verwarm	-4528
▁verzoek	-4529
▁vingers	-4530
▁vuilnis	-4531
▁zaklamp	-4532
wedstrijd	-4533
▁bekijken	-4534
▁betaalde	-4535
▁dringend	-4536
▁eekhoorn	-4537
▁frietjes	-4538
▁geheugen	-4539
▁gesneden	-4540
▁gewoonte	-4541
▁hierover	-4542
▁kamperen	-4543
▁opdracht	-4544
▁openbaar	-4545
▁picknick	-4546
▁plaatsen	-4547
▁sommigen	-4548
▁urenlang	-4549
▁verblijf	-4550
▁verkleed	-4551
▁verliest	-4552
▁verveelt	-4553
▁waarover	-4554
▁zwaarder	-4555
▁agressief	-4556
▁behandeld	-4557
▁bevolking	-4558
▁discussie	-4559
▁gebruikte	-4560
▁halloween	-4561
▁kerstboom	-4562
▁nagedacht	-4563
▁nederland	-4564
▁regenboog	-4565
▁sindsdien	-4566
▁tenminste	-4567
▁emailadres	-4568
▁hemelsnaam	-4569
▁kerstfeest	-4570
▁kieskeurig	-4571
▁moordenaar	-4572
▁uitgemaakt	-4573
▁verkeerson	-4574
▁griekenland	-4575
▁hoofdletter	-4576
▁ingewikkeld	-4577
▁makkelijker	-4578
▁misverstand	-4579
▁telefoontje	-4580
▁vegetariërs	-4581
▁burgemeester	-4582
▁interessante	-4583
▁kerstkaarten	-4584
▁thuisgekomen	-4585
▁treinstation	-4586
waarschijnlijk	-4587
▁ongemakkelijk	-4588
▁woordenboeken	-4589
▁lievelingskleur	-4590
bi	-4591
ck	-4592
co	-4593
ea	-4594
ph	-4595
rn	-4596
to	-4597
zw	-4598
afé	-4599
ath	-4600
fab	-4601
ict	-4602
imw	-4603
ive	-4604
lei	-4605
lof	-4606
ooi	-4607
rog	-4608
sem	-4609
uun	-4610
▁bu	-4611
▁co	-4612
▁lo	-4613
▁sa	-4614
▁vs	-4615
andw	-4616
boel	-4617
brak	-4618
eelt	-4619
etst	-4620
hard	-4621
hoop	-4622
hous	-4623
ines	-4624
koen	-4625
lies	-4626
loop	-4627
melk	-4628
oeit	-4629
oogd	-4630
oond	-4631
rein	-4632
reis	-4633
rice	-4634
zame	-4635
zoek	-4636
▁aap	-4637
▁dre	-4638
▁dro	-4639
▁ent	-4640
▁gec	-4641
▁hoi	-4642
▁hoo	-4643
▁job	-4644
▁kok	-4645
▁leu	-4646
▁lot	-4647
▁mug	-4648
▁nep	-4649
▁pit	-4650
▁pun	-4651
▁sat	-4652
▁spe	-4653
▁tat	-4654
▁tim	-4655
▁vos	-4656
aatst	-4657
aille	-4658
etsen	-4659
groep	-4660
hopig	-4661
iment	-4662
imwee	-4663
inden	-4664
kelde	-4665
ockey	-4666
oepen	-4667
organ	-4668
phone	-4669
sbang	-4670
tijds	-4671
▁arch	-4672
▁arme	-4673
▁besm	-4674
▁bure	-4675
▁citr	-4676
▁dans	-4677
▁dure	-4678
▁gang	-4679
▁gekr	-4680
▁gren	-4681
▁grot	-4682
▁kauw	-4683
▁koos	-4684
▁lege	-4685
▁mama	-4686
▁mand	-4687
▁mass	-4688
▁menu	-4689
▁orig	-4690
▁prom	-4691
▁puin	-4692
▁reag	-4693
▁roos	-4694
▁snor	-4695
▁spij	-4696
▁stud	-4697
▁telt	-4698
▁vrol	-4699
▁want	-4700
▁weeg	-4701
ailand	-4702
annenk	-4703
bellen	-4704
bijten	-4705
dieren	-4706
eemaal	-4707
elicit	-4708
iening	-4709
iseerd	-4710
lokaal	-4711
pakken	-4712
schijn	-4713
schrij	-4714
unning	-4715
werken	-4716
willig	-4717
▁amper	-4718
▁armen	-4719
▁drugs	-4720
▁gedag	-4721
▁geres	-4722
▁huilt	-4723
▁jeugd	-4724
▁jouwe	-4725
▁kater	-4726
▁kopie	-4727
▁kring	-4728
▁marie	-4729
▁moder	-4730
▁muzik	-4731
▁nicht	-4732
▁noord	-4733
▁noten	-4734
▁pakte	-4735
▁plaat	-4736
▁reist	-4737
▁sandw	-4738
▁slaan	-4739
▁slang	-4740
▁smelt	-4741
▁spion	-4742
▁strip	-4743
▁tenen	-4744
▁toler	-4745
▁verhe	-4746
▁verse	-4747
▁wagen	-4748
▁waste	-4749
▁woest	-4750
derdaad	-4751
gelezen	-4752
igheden	-4753
serland	-4754
ulpzaam	-4755
▁aangek	-4756
▁auteur	-4757
▁bieden	-4758
▁bouwen	-4759
▁commun	-4760
▁eender	-4761
▁effect	-4762
▁eruitz	-4763
▁gaande	-4764
▁gelegd	-4765
▁geniet	-4766
▁glazen	-4767
▁goeden	-4768
▁haatte	-4769
▁honing	-4770
▁houten	-4771
▁kamers	-4772
▁kanker	-4773
▁kapper	-4774
▁lampen	-4775
▁latijn	-4776
▁lessen	-4777
▁levend	-4778
▁lopend	-4779
▁naties	-4780
▁onderv	-4781
▁oosten	-4782
▁padden	-4783
▁passag	-4784
▁recept	-4785
▁risico	-4786
▁ruziën	-4787
▁schaak	-4788
▁schade	-4789
▁spaans	-4790
▁sprake	-4791
▁toonde	-4792
▁vangen	-4793
▁verven	-4794
▁wandel	-4795
▁wenste	-4796
▁zwakke	-4797
ferentie	-4798
▁actrice	-4799
▁bekende	-4800
▁beluist	-4801
▁beschad	-4802
▁bestand	-4803
▁branden	-4804
▁broodje	-4805
▁cijfers	-4806
▁dachten	-4807
▁echtgen	-4808
▁enthous	-4809
▁geadopt	-4810
▁gedraag	-4811
▁gekleed	-4812
▁getuige	-4813
▁gordijn	-4814
▁grapjes	-4815
▁handtas	-4816
▁heimwee	-4817
▁kalkoen	-4818
▁leiding	-4819
▁leraren	-4820
▁leugens	-4821
▁miljoen	-4822
▁onszelf	-4823
▁pannenk	-4824
▁pleegde	-4825
▁prettig	-4826
▁prinses	-4827
▁product	-4828
▁raakten	-4829
▁reactie	-4830
▁redenen	-4831
▁schaken	-4832
▁seconde	-4833
▁spraken	-4834
▁stukken	-4835
▁toegang	-4836
▁uitzien	-4837
▁varkens	-4838
▁verkiez	-4839
▁verklar	-4840
▁verward	-4841
▁verwond	-4842
▁wegging	-4843
▁woonden	-4844
▁zwemmer	-4845
ondergang	-4846
problemen	-4847
stebuiten	-4848
▁afvallen	-4849
▁begraven	-4850
▁bevroren	-4851
▁broertje	-4852
▁creatief	-4853
▁gestegen	-4854
▁internet	-4855
▁konijnen	-4856
▁maandags	-4857
▁medaille	-4858
▁nadenken	-4859
▁namiddag	-4860
▁omgeving	-4861
▁onderste	-4862
▁opendoen	-4863
▁overwinn	-4864
▁papieren	-4865
▁paraplus	-4866
▁puinhoop	-4867
▁sandwich	-4868
▁schreeuw	-4869
▁schudden	-4870
▁sollicit	-4871
▁tegelijk	-4872
▁thailand	-4873
▁tweemaal	-4874
▁uitgezet	-4875
▁uitzicht	-4876
▁veganist	-4877
▁vermaakt	-4878
▁veroorde	-4879
▁verstaat	-4880
▁voorkeur	-4881
▁wanhopig	-4882
sbediening	-4883
▁afgewezen	-4884
▁avondmaal	-4885
▁bladzijde	-4886
▁doodsbang	-4887
▁fabrieken	-4888
▁getroffen	-4889
▁herkennen	-4890
▁inderdaad	-4891
▁italiaans	-4892
▁opgegeven	-4893
▁succesvol	-4894
▁uitdaging	-4895
▁uitgelegd	-4896
▁uitzonder	-4897
▁verborgen	-4898
▁vertrouwt	-4899
▁weggegaan	-4900
verzameling	-4901
▁aangenomen	-4902
▁afgevallen	-4903
▁amerikanen	-4904
▁behulpzaam	-4905
▁gescheiden	-4906
▁hamburgers	-4907
▁klaarmaken	-4908
▁klaslokaal	-4909
▁moeilijker	-4910
▁toegestaan	-4911
▁uitspreken	-4912
▁vaatwasser	-4913
▁verbeteren	-4914
▁vrijwillig	-4915
▁aangevallen	-4916
▁achterlaten	-4917
▁paddenstoel	-4918
▁zwitserland	-4919
▁boodschappen	-4920
▁pannenkoeken	-4921
▁teruggekomen	-4922
▁thuisblijven	-4923
▁buitenlanders	-4924
▁chocolademelk	-4925
▁zonsondergang	-4926
▁lievelingseten	-4927
▁binnenstebuiten	-4928
yc	-4929
zo	-4930
cur	-4931
det	-4932
duc	-4933
env	-4934
hau	-4935
heb	-4936
ids	-4937
kop	-4938
ofa	-4939
pap	-4940
pte	-4941
rec	-4942
rie	-4943
uik	-4944
vak	-4945
vee	-4946
wij	-4947
▁ha	-4948
▁py	-4949
aafd	-4950
aill	-4951
appe	-4952
becu	-4953
been	-4954
digt	-4955
edie	-4956
entw	-4957
fort	-4958
giet	-4959
iale	-4960
iast	-4961
ilms	-4962
kast	-4963
maat	-4964
olkt	-4965
omie	-4966
onie	-4967
ooid	-4968
otie	-4969
pens	-4970
rees	-4971
soep	-4972
sych	-4973
uari	-4974
uten	-4975
wser	-4976
zaal	-4977
▁ade	-4978
▁cir	-4979
▁eng	-4980
▁kel	-4981
▁lad	-4982
▁lek	-4983
▁nek	-4984
▁non	-4985
▁opw	-4986
▁poë	-4987
▁reg	-4988
▁tam	-4989
▁wif	-4990
belen	-4991
bomen	-4992
coord	-4993
dekte	-4994
eurde	-4995
getal	-4996
grond	-4997
haupt	-4998
ilton	-4999
naart	-5000
oemde	-5001
ommen	-5002
onist	-5003
orpen	-5004
redit	-5005
sport	-5006
sters	-5007
uncht	-5008
velop	-5009
vloed	-5010
▁ball	-5011
▁bief	-5012
▁bijt	-5013
▁date	-5014
▁diam	-5015
▁durf	-5016
▁geit	-5017
▁geur	-5018
▁glad	-5019
▁graf	-5020
▁grie	-5021
▁helm	-5022
▁inve	-5023
▁kilo	-5024
▁meub	-5025
▁mijl	-5026
▁neen	-5027
▁nest	-5028
▁ober	-5029
▁opst	-5030
▁oven	-5031
▁plus	-5032
▁riep	-5033
▁sofa	-5034
▁test	-5035
▁uien	-5036
▁vork	-5037
▁vorm	-5038
▁wast	-5039
▁wolk	-5040
▁zand	-5041
▁zeep	-5042
▁ziel	-5043
adeaus	-5044
amerik	-5045
anning	-5046
arrend	-5047
ochter	-5048
ologie	-5049
pertje	-5050
stelde	-5051
stisch	-5052
tekend	-5053
ulance	-5054
vingen	-5055
werker	-5056
▁adopt	-5057
▁alfab	-5058
▁alibi	-5059
▁arrog	-5060
▁begel	-5061
▁bewon	-5062
▁boord	-5063
▁borst	-5064
▁burea	-5065
▁busch	-5066
▁dwaas	-5067
▁eiwit	-5068
▁extra	-5069
▁gevat	-5070
▁grens	-5071
▁groet	-5072
▁harde	-5073
▁haven	-5074
▁hoest	-5075
▁intro	-5076
▁journ	-5077
▁leuke	-5078
▁lukte	-5079
▁maalt	-5080
▁mager	-5081
▁menen	-5082
▁muren	-5083
▁noemt	-5084
▁onaan	-5085
▁optim	-5086
▁peren	-5087
▁raden	-5088
▁rijke	-5089
▁smart	-5090
▁vrijd	-5091
▁vuile	-5092
▁zorgt	-5093
▁zweet	-5094
aliteit	-5095
antisch	-5096
genheid	-5097
gericht	-5098
kaartje	-5099
naartoe	-5100
▁aanval	-5101
▁ademen	-5102
▁beginn	-5103
▁belast	-5104
▁bemoei	-5105
▁borden	-5106
▁burger	-5107
▁credit	-5108
▁diplom	-5109
▁docent	-5110
▁dozijn	-5111
▁draait	-5112
▁drukte	-5113
▁echter	-5114
▁erheen	-5115
▁expert	-5116
▁gehuwd	-5117
▁gekost	-5118
▁gepakt	-5119
▁gerust	-5120
▁hilton	-5121
▁hoepel	-5122
▁immuun	-5123
▁kikker	-5124
▁klopte	-5125
▁knappe	-5126
▁ladder	-5127
▁leiden	-5128
▁leider	-5129
▁letter	-5130
▁morste	-5131
▁netjes	-5132
▁parfum	-5133
▁ratten	-5134
▁schaap	-5135
▁single	-5136
▁spookt	-5137
▁stelen	-5138
▁stijgt	-5139
▁stukje	-5140
▁tassen	-5141
▁taxich	-5142
▁valent	-5143
▁vierde	-5144
▁voeren	-5145
▁volley	-5146
▁westen	-5147
▁wonder	-5148
▁zoenen	-5149
berhaupt	-5150
onkelijk	-5151
schreven	-5152
zakelijk	-5153
▁aankwam	-5154
▁aanmerk	-5155
▁barbecu	-5156
▁barstte	-5157
▁benieuw	-5158
▁bewolkt	-5159
▁blaffen	-5160
▁bliksem	-5161
▁browser	-5162
▁daaraan	-5163
▁details	-5164
▁energie	-5165
▁envelop	-5166
▁genezen	-5167
▁gevoerd	-5168
▁gevolgd	-5169
▁grotere	-5170
▁herhaal	-5171
▁klaagde	-5172
▁kwalijk	-5173
▁lafaard	-5174
▁langste	-5175
▁lasagne	-5176
▁lichten	-5177
▁melkvee	-5178
▁middags	-5179
▁nachten	-5180
▁onbesch	-5181
▁ongelof	-5182
▁ophalen	-5183
▁overeen	-5184
▁overweg	-5185
▁poetsen	-5186
▁spannen	-5187
▁stortte	-5188
▁tekenen	-5189
▁verlies	-5190
▁vrolijk	-5191
▁zakdoek	-5192
▁zonnige	-5193
geschoten	-5194
getrokken	-5195
▁achttien	-5196
▁appelsap	-5197
▁bedoelde	-5198
▁bedreigd	-5199
▁bevriend	-5200
▁biefstuk	-5201
▁controle	-5202
▁daarvoor	-5203
▁eerlijke	-5204
▁explosie	-5205
▁gedraagt	-5206
▁gekwetst	-5207
▁geluncht	-5208
▁gepleegd	-5209
▁geschikt	-5210
▁gescoord	-5211
▁gestrest	-5212
▁getekend	-5213
▁gevoelig	-5214
▁hersteld	-5215
▁invester	-5216
▁loodgiet	-5217
▁meenemen	-5218
▁ongeloof	-5219
▁ontslaan	-5220
▁ontsnapt	-5221
▁overkomt	-5222
▁parkeren	-5223
▁personen	-5224
▁politici	-5225
▁promotie	-5226
▁scheiden	-5227
▁uitmaakt	-5228
▁uitstaan	-5229
▁verbergt	-5230
▁verbeter	-5231
▁verbleef	-5232
▁verkozen	-5233
▁verraden	-5234
▁verslaan	-5235
▁vervuild	-5236
▁waardeer	-5237
▁walnoten	-5238
▁watermel	-5239
▁woestijn	-5240
▁achteruit	-5241
▁ambulance	-5242
▁formulier	-5243
▁huwelijks	-5244
▁kilometer	-5245
▁leugenaar	-5246
▁olifanten	-5247
▁ontbijten	-5248
▁onthouden	-5249
▁overnacht	-5250
▁professor	-5251
▁schouders	-5252
▁sneeuwpop	-5253
▁stervende	-5254
▁toeristen	-5255
▁uitgedaan	-5256
▁uitspraak	-5257
▁verscheen	-5258
▁vuurwapen	-5259
▁aanbevelen	-5260
▁achternaam	-5261
▁afbeelding	-5262
▁alternatie	-5263
▁binnengaan	-5264
▁bloedgroep	-5265
▁creditcard	-5266
▁onderschat	-5267
▁onderteken	-5268
▁oversteken	-5269
▁passagiers	-5270
▁politieman	-5271
▁schreeuwde	-5272
▁vernietigd	-5273
▁verstandig	-5274
▁verwarrend	-5275
▁vreselijke	-5276
▁belangrijke	-5277
▁belangrijks	-5278
▁driehonderd	-5279
▁enthousiast	-5280
▁gereedschap	-5281
▁natuurlijke	-5282
▁nijlpaarden	-5283
▁ondertekend	-5284
▁overwinning	-5285
▁telefoneren	-5286
▁veroordeeld	-5287
▁buschauffeur	-5288
▁concentreren	-5289
▁geldautomaat	-5290
▁hoofdletters	-5291
▁kwijtgeraakt	-5292
▁schildpadden	-5293
▁sollicitatie	-5294
▁countrymuziek	-5295
▁mogelijkheden	-5296
▁onafhankelijk	-5297
▁onderhandelen	-5298
▁politiebureau	-5299
▁taxichauffeur	-5300
▁winkelcentrum	-5301
▁oorspronkelijk	-5302
▁kerstcadeautjes	-5303
▁persoonlijkheid	-5304
jo	-5305
ma	-5306
air	-5307
ate	-5308
ave	-5309
avi	-5310
cen	-5311
dur	-5312
ete	-5313
eën	-5314
ice	-5315
idd	-5316
ieu	-5317
ije	-5318
ijg	-5319
isd	-5320
nat	-5321
nem	-5322
off	-5323
ole	-5324
zar	-5325
zeg	-5326
▁cl	-5327
▁my	-5328
▁se	-5329
0000	-5330
aarn	-5331
anas	-5332
apte	-5333
eerm	-5334
eurd	-5335
feer	-5336
gelo	-5337
heer	-5338
icus	-5339
iken	-5340
itam	-5341
kaan	-5342
kige	-5343
ksen	-5344
mijn	-5345
oost	-5346
oven	-5347
path	-5348
pige	-5349
rijs	-5350
roer	-5351
sers	-5352
slim	-5353
spil	-5354
stal	-5355
ware	-5356
week	-5357
wiss	-5358
zoon	-5359
▁ans	-5360
▁dam	-5361
▁fbi	-5362
▁inb	-5363
▁inv	-5364
▁lab	-5365
▁pik	-5366
▁pir	-5367
▁pod	-5368
▁pyj	-5369
▁sap	-5370
▁sug	-5371
▁tap	-5372
afond	-5373
alist	-5374
annul	-5375
boven	-5376
digen	-5377
elaar	-5378
ember	-5379
hield	-5380
iende	-5381
ijdde	-5382
ister	-5383
itein	-5384
logen	-5385
onstr	-5386
oordt	-5387
oucht	-5388
schil	-5389
stant	-5390
ugels	-5391
uitje	-5392
ulden	-5393
unnel	-5394
volle	-5395
▁aanm	-5396
▁band	-5397
▁cels	-5398
▁crim	-5399
▁dolf	-5400
▁gekn	-5401
▁gewe	-5402
▁haak	-5403
▁hete	-5404
▁ijsb	-5405
▁ijsk	-5406
▁inkt	-5407
▁klus	-5408
▁krab	-5409
▁laag	-5410
▁mant	-5411
▁mode	-5412
▁munt	-5413
▁peer	-5414
▁rijp	-5415
▁rock	-5416
▁ruik	-5417
▁stot	-5418
▁teen	-5419
▁tern	-5420
▁toet	-5421
▁wifi	-5422
▁zaal	-5423
atisch	-5424
curius	-5425
duldig	-5426
elijks	-5427
iddeld	-5428
leiden	-5429
papier	-5430
paraat	-5431
punten	-5432
schapp	-5433
spelen	-5434
tekort	-5435
teloos	-5436
uchtig	-5437
uister	-5438
vering	-5439
▁alarm	-5440
▁astro	-5441
▁beren	-5442
▁besef	-5443
▁bewak	-5444
▁bijen	-5445
▁bizar	-5446
▁champ	-5447
▁daden	-5448
▁dutje	-5449
▁falen	-5450
▁gaven	-5451
▁geest	-5452
▁heren	-5453
▁ketel	-5454
▁kouds	-5455
▁magie	-5456
▁nabij	-5457
▁pakje	-5458
▁papeg	-5459
▁psych	-5460
▁reger	-5461
▁relig	-5462
▁schad	-5463
▁schor	-5464
▁start	-5465
▁stoor	-5466
▁stoot	-5467
▁techn	-5468
▁tweed	-5469
▁vitam	-5470
▁waait	-5471
▁wijze	-5472
▁ziens	-5473
▁zoogd	-5474
antaarn	-5475
gegeven	-5476
gesprek	-5477
ijnsdag	-5478
komende	-5479
kundige	-5480
leutels	-5481
riteerd	-5482
riveerd	-5483
student	-5484
▁aardap	-5485
▁ananas	-5486
▁arrest	-5487
▁balpen	-5488
▁beheer	-5489
▁beslag	-5490
▁bevest	-5491
▁colleg	-5492
▁conser	-5493
▁duizen	-5494
▁emails	-5495
▁fascin	-5496
▁gehand	-5497
▁geldig	-5498
▁geweer	-5499
▁hockey	-5500
▁hoeden	-5501
▁import	-5502
▁ingang	-5503
▁kameel	-5504
▁katoen	-5505
▁kersen	-5506
▁kijkje	-5507
▁klaagt	-5508
▁kopjes	-5509
▁kouder	-5510
▁kweekt	-5511
▁leukst	-5512
▁lijden	-5513
▁meiden	-5514
▁midder	-5515
▁moslim	-5516
▁muggen	-5517
▁nature	-5518
▁pennen	-5519
▁raadde	-5520
▁reisde	-5521
▁rekent	-5522
▁scheen	-5523
▁schema	-5524
▁schone	-5525
▁schuur	-5526
▁secret	-5527
▁slimme	-5528
▁stoort	-5529
▁straks	-5530
▁tekort	-5531
▁tevoor	-5532
▁totaal	-5533
▁totdat	-5534
▁triest	-5535
▁tunnel	-5536
▁tweeën	-5537
▁verfde	-5538
▁vergel	-5539
▁vermoe	-5540
▁vleerm	-5541
▁voegen	-5542
▁vrucht	-5543
▁wedden	-5544
▁weiger	-5545
▁wennen	-5546
▁werker	-5547
▁wolven	-5548
▁zestig	-5549
delingen	-5550
▁afmaken	-5551
▁alfabet	-5552
▁beroofd	-5553
▁besteed	-5554
▁betrapt	-5555
▁bureaul	-5556
▁celsius	-5557
▁centrum	-5558
▁diamant	-5559
▁donkere	-5560
▁eindigt	-5561
▁flessen	-5562
▁gefaald	-5563
▁gekozen	-5564
▁grappen	-5565
▁hielden	-5566
▁hiermee	-5567
▁klanten	-5568
▁kwetsen	-5569
▁moderne	-5570
▁procent	-5571
▁rusland	-5572
▁rustige	-5573
▁schepen	-5574
▁spijtig	-5575
▁staarde	-5576
▁straten	-5577
▁terecht	-5578
▁uitgang	-5579
▁vanzelf	-5580
▁vereist	-5581
▁verpest	-5582
▁vochtig	-5583
▁vreemds	-5584
▁vrijdag	-5585
▁vroegen	-5586
▁zinloos	-5587
▁zwanger	-5588
antwoordt	-5589
entwintig	-5590
schrijven	-5591
▁aannemen	-5592
▁aarzelde	-5593
▁afscheid	-5594
▁bakkerij	-5595
▁benieuwd	-5596
▁beroemde	-5597
▁besturen	-5598
▁betreden	-5599
▁broodjes	-5600
▁communic	-5601
▁constant	-5602
▁demonstr	-5603
▁gedoucht	-5604
▁genoegen	-5605
▁gestoken	-5606
▁gevolgen	-5607
▁gewapend	-5608
▁gezongen	-5609
▁hongerig	-5610
▁illegaal	-5611
▁inwoners	-5612
▁kaartjes	-5613
▁kapitein	-5614
▁litteken	-5615
▁maaltijd	-5616
▁ontdekte	-5617
▁ontkende	-5618
▁opzoeken	-5619
▁overleed	-5620
▁perziken	-5621
▁rolstoel	-5622
▁schulden	-5623
▁stemming	-5624
▁stierven	-5625
▁toestand	-5626
▁verhalen	-5627
▁veronder	-5628
▁verwoest	-5629
▁vleugels	-5630
▁voltooid	-5631
▁voorheen	-5632
▁vuurwerk	-5633
▁zangeres	-5634
▁achtervol	-5635
▁assistent	-5636
▁behandelt	-5637
▁beschouwd	-5638
▁besproken	-5639
▁duizenden	-5640
▁eruitziet	-5641
▁gegoogeld	-5642
▁gemiddeld	-5643
▁geschoten	-5644
▁glimlacht	-5645
▁japanners	-5646
▁mercurius	-5647
▁nutteloos	-5648
▁onderzoek	-5649
▁ontzetten	-5650
▁opgenomen	-5651
▁overreden	-5652
▁populaire	-5653
▁programma	-5654
▁slechtste	-5655
▁uitzoeken	-5656
▁verbonden	-5657
▁vermijden	-5658
▁verslagen	-5659
▁voordelen	-5660
▁wiskundet	-5661
▁zitplaats	-5662
organiseerd	-5663
voorkomende	-5664
▁aangekleed	-5665
▁aangereden	-5666
▁appelbomen	-5667
▁barbecueën	-5668
▁behandelen	-5669
▁beschadigd	-5670
▁bestuurder	-5671
▁depressief	-5672
▁doelpunten	-5673
▁echtgenote	-5674
▁geantwoord	-5675
▁identiteit	-5676
▁kerstkaart	-5677
▁loodgieter	-5678
▁meegemaakt	-5679
▁middeleeuw	-5680
▁ongeduldig	-5681
▁ontmoetten	-5682
▁rechterarm	-5683
▁rekeningen	-5684
▁verblijven	-5685
▁vergunning	-5686
▁verklaring	-5687
▁verkleedde	-5688
▁verrassend	-5689
▁vertrouwde	-5690
▁verzamelen	-5691
▁voorouders	-5692
▁zorgvuldig	-5693
standigheden	-5694
▁accepteerde	-5695
▁autoongeluk	-5696
▁beschrijven	-5697
▁bewusteloos	-5698
▁elektrische	-5699
▁geadopteerd	-5700
▁gearriveerd	-5701
▁interesseer	-5702
▁investering	-5703
▁middernacht	-5704
▁morgenavond	-5705
▁restaurants	-5706
▁tweeduizend	-5707
▁vriendschap	-5708
▁aardbevingen	-5709
▁besmettelijk	-5710
▁brandweerman	-5711
▁buitengewoon	-5712
▁kinderachtig	-5713
▁ongelofelijk	-5714
▁ongelooflijk	-5715
▁rekenmachine	-5716
▁telefoontjes	-5717
▁tevoorschijn	-5718
▁uitzondering	-5719
▁verkiezingen	-5720
▁lievelingsvak	-5721
▁valentijnsdag	-5722
▁lievelingssport	-5723
ay	-5724
fe	-5725
ga	-5726
iz	-5727
ja	-5728
wn	-5729
yo	-5730
agr	-5731
ara	-5732
ars	-5733
beg	-5734
bum	-5735
ctu	-5736
ere	-5737
igt	-5738
ime	-5739
iol	-5740
its	-5741
kan	-5742
kon	-5743
okt	-5744
ons	-5745
▁eh	-5746
▁ky	-5747
▁oh	-5748
adig	-5749
aler	-5750
anda	-5751
auto	-5752
axof	-5753
bord	-5754
bras	-5755
eefs	-5756
eman	-5757
etas	-5758
gave	-5759
gent	-5760
hout	-5761
iaal	-5762
icos	-5763
icro	-5764
ieur	-5765
ilde	-5766
inas	-5767
inet	-5768
irur	-5769
isco	-5770
jant	-5771
keer	-5772
lect	-5773
load	-5774
nant	-5775
nist	-5776
odka	-5777
okje	-5778
oons	-5779
reet	-5780
reid	-5781
ring	-5782
roon	-5783
time	-5784
utje	-5785
vern	-5786
voet	-5787
wijk	-5788
zing	-5789
▁abr	-5790
▁air	-5791
▁akt	-5792
▁alv	-5793
▁asp	-5794
▁bak	-5795
▁bem	-5796
▁beu	-5797
▁bre	-5798
▁deb	-5799
▁dec	-5800
▁dek	-5801
▁hog	-5802
▁hyp	-5803
▁inc	-5804
▁ing	-5805
▁jog	-5806
▁kol	-5807
▁lol	-5808
▁lux	-5809
▁mun	-5810
▁not	-5811
▁onn	-5812
▁opv	-5813
▁pil	-5814
▁rak	-5815
▁rat	-5816
▁san	-5817
▁sok	-5818
▁tij	-5819
▁tit	-5820
aadde	-5821
aaier	-5822
aapte	-5823
arken	-5824
aties	-5825
drijk	-5826
esten	-5827
gooch	-5828
heids	-5829
idden	-5830
ielen	-5831
iftig	-5832
ijnig	-5833
immen	-5834
lucht	-5835
naast	-5836
oerte	-5837
olten	-5838
oogle	-5839
ordel	-5840
ormen	-5841
pasta	-5842
pelen	-5843
rogen	-5844
stijd	-5845
straf	-5846
stron	-5847
stuum	-5848
uisen	-5849
ument	-5850
ummen	-5851
vogel	-5852
vrees	-5853
vrije	-5854
▁aanh	-5855
▁apen	-5856
▁appl	-5857
▁bakt	-5858
▁barm	-5859
▁base	-5860
▁bron	-5861
▁café	-5862
▁dook	-5863
▁econ	-5864
▁febr	-5865
▁file	-5866
▁flat	-5867
▁garn	-5868
▁gids	-5869
▁kavi	-5870
▁kern	-5871
▁kiet	-5872
▁kist	-5873
▁knie	-5874
▁koel	-5875
▁kred	-5876
▁krit	-5877
▁kust	-5878
▁lage	-5879
▁leid	-5880
▁lieg	-5881
▁meed	-5882
▁meng	-5883
▁miss	-5884
▁noor	-5885
▁ondr	-5886
▁prie	-5887
▁priv	-5888
▁roer	-5889
▁rome	-5890
▁rotz	-5891
▁rund	-5892
▁skil	-5893
▁spek	-5894
▁stik	-5895
▁uitk	-5896
▁woen	-5897
aanval	-5898
bodoos	-5899
broken	-5900
doeken	-5901
durend	-5902
elling	-5903
ertijd	-5904
gebied	-5905
gebrui	-5906
gename	-5907
inding	-5908
ograaf	-5909
ontuur	-5910
praten	-5911
rennen	-5912
ressie	-5913
uldigd	-5914
vinden	-5915
zeggen	-5916
▁advis	-5917
▁arbei	-5918
▁arriv	-5919
▁beeld	-5920
▁blote	-5921
▁bodem	-5922
▁boeit	-5923
▁bonen	-5924
▁busje	-5925
▁chagr	-5926
▁check	-5927
▁colum	-5928
▁daten	-5929
▁datum	-5930
▁diner	-5931
▁erbij	-5932
▁exper	-5933
▁faill	-5934
▁filos	-5935
▁gebak	-5936
▁geldt	-5937
▁golft	-5938
▁haalt	-5939
▁haren	-5940
▁hooik	-5941
▁hoopt	-5942
▁instr	-5943
▁jasje	-5944
▁klant	-5945
▁klonk	-5946
▁kyoto	-5947
▁lager	-5948
▁markt	-5949
▁mengt	-5950
▁menig	-5951
▁micro	-5952
▁minst	-5953
▁offer	-5954
▁offic	-5955
▁onbet	-5956
▁ontvo	-5957
▁opera	-5958
▁opgeb	-5959
▁organ	-5960
▁paars	-5961
▁paste	-5962
▁ploeg	-5963
▁poets	-5964
▁schot	-5965
▁smeer	-5966
▁spook	-5967
▁tatoe	-5968
▁theor	-5969
▁tokyo	-5970
▁uitst	-5971
▁uzelf	-5972
▁vaker	-5973
▁virus	-5974
▁wenst	-5975
▁wodka	-5976
▁worst	-5977
▁wreed	-5978
▁zieke	-5979
▁zoons	-5980
▁zweeg	-5981
▁zweer	-5982
draaien	-5983
erveerd	-5984
feestje	-5985
gekeerd	-5986
gelovig	-5987
genoten	-5988
oftware	-5989
oudheid	-5990
pension	-5991
sproken	-5992
stoffen	-5993
tertijd	-5994
vaardig	-5995
▁astron	-5996
▁badpak	-5997
▁bankje	-5998
▁begaan	-5999
▁bekijk	-6000
▁bewaar	-6001
▁bijten	-6002
▁boeren	-6003
▁circus	-6004
▁dikker	-6005
▁export	-6006
▁gelief	-6007
▁gezakt	-6008
▁gluten	-6009
▁google	-6010
▁grenst	-6011
▁grijze	-6012
▁helder	-6013
▁hierna	-6014
▁huurde	-6015
▁leefde	-6016
▁letten	-6017
▁leunde	-6018
▁maling	-6019
▁mantel	-6020
▁melken	-6021
▁mouwen	-6022
▁object	-6023
▁omhels	-6024
▁opeens	-6025
▁opgedr	-6026
▁orkaan	-6027
▁pardon	-6028
▁pillen	-6029
▁pittig	-6030
▁poging	-6031
▁poëzie	-6032
▁pyjama	-6033
▁renden	-6034
▁roepen	-6035
▁salade	-6036
▁scheid	-6037
▁schiep	-6038
▁schuil	-6039
▁stapel	-6040
▁staren	-6041
▁stenen	-6042
▁strijk	-6043
▁studie	-6044
▁stuurt	-6045
▁talent	-6046
▁timmer	-6047
▁toneel	-6048
▁tracht	-6049
▁uitzag	-6050
▁verlen	-6051
▁verlof	-6052
▁vervol	-6053
▁verzen	-6054
▁vielen	-6055
▁waterp	-6056
▁wissel	-6057
▁zweden	-6058
ationale	-6059
fortabel	-6060
gestelde	-6061
gevraagd	-6062
middelen	-6063
oordelen	-6064
rriteerd	-6065
spilling	-6066
▁aktetas	-6067
▁ambitie	-6068
▁armband	-6069
▁bedacht	-6070
▁bedroog	-6071
▁bronnen	-6072
▁chinese	-6073
▁citroen	-6074
▁conclus	-6075
▁contant	-6076
▁dineren	-6077
▁douchen	-6078
▁draaien	-6079
▁drukken	-6080
▁drukker	-6081
▁eetbaar	-6082
▁ervaren	-6083
▁evenmin	-6084
▁examens	-6085
▁gedroeg	-6086
▁geheime	-6087
▁gekookt	-6088
▁gepland	-6089
▁geraken	-6090
▁gereden	-6091
▁gevoeld	-6092
▁invloed	-6093
▁kamelen	-6094
▁kapotte	-6095
▁kaviaar	-6096
▁ketting	-6097
▁kloppen	-6098
▁komende	-6099
▁krediet	-6100
▁kunsten	-6101
▁liefdes	-6102
▁misdaad	-6103
▁noorden	-6104
▁ophoudt	-6105
▁oprecht	-6106
▁patroon	-6107
▁plafond	-6108
▁recente	-6109
▁risicos	-6110
▁schaduw	-6111
▁schapen	-6112
▁schilde	-6113
▁schudde	-6114
▁slaagde	-6115
▁sliepen	-6116
▁stadion	-6117
▁stappen	-6118
▁stijgen	-6119
▁stootte	-6120
▁sympath	-6121
▁telkens	-6122
▁tentoon	-6123
▁theater	-6124
▁tijdver	-6125
▁vandoor	-6126
▁veranda	-6127
▁verborg	-6128
▁verheug	-6129
▁vervuil	-6130
▁verwend	-6131
▁waaraan	-6132
▁waarvan	-6133
▁zombies	-6134
▁zwijgen	-6135
afdrukken	-6136
▁aanstaan	-6137
▁achterin	-6138
▁avontuur	-6139
▁bedrogen	-6140
▁beroerte	-6141
▁besteden	-6142
▁briljant	-6143
▁daarheen	-6144
▁drankjes	-6145
▁ehbodoos	-6146
▁eigenaar	-6147
▁failliet	-6148
▁februari	-6149
▁fotograf	-6150
▁geregeld	-6151
▁geroepen	-6152
▁gezinnen	-6153
▁heleboel	-6154
▁hiervoor	-6155
▁japanner	-6156
▁onderaan	-6157
▁ongebrui	-6158
▁onhandig	-6159
▁ontgooch	-6160
▁opzetten	-6161
▁overkant	-6162
▁positief	-6163
▁priester	-6164
▁regering	-6165
▁sneeuwde	-6166
▁stadhuis	-6167
▁tandpijn	-6168
▁twijfels	-6169
▁uitgeven	-6170
▁uitmaken	-6171
▁verbaast	-6172
▁vertaald	-6173
▁voltijds	-6174
▁voorjaar	-6175
▁voorraad	-6176
▁voorzien	-6177
▁waardoor	-6178
▁woensdag	-6179
▁zilveren	-6180
schuldigen	-6181
tekeningen	-6182
▁aangezien	-6183
▁afspreken	-6184
▁antwoordt	-6185
▁arbeiders	-6186
▁belasting	-6187
▁beschaamd	-6188
▁betekenis	-6189
▁brandstof	-6190
▁dagelijks	-6191
▁drinkbaar	-6192
▁effectief	-6193
▁gelukkige	-6194
▁gepension	-6195
▁gesmolten	-6196
▁hiernaast	-6197
▁nationale	-6198
▁nieuwjaar	-6199
▁ontworpen	-6200
▁opgelucht	-6201
▁origineel	-6202
▁proefwerk	-6203
▁reageerde	-6204
▁realiseer	-6205
▁sneeuwman	-6206
▁spelletje	-6207
▁tandpasta	-6208
▁uitgegaan	-6209
▁verhuisde	-6210
▁verstuurd	-6211
▁verveelde	-6212
▁verzonden	-6213
▁volledige	-6214
▁waarderen	-6215
▁waardevol	-6216
▁zeventien	-6217
verzekering	-6218
▁aandachtig	-6219
▁aangeraden	-6220
▁accepteren	-6221
▁bevestigen	-6222
▁bewustzijn	-6223
▁chagrijnig	-6224
▁experiment	-6225
▁financiële	-6226
▁gevangenen	-6227
▁hooikoorts	-6228
▁huisdieren	-6229
▁journalist	-6230
▁leerkracht	-6231
▁medicament	-6232
▁onbeschoft	-6233
▁onderzocht	-6234
▁ontzettend	-6235
▁romantisch	-6236
▁smartphone	-6237
▁uitgesteld	-6238
▁uitsluiten	-6239
▁uitstellen	-6240
▁volwassene	-6241
▁voorzitter	-6242
▁vredesnaam	-6243
▁wasmachine	-6244
▁alternatief	-6245
▁beluisteren	-6246
▁boterhammen	-6247
▁conferentie	-6248
▁daarnaartoe	-6249
▁drieduizend	-6250
▁gelegenheid	-6251
▁goedemorgen	-6252
▁hoogtevrees	-6253
▁klasgenoten	-6254
▁lievelingsp	-6255
▁meerderheid	-6256
▁onderzoeken	-6257
▁opengelaten	-6258
▁overnachten	-6259
▁realiseerde	-6260
▁realistisch	-6261
▁rechterhand	-6262
▁schoorsteen	-6263
▁verkoudheid	-6264
▁voortdurend	-6265
▁watermeloen	-6266
▁autosleutels	-6267
▁controleerde	-6268
▁geneesmiddel	-6269
▁gereserveerd	-6270
▁interesseren	-6271
▁middeleeuwen	-6272
▁noodzakelijk	-6273
▁ondertekenen	-6274
▁opgeschreven	-6275
▁plaatselijke	-6276
▁verschuldigd	-6277
▁voorbereiden	-6278
▁waarschuwing	-6279
▁alternatieven	-6280
▁neergeschoten	-6281
▁teleurstellen	-6282
▁tijdschriften	-6283
▁veranderingen	-6284
▁vreemdelingen	-6285
▁wiskundetoets	-6286
▁internationale	-6287
▁omstandigheden	-6288
▁ongebruikelijk	-6289
▁politieagenten	-6290
▁schrijfmachine	-6291
▁tegelijkertijd	-6292
▁veelvoorkomende	-6293
fr	-6294
sd	-6295
sj	-6296
th	-6297
ua	-6298
ue	-6299
ux	-6300
ym	-6301
yn	-6302
abr	-6303
ack	-6304
adr	-6305
ase	-6306
aud	-6307
ceb	-6308
cef	-6309
did	-6310
dog	-6311
gas	-6312
gom	-6313
ild	-6314
kee	-6315
mos	-6316
ney	-6317
nsp	-6318
ofl	-6319
oni	-6320
pas	-6321
ror	-6322
ycl	-6323
zus	-6324
▁so	-6325
▁up	-6326
aalt	-6327
ambo	-6328
bald	-6329
bank	-6330
beer	-6331
belt	-6332
bouw	-6333
denk	-6334
dogs	-6335
eeft	-6336
eemt	-6337
eind	-6338
erem	-6339
eurt	-6340
geen	-6341
hedr	-6342
hode	-6343
ican	-6344
icil	-6345
ierd	-6346
ijdt	-6347
ille	-6348
inde	-6349
irok	-6350
irts	-6351
istr	-6352
iter	-6353
itis	-6354
itje	-6355
kool	-6356
koop	-6357
kten	-6358
lege	-6359
lers	-6360
loze	-6361
lust	-6362
mijd	-6363
nood	-6364
odie	-6365
othe	-6366
pass	-6367
perk	-6368
prim	-6369
rust	-6370
sens	-6371
uikt	-6372
umpt	-6373
vand	-6374
vang	-6375
verm	-6376
wijn	-6377
wten	-6378
zeer	-6379
zinn	-6380
zwem	-6381
▁aud	-6382
▁bow	-6383
▁cal	-6384
▁cat	-6385
▁cds	-6386
▁chr	-6387
▁dod	-6388
▁esp	-6389
▁gej	-6390
▁hap	-6391
▁hey	-6392
▁hom	-6393
▁jur	-6394
▁kei	-6395
▁kie	-6396
▁lef	-6397
▁lel	-6398
▁len	-6399
▁lim	-6400
▁lok	-6401
▁mos	-6402
▁nap	-6403
▁pel	-6404
▁pup	-6405
▁rac	-6406
▁rin	-6407
▁rod	-6408
▁rog	-6409
▁sem	-6410
▁soc	-6411
▁tak	-6412
▁upd	-6413
▁via	-6414
▁voe	-6415
aakte	-6416
affen	-6417
alade	-6418
arist	-6419
armen	-6420
azing	-6421
berig	-6422
broer	-6423
bruik	-6424
datum	-6425
derde	-6426
ecten	-6427
einde	-6428
ellig	-6429
ester	-6430
gevig	-6431
icken	-6432
ietje	-6433
igend	-6434
igerd	-6435
ikkel	-6436
inter	-6437
irurg	-6438
itect	-6439
izoen	-6440
kozen	-6441
lenen	-6442
logie	-6443
maals	-6444
matig	-6445
nspir	-6446
ogram	-6447
oofde	-6448
oosde	-6449
penst	-6450
pervl	-6451
plank	-6452
richt	-6453
ritis	-6454
rokod	-6455
roren	-6456
schip	-6457
slaan	-6458
steem	-6459
stels	-6460
sterd	-6461
tegen	-6462
ukkel	-6463
urfen	-6464
vaart	-6465
wonen	-6466
zamen	-6467
▁bede	-6468
▁bekl	-6469
▁bere	-6470
▁betr	-6471
▁card	-6472
▁dame	-6473
▁dode	-6474
▁doms	-6475
▁flos	-6476
▁foot	-6477
▁gaaf	-6478
▁gech	-6479
▁giet	-6480
▁goot	-6481
▁hert	-6482
▁heus	-6483
▁hing	-6484
▁hong	-6485
▁kass	-6486
▁keur	-6487
▁klap	-6488
▁kool	-6489
▁leed	-6490
▁lijf	-6491
▁lost	-6492
▁meel	-6493
▁onde	-6494
▁oost	-6495
▁pakt	-6496
▁peru	-6497
▁pier	-6498
▁plak	-6499
▁pols	-6500
▁pomp	-6501
▁proe	-6502
▁recl	-6503
▁rede	-6504
▁room	-6505
▁skis	-6506
▁snij	-6507
▁spot	-6508
▁stal	-6509
▁ther	-6510
▁tikt	-6511
▁toev	-6512
▁trad	-6513
▁trof	-6514
▁truc	-6515
▁turk	-6516
▁type	-6517
▁veld	-6518
▁vest	-6519
▁viol	-6520
▁voer	-6521
▁ware	-6522
▁west	-6523
▁wolf	-6524
▁wond	-6525
▁zalm	-6526
aalden	-6527
aarten	-6528
audiss	-6529
cebook	-6530
cefict	-6531
ctueel	-6532
deling	-6533
deweek	-6534
dienst	-6535
diging	-6536
drijks	-6537
estigd	-6538
gebouw	-6539
geniek	-6540
gevaar	-6541
gevoel	-6542
hangen	-6543
hebben	-6544
iceerd	-6545
iciënt	-6546
indigd	-6547
isatie	-6548
iteren	-6549
iënten	-6550
kennen	-6551
lommen	-6552
odigen	-6553
oeding	-6554
oflook	-6555
ontact	-6556
regels	-6557
rusten	-6558
schoen	-6559
slicht	-6560
sloten	-6561
urende	-6562
varing	-6563
volgen	-6564
vriend	-6565
wijzen	-6566
▁afsch	-6567
▁afval	-6568
▁behoe	-6569
▁benul	-6570
▁bewer	-6571
▁blies	-6572
▁bloes	-6573
▁bukte	-6574
▁dames	-6575
▁droge	-6576
▁dunne	-6577
▁ellen	-6578
▁ertoe	-6579
▁hoger	-6580
▁humor	-6581
▁inbeg	-6582
▁ingen	-6583
▁jager	-6584
▁leden	-6585
▁leken	-6586
▁lepel	-6587
▁leuks	-6588
▁linux	-6589
▁liter	-6590
▁loont	-6591
▁mango	-6592
▁meren	-6593
▁natte	-6594
▁ongeh	-6595
▁ongew	-6596
▁plast	-6597
▁poten	-6598
▁privé	-6599
▁raket	-6600
▁redde	-6601
▁scien	-6602
▁slaaf	-6603
▁snapt	-6604
▁speld	-6605
▁stelt	-6606
▁stijl	-6607
▁traan	-6608
▁trekt	-6609
▁tromp	-6610
▁tvgek	-6611
▁typen	-6612
▁uilen	-6613
▁updat	-6614
▁vaste	-6615
▁voorb	-6616
▁vuist	-6617
▁wegen	-6618
▁wegga	-6619
▁winst	-6620
▁zetel	-6621
▁zijde	-6622
▁zijne	-6623
▁zonde	-6624
▁zwijg	-6625
aakzaam	-6626
akelijk	-6627
ambozen	-6628
amerika	-6629
bedrijf	-6630
bronnen	-6631
gelopen	-6632
gewicht	-6633
ieleden	-6634
ikingen	-6635
illeijs	-6636
itteren	-6637
knuppel	-6638
leiding	-6639
mentaar	-6640
ocratie	-6641
spreker	-6642
trekken	-6643
vandaan	-6644
verhaal	-6645
werking	-6646
▁aarzel	-6647
▁balkon	-6648
▁ballon	-6649
▁barman	-6650
▁benijd	-6651
▁betrek	-6652
▁bevoor	-6653
▁bidden	-6654
▁boffen	-6655
▁bussen	-6656
▁concur	-6657
▁daarin	-6658
▁danser	-6659
▁detect	-6660
▁deuren	-6661
▁dorpje	-6662
▁duitse	-6663
▁gehele	-6664
▁gewild	-6665
▁giftig	-6666
▁gooien	-6667
▁graven	-6668
▁handig	-6669
▁herrie	-6670
▁honder	-6671
▁hoogst	-6672
▁hypocr	-6673
▁indien	-6674
▁juicht	-6675
▁kandid	-6676
▁kansen	-6677
▁kleind	-6678
▁knopen	-6679
▁kookte	-6680
▁kregen	-6681
▁krokod	-6682
▁kuisen	-6683
▁leende	-6684
▁lippen	-6685
▁meloen	-6686
▁mieren	-6687
▁moskee	-6688
▁myster	-6689
▁naaide	-6690
▁negeer	-6691
▁noemde	-6692
▁oneens	-6693
▁opmerk	-6694
▁pagina	-6695
▁partij	-6696
▁piloot	-6697
▁podium	-6698
▁poppen	-6699
▁rapper	-6700
▁ruimen	-6701
▁satell	-6702
▁scheer	-6703
▁schorp	-6704
▁shirts	-6705
▁snurkt	-6706
▁steken	-6707
▁storen	-6708
▁tapijt	-6709
▁teveel	-6710
▁tiener	-6711
▁tonijn	-6712
▁uitgel	-6713
▁valies	-6714
▁vergez	-6715
▁vorken	-6716
▁walvis	-6717
▁wangen	-6718
▁werpen	-6719
▁winder	-6720
▁zebras	-6721
▁zeilen	-6722
▁zolder	-6723
▁zongen	-6724
▁zwaard	-6725
amatisch	-6726
apparaat	-6727
atiseerd	-6728
ellingen	-6729
eremonie	-6730
gedragen	-6731
icilline	-6732
iekijken	-6733
oordeeld	-6734
persoons	-6735
plaatsen	-6736
rekening	-6737
vergeefs	-6738
▁aardige	-6739
▁afgesch	-6740
▁bekeken	-6741
▁bloosde	-6742
▁briefje	-6743
▁collega	-6744
▁diploma	-6745
▁dokters	-6746
▁drummen	-6747
▁druppel	-6748
▁elkaars	-6749
▁fluitje	-6750
▁gedumpt	-6751
▁gegooid	-6752
▁gemorst	-6753
▁genaamd	-6754
▁geplant	-6755
▁gestapt	-6756
▁getogen	-6757
▁gooiden	-6758
▁groeten	-6759
▁herkend	-6760
▁hetgeen	-6761
▁hotdogs	-6762
▁huurden	-6763
▁ijskoud	-6764
▁kalmeer	-6765
▁kathedr	-6766
▁kauwgom	-6767
▁klimmen	-6768
▁klinken	-6769
▁knuppel	-6770
▁kritiek	-6771
▁kwallen	-6772
▁leefden	-6773
▁lesboek	-6774
▁levende	-6775
▁manager	-6776
▁menigte	-6777
▁methode	-6778
▁meubels	-6779
▁minirok	-6780
▁moslims	-6781
▁oefende	-6782
▁offerte	-6783
▁onjuist	-6784
▁onzeker	-6785
▁overstr	-6786
▁paginas	-6787
▁positie	-6788
▁proeven	-6789
▁rechten	-6790
▁relatie	-6791
▁remedie	-6792
▁restjes	-6793
▁schaars	-6794
▁schakel	-6795
▁scheelt	-6796
▁scherpe	-6797
▁schrift	-6798
▁snurken	-6799
▁sociale	-6800
▁starten	-6801
▁suggest	-6802
▁toerist	-6803
▁trekker	-6804
▁tuinman	-6805
▁uiterst	-6806
▁updaten	-6807
▁uurtjes	-6808
▁uurwerk	-6809
▁vergift	-6810
▁verwant	-6811
▁vijfenv	-6812
▁vissers	-6813
▁vlinder	-6814
▁wegkomt	-6815
▁weigert	-6816
▁werkers	-6817
▁werkten	-6818
▁winters	-6819
▁zeerste	-6820
▁zonnebl	-6821
ascineerd	-6822
cefiction	-6823
nspireerd	-6824
penstelen	-6825
schrijver	-6826
vertellen	-6827
▁afzeggen	-6828
▁allerlei	-6829
▁american	-6830
▁arrogant	-6831
▁baseball	-6832
▁bedienen	-6833
▁begeleid	-6834
▁bereiden	-6835
▁bevallen	-6836
▁bevinden	-6837
▁bevonden	-6838
▁bijwonen	-6839
▁bovenste	-6840
▁columbus	-6841
▁complete	-6842
▁diensten	-6843
▁doodgaan	-6844
▁eilanden	-6845
▁europese	-6846
▁facebook	-6847
▁feestdag	-6848
▁football	-6849
▁gehandic	-6850
▁geklaagd	-6851
▁gelachen	-6852
▁geschokt	-6853
▁getallen	-6854
▁grappige	-6855
▁hebberig	-6856
▁humeurig	-6857
▁inbreker	-6858
▁ingepakt	-6859
▁jongeman	-6860
▁keelpijn	-6861
▁kietelen	-6862
▁klachten	-6863
▁knoflook	-6864
▁manieren	-6865
▁minuutje	-6866
▁modderig	-6867
▁muzikant	-6868
▁negeerde	-6869
▁oefening	-6870
▁ondernem	-6871
▁ondeugen	-6872
▁opletten	-6873
▁oppassen	-6874
▁planeten	-6875
▁rivieren	-6876
▁schaamde	-6877
▁scheurde	-6878
▁seconden	-6879
▁software	-6880
▁speciale	-6881
▁stofzuig	-6882
▁strikken	-6883
▁studente	-6884
▁tamelijk	-6885
▁tentamen	-6886
▁terugkom	-6887
▁toegeven	-6888
▁trouwens	-6889
▁uitlaten	-6890
▁uitlenen	-6891
▁veiliger	-6892
▁verdwijn	-6893
▁vermaken	-6894
▁vernoemd	-6895
▁verrader	-6896
▁verwarmd	-6897
▁verzeker	-6898
▁vijftien	-6899
▁vlinders	-6900
▁voordeel	-6901
▁voorhand	-6902
▁vrijheid	-6903
▁waarnaar	-6904
▁weigeren	-6905
▁zeldzaam	-6906
▁zeldzame	-6907
▁zoogdier	-6908
eliciteerd	-6909
▁aangename	-6910
▁aardrijks	-6911
▁afgemaakt	-6912
▁architect	-6913
▁beheersen	-6914
▁betekenen	-6915
▁bloeddruk	-6916
▁buurvrouw	-6917
▁champagne	-6918
▁crimineel	-6919
▁frambozen	-6920
▁gebruiker	-6921
▁gedurende	-6922
▁gesneeuwd	-6923
▁gevestigd	-6924
▁geëindigd	-6925
▁hardlopen	-6926
▁honderden	-6927
▁ingenieur	-6928
▁kleinzoon	-6929
▁kwaliteit	-6930
▁lekkerder	-6931
▁linkerarm	-6932
▁miljarden	-6933
▁misleiden	-6934
▁nijlpaard	-6935
▁omgekomen	-6936
▁onderbrak	-6937
▁ontbreken	-6938
▁ontplofte	-6939
▁ontsnapte	-6940
▁onvermijd	-6941
▁opgericht	-6942
▁parkeerde	-6943
▁punctueel	-6944
▁rundvlees	-6945
▁schildert	-6946
▁skileraar	-6947
▁snowboard	-6948
▁toevoegen	-6949
▁tolereren	-6950
▁tvgekeken	-6951
▁uiteraard	-6952
▁verbaasde	-6953
▁verbazing	-6954
▁verenigen	-6955
▁verklaren	-6956
▁vervelend	-6957
▁volleybal	-6958
▁vrijgevig	-6959
▁weekeinde	-6960
▁weggooien	-6961
▁zakdoeken	-6962
▁aanbevolen	-6963
▁aantrekken	-6964
▁applaudiss	-6965
▁astrologie	-6966
▁astronomie	-6967
▁behandelde	-6968
▁brievenbus	-6969
▁commentaar	-6970
▁doordeweek	-6971
▁eeuwigheid	-6972
▁fluisterde	-6973
▁fotogeniek	-6974
▁goedenacht	-6975
▁hartaanval	-6976
▁herinnerde	-6977
▁inbegrepen	-6978
▁kerstavond	-6979
▁leugenaars	-6980
▁maaltijden	-6981
▁makkelijke	-6982
▁middageten	-6983
▁ondersteun	-6984
▁onverwacht	-6985
▁opengedaan	-6986
▁papegaaien	-6987
▁picknicken	-6988
▁repareerde	-6989
▁respecteer	-6990
▁secretaris	-6991
▁stiefvader	-6992
▁stofzuigen	-6993
▁uitdrukken	-6994
▁uitgelezen	-6995
▁uitnodigen	-6996
▁vanilleijs	-6997
▁voetballen	-6998
▁weggelopen	-6999
▁afhankelijk	-7000
▁biologische	-7001
▁eerlijkheid	-7002
▁gehoorzamen	-7003
▁gevaarlijke	-7004
▁goedgelovig	-7005
▁goedkoopste	-7006
▁honkbalteam	-7007
▁identiteits	-7008
▁ingesneeuwd	-7009
▁lievelingsd	-7010
▁lievelingsf	-7011
▁onaangenaam	-7012
▁ontgoocheld	-7013
▁penicilline	-7014
▁reservering	-7015
▁respecteren	-7016
▁snowboarden	-7017
▁stripboeken	-7018
▁toentertijd	-7019
▁tweehonderd	-7020
▁uitgelachen	-7021
▁veiligheids	-7022
▁vernietigen	-7023
▁verplaatsen	-7024
▁vijfhonderd	-7025
▁vleermuizen	-7026
▁vreemdeling	-7027
▁vriendinnen	-7028
▁vrijgelaten	-7029
▁ziekenwagen	-7030
persoonskamer	-7031
▁avontuurlijk	-7032
▁beschuldigde	-7033
▁boekenwinkel	-7034
▁brandstoffen	-7035
▁discussiëren	-7036
▁gefascineerd	-7037
▁interessants	-7038
▁kleindochter	-7039
▁kredietkaart	-7040
▁optimistisch	-7041
▁overlevenden	-7042
▁pijpenstelen	-7043
▁schrijftafel	-7044
▁tennisspeler	-7045
▁teruggekeerd	-7046
▁vermoedelijk	-7047
▁verstaanbaar	-7048
▁aantekeningen	-7049
▁doorvertellen	-7050
▁gefeliciteerd	-7051
▁gisterenavond	-7052
▁huwelijksreis	-7053
▁kerstkaartjes	-7054
▁moeilijkheden	-7055
▁onbetrouwbaar	-7056
▁paddenstoelen	-7057
▁aardrijkskunde	-7058
▁honkbalknuppel	-7059
▁sciencefiction	-7060
▁teleurstelling	-7061
▁televisiekijken	-7062
▁tijdverspilling	-7063
▁verkeersongeval	-7064
dy	-7065
md	-7066
ns	-7067
ox	-7068
uj	-7069
wa	-7070
aka	-7071
arc	-7072
bes	-7073
cel	-7074
cif	-7075
cou	-7076
doc	-7077
doe	-7078
dom	-7079
exy	-7080
fob	-7081
gië	-7082
hai	-7083
het	-7084
hok	-7085
ics	-7086
ign	-7087
kor	-7088
ksh	-7089
let	-7090
lid	-7091
olo	-7092
olt	-7093
omb	-7094
opp	-7095
our	-7096
oze	-7097
ple	-7098
pot	-7099
rop	-7100
rot	-7101
spl	-7102
ubl	-7103
ull	-7104
una	-7105
urn	-7106
vat	-7107
▁ab	-7108
▁ed	-7109
▁ie	-7110
▁ts	-7111
aadt	-7112
aaim	-7113
acam	-7114
aham	-7115
ande	-7116
anse	-7117
avel	-7118
aver	-7119
baan	-7120
bied	-7121
blad	-7122
bode	-7123
boer	-7124
chen	-7125
cher	-7126
club	-7127
corn	-7128
cuus	-7129
dans	-7130
deer	-7131
doos	-7132
eldt	-7133
eras	-7134
erij	-7135
ersk	-7136
esse	-7137
eurs	-7138
even	-7139
goer	-7140
heel	-7141
hoek	-7142
ieso	-7143
iger	-7144
ingu	-7145
isen	-7146
koek	-7147
ksel	-7148
leid	-7149
neus	-7150
noot	-7151
oefd	-7152
oete	-7153
oogt	-7154
part	-7155
pool	-7156
raag	-7157
rans	-7158
reef	-7159
reur	-7160
romp	-7161
root	-7162
sert	-7163
spro	-7164
stip	-7165
stok	-7166
ting	-7167
tjev	-7168
ugal	-7169
ugde	-7170
usie	-7171
veau	-7172
verv	-7173
verw	-7174
vijg	-7175
voud	-7176
weit	-7177
ziek	-7178
zijd	-7179
zond	-7180
zorg	-7181
▁afk	-7182
▁ast	-7183
▁bac	-7184
▁beë	-7185
▁bie	-7186
▁bon	-7187
▁duw	-7188
▁fat	-7189
▁fir	-7190
▁fuj	-7191
▁fys	-7192
▁gum	-7193
▁inn	-7194
▁ist	-7195
▁jan	-7196
▁kab	-7197
▁kar	-7198
▁kas	-7199
▁kre	-7200
▁lip	-7201
▁mam	-7202
▁mas	-7203
▁mat	-7204
▁mok	-7205
▁nin	-7206
▁nip	-7207
▁opn	-7208
▁pet	-7209
▁put	-7210
▁ram	-7211
▁rap	-7212
▁ret	-7213
▁sms	-7214
▁sou	-7215
▁sow	-7216
▁suf	-7217
▁tul	-7218
▁uwe	-7219
▁vel	-7220
▁vet	-7221
adrid	-7222
ampoo	-7223
anken	-7224
arder	-7225
atebo	-7226
atiek	-7227
ating	-7228
auwer	-7229
blijk	-7230
brief	-7231
centr	-7232
chter	-7233
drank	-7234
eldra	-7235
eller	-7236
enken	-7237
erden	-7238
erten	-7239
ffelt	-7240
gever	-7241
groot	-7242
hingt	-7243
ietst	-7244
ijzer	-7245
ikker	-7246
inent	-7247
inger	-7248
istor	-7249
itaal	-7250
jovis	-7251
lecht	-7252
liefd	-7253
lijst	-7254
ocust	-7255
oelen	-7256
offen	-7257
ollen	-7258
ompen	-7259
onair	-7260
oneel	-7261
opers	-7262
oreel	-7263
orens	-7264
owboy	-7265
perge	-7266
plant	-7267
regel	-7268
rekte	-7269
reren	-7270
rijke	-7271
ringd	-7272
saxof	-7273
schat	-7274
slang	-7275
tenis	-7276
venir	-7277
weten	-7278
xamen	-7279
zeren	-7280
zigen	-7281
▁aanl	-7282
▁athe	-7283
▁bell	-7284
▁boed	-7285
▁brit	-7286
▁clau	-7287
▁daag	-7288
▁disc	-7289
▁dnat	-7290
▁down	-7291
▁duim	-7292
▁erom	-7293
▁etui	-7294
▁fooi	-7295
▁forn	-7296
▁gecr	-7297
▁gods	-7298
▁harp	-7299
▁heup	-7300
▁iron	-7301
▁kenn	-7302
▁klav	-7303
▁knul	-7304
▁krap	-7305
▁krui	-7306
▁lekt	-7307
▁lijn	-7308
▁loos	-7309
▁losl	-7310
▁lukt	-7311
▁luxe	-7312
▁mart	-7313
▁misl	-7314
▁nauw	-7315
▁nier	-7316
▁onop	-7317
▁opkl	-7318
▁paus	-7319
▁pech	-7320
▁pijp	-7321
▁pupp	-7322
▁runt	-7323
▁sens	-7324
▁sexy	-7325
▁show	-7326
▁smal	-7327
▁tolk	-7328
▁uitm	-7329
▁vaag	-7330
▁vaar	-7331
▁volk	-7332
▁walg	-7333
▁ween	-7334
▁wend	-7335
▁zake	-7336
▁zang	-7337
▁zwal	-7338
▁zwer	-7339
aagden	-7340
aarsch	-7341
aatste	-7342
aderde	-7343
akkerl	-7344
anghai	-7345
arming	-7346
aseerd	-7347
binnen	-7348
cherch	-7349
deelte	-7350
deerde	-7351
deloos	-7352
docent	-7353
eefden	-7354
eelden	-7355
eesten	-7356
erdaad	-7357
erking	-7358
escoop	-7359
examen	-7360
houder	-7361
ivatie	-7362
kanker	-7363
kosten	-7364
leggen	-7365
lenzen	-7366
letjes	-7367
menten	-7368
oneerd	-7369
oosten	-7370
ouwers	-7371
passen	-7372
rijgen	-7373
rijken	-7374
rijzen	-7375
singen	-7376
sleven	-7377
staand	-7378
stoker	-7379
streek	-7380
tallen	-7381
uffeld	-7382
untend	-7383
vernij	-7384
werpen	-7385
zinnig	-7386
▁abonn	-7387
▁abrik	-7388
▁admin	-7389
▁afzet	-7390
▁alert	-7391
▁alice	-7392
▁alpen	-7393
▁annul	-7394
▁atmos	-7395
▁baard	-7396
▁baden	-7397
▁bakte	-7398
▁barst	-7399
▁basis	-7400
▁beled	-7401
▁beper	-7402
▁blaas	-7403
▁breed	-7404
▁charm	-7405
▁coach	-7406
▁debat	-7407
▁deeln	-7408
▁dient	-7409
▁diepe	-7410
▁direc	-7411
▁dozen	-7412
▁drong	-7413
▁dwars	-7414
▁eikel	-7415
▁franc	-7416
▁ganse	-7417
▁gezel	-7418
▁gleed	-7419
▁griep	-7420
▁haaks	-7421
▁halve	-7422
▁hecht	-7423
▁heten	-7424
▁hevig	-7425
▁ingev	-7426
▁johan	-7427
▁kaars	-7428
▁kneep	-7429
▁knipp	-7430
▁knipt	-7431
▁lawaa	-7432
▁leent	-7433
▁lucif	-7434
▁luide	-7435
▁meent	-7436
▁metro	-7437
▁natie	-7438
▁neven	-7439
▁ofwel	-7440
▁onmis	-7441
▁opgem	-7442
▁opgev	-7443
▁osaka	-7444
▁paras	-7445
▁priem	-7446
▁reeds	-7447
▁rolde	-7448
▁sauna	-7449
▁schol	-7450
▁schop	-7451
▁smolt	-7452
▁speet	-7453
▁spoor	-7454
▁stoer	-7455
▁stoom	-7456
▁vecht	-7457
▁verbr	-7458
▁visum	-7459
▁volks	-7460
▁waagt	-7461
▁waart	-7462
▁wedst	-7463
▁zaden	-7464
▁zakje	-7465
▁zakte	-7466
▁zicht	-7467
▁zoete	-7468
aaglijk	-7469
achtoff	-7470
alische	-7471
baarder	-7472
bericht	-7473
cadeaus	-7474
eesbaar	-7475
ementen	-7476
entegen	-7477
erskiën	-7478
fobisch	-7479
gebrand	-7480
gelogen	-7481
hington	-7482
houdend	-7483
innetje	-7484
kaarten	-7485
klimmen	-7486
leveren	-7487
lijstje	-7488
oetbald	-7489
passing	-7490
pervlak	-7491
stelsel	-7492
stemmen	-7493
sterdam	-7494
stische	-7495
tegrond	-7496
tjevier	-7497
uldigen	-7498
waardig	-7499
woorden	-7500
zuchtig	-7501
▁alweer	-7502
▁banden	-7503
▁beleid	-7504
▁belgië	-7505
▁bestel	-7506
▁besten	-7507
▁beters	-7508
▁blijkt	-7509
▁bowlen	-7510
▁breken	-7511
▁broden	-7512
▁compet	-7513
▁cowboy	-7514
▁daarop	-7515
▁deksel	-7516
▁disney	-7517
▁doelen	-7518
▁doodde	-7519
▁doodse	-7520
▁draken	-7521
▁drijft	-7522
▁drukke	-7523
▁duimen	-7524
▁erwten	-7525
▁excuus	-7526
▁faalde	-7527
▁flesje	-7528
▁geheel	-7529
▁gember	-7530
▁genade	-7531
▁genoot	-7532
▁gepast	-7533
▁gerend	-7534
▁gierig	-7535
▁heette	-7536
▁herten	-7537
▁hikken	-7538
▁ingest	-7539
▁inspir	-7540
▁kanten	-7541
▁kelder	-7542
▁kelner	-7543
▁keuzes	-7544
▁klacht	-7545
▁klaver	-7546
▁knieën	-7547
▁knikte	-7548
▁konink	-7549
▁korter	-7550
▁kraken	-7551
▁kunstm	-7552
▁labjas	-7553
▁lelies	-7554
▁luider	-7555
▁luncht	-7556
▁madrid	-7557
▁mandar	-7558
▁mangos	-7559
▁mengen	-7560
▁merken	-7561
▁messen	-7562
▁metaal	-7563
▁milieu	-7564
▁moeras	-7565
▁muizen	-7566
▁niksen	-7567
▁niveau	-7568
▁omsing	-7569
▁opgave	-7570
▁overbo	-7571
▁pellen	-7572
▁plicht	-7573
▁pollen	-7574
▁proper	-7575
▁raapte	-7576
▁regens	-7577
▁remmen	-7578
▁roddel	-7579
▁rommel	-7580
▁rondom	-7581
▁rookte	-7582
▁ruimde	-7583
▁schand	-7584
▁scheik	-7585
▁schrok	-7586
▁snapte	-7587
▁steekt	-7588
▁stemde	-7589
▁stevig	-7590
▁stress	-7591
▁struis	-7592
▁sukkel	-7593
▁tenzij	-7594
▁toetje	-7595
▁trager	-7596
▁troost	-7597
▁tulpen	-7598
▁uitweg	-7599
▁uurtje	-7600
▁velden	-7601
▁vergif	-7602
▁vergis	-7603
▁versie	-7604
▁vijfde	-7605
▁voegde	-7606
▁vullen	-7607
▁warmte	-7608
▁wekken	-7609
▁weldra	-7610
▁wijdde	-7611
▁woning	-7612
▁wonnen	-7613
▁wortel	-7614
▁zijden	-7615
▁zoende	-7616
▁zonneb	-7617
deleraar	-7618
ettergek	-7619
gekregen	-7620
gestoken	-7621
kundigen	-7622
namelijk	-7623
operatie	-7624
sstudent	-7625
verliefd	-7626
wisselen	-7627
▁aanbouw	-7628
▁amuseer	-7629
▁antieke	-7630
▁appelen	-7631
▁asperge	-7632
▁bedoeld	-7633
▁begroet	-7634
▁behoort	-7635
▁bekijkt	-7636
▁bepalen	-7637
▁bewaard	-7638
▁bewaker	-7639
▁bezoekt	-7640
▁bijnaam	-7641
▁bloeien	-7642
▁bruggen	-7643
▁cadeaus	-7644
▁cardiol	-7645
▁checkte	-7646
▁college	-7647
▁daarbij	-7648
▁daartoe	-7649
▁deurbel	-7650
▁dnatest	-7651
▁dolfijn	-7652
▁dreigde	-7653
▁droegen	-7654
▁duister	-7655
▁eiffelt	-7656
▁espress	-7657
▁felicit	-7658
▁fluiten	-7659
▁geautom	-7660
▁gebaren	-7661
▁geesten	-7662
▁geladen	-7663
▁geliefd	-7664
▁gemogen	-7665
▁gereisd	-7666
▁getoond	-7667
▁gewonde	-7668
▁grondig	-7669
▁haastig	-7670
▁haastte	-7671
▁hoefden	-7672
▁hoorden	-7673
▁huilden	-7674
▁inlicht	-7675
▁instaan	-7676
▁install	-7677
▁kakkerl	-7678
▁kangoer	-7679
▁kikkers	-7680
▁kleuter	-7681
▁klokken	-7682
▁knapper	-7683
▁koppijn	-7684
▁kostuum	-7685
▁lelijke	-7686
▁machtig	-7687
▁meedoen	-7688
▁melodie	-7689
▁mevrouw	-7690
▁mochten	-7691
▁monster	-7692
▁nichten	-7693
▁nonsens	-7694
▁omringd	-7695
▁onthoud	-7696
▁ontwijk	-7697
▁oorvijg	-7698
▁opladen	-7699
▁opzicht	-7700
▁overdag	-7701
▁pianist	-7702
▁popcorn	-7703
▁proefde	-7704
▁reclame	-7705
▁regelen	-7706
▁rotzooi	-7707
▁rugpijn	-7708
▁scheert	-7709
▁schopte	-7710
▁schoten	-7711
▁skatebo	-7712
▁slaatje	-7713
▁slikken	-7714
▁slimste	-7715
▁smaakte	-7716
▁snelweg	-7717
▁snoepje	-7718
▁soldaat	-7719
▁sowieso	-7720
▁spelers	-7721
▁spellen	-7722
▁springt	-7723
▁stapten	-7724
▁stinken	-7725
▁stokjes	-7726
▁stotter	-7727
▁systeem	-7728
▁taarten	-7729
▁tennist	-7730
▁tevoren	-7731
▁theorie	-7732
▁tieners	-7733
▁trainen	-7734
▁trainer	-7735
▁turkije	-7736
▁typisch	-7737
▁uitgest	-7738
▁uitkeek	-7739
▁uitslag	-7740
▁veilige	-7741
▁verband	-7742
▁verdere	-7743
▁vergeef	-7744
▁verspre	-7745
▁vochten	-7746
▁vriezen	-7747
▁wandelt	-7748
▁winnaar	-7749
▁zenuwen	-7750
▁zwaaide	-7751
aarschuwd	-7752
auwernood	-7753
chauffeur	-7754
plantatie	-7755
▁aangeven	-7756
▁aanhoren	-7757
▁aanvraag	-7758
▁afwassen	-7759
▁amuseren	-7760
▁ansjovis	-7761
▁apotheek	-7762
▁bedankte	-7763
▁behandel	-7764
▁behoefte	-7765
▁bereikte	-7766
▁besliste	-7767
▁besparen	-7768
▁bevriest	-7769
▁brachten	-7770
▁buikpijn	-7771
▁buitenge	-7772
▁claustro	-7773
▁december	-7774
▁doodging	-7775
▁download	-7776
▁driemaal	-7777
▁eindigen	-7778
▁eiwitten	-7779
▁ellendig	-7780
▁families	-7781
▁gebouwen	-7782
▁gefietst	-7783
▁gefocust	-7784
▁gegevens	-7785
▁geleerde	-7786
▁genieten	-7787
▁geschopt	-7788
▁getuigen	-7789
▁griezelf	-7790
▁groentes	-7791
▁handelde	-7792
▁herhaalt	-7793
▁hopeloos	-7794
▁illegale	-7795
▁immoreel	-7796
▁inpakken	-7797
▁invullen	-7798
▁ironisch	-7799
▁jongeren	-7800
▁juichten	-7801
▁landbouw	-7802
▁loslaten	-7803
▁muzikaal	-7804
▁naaktstr	-7805
▁nachtmer	-7806
▁omhelsde	-7807
▁ongewoon	-7808
▁onschuld	-7809
▁ontvoerd	-7810
▁opklaren	-7811
▁opvolgen	-7812
▁opwarmen	-7813
▁overhand	-7814
▁overheid	-7815
▁overweeg	-7816
▁pijnlijk	-7817
▁pleister	-7818
▁portugal	-7819
▁postbode	-7820
▁recherch	-7821
▁repareer	-7822
▁rinkelen	-7823
▁schatten	-7824
▁semester	-7825
▁shanghai	-7826
▁souvenir	-7827
▁spannend	-7828
▁stikstof	-7829
▁strijken	-7830
▁tandheel	-7831
▁tijdperk	-7832
▁tijdstip	-7833
▁typische	-7834
▁vensters	-7835
▁verbijst	-7836
▁verdacht	-7837
▁verheugt	-7838
▁verloopt	-7839
▁vermoeid	-7840
▁verraste	-7841
▁verreweg	-7842
▁versteld	-7843
▁vertaler	-7844
▁vertegen	-7845
▁verveeld	-7846
▁verzamel	-7847
▁vikingen	-7848
▁virussen	-7849
▁voordeur	-7850
▁voorover	-7851
aaimachine	-7852
blijkelijk	-7853
gevaarlijk	-7854
grootvader	-7855
▁aankleden	-7856
▁aanvangen	-7857
▁aanzetten	-7858
▁accepteer	-7859
▁administr	-7860
▁afgehaald	-7861
▁afwachten	-7862
▁atmosfeer	-7863
▁beginners	-7864
▁bemanning	-7865
▁bereikten	-7866
▁beschermt	-7867
▁bijhouden	-7868
▁brandhout	-7869
▁componist	-7870
▁continent	-7871
▁donderdag	-7872
▁drinkgeld	-7873
▁efficiënt	-7874
▁excuseren	-7875
▁fluistert	-7876
▁francisco	-7877
▁gebaseerd	-7878
▁geruchten	-7879
▁gevangene	-7880
▁geweigerd	-7881
▁gordijnen	-7882
▁groenland	-7883
▁halfbroer	-7884
▁heterdaad	-7885
▁hypocriet	-7886
▁introvert	-7887
▁kennelijk	-7888
▁knuffelen	-7889
▁kruisvaar	-7890
▁menselijk	-7891
▁microfoon	-7892
▁miljonair	-7893
▁misselijk	-7894
▁motivatie	-7895
▁nippertje	-7896
▁noodgeval	-7897
▁noordpool	-7898
▁officiële	-7899
▁omdraaien	-7900
▁ondergaan	-7901
▁ondeugend	-7902
▁onmisbaar	-7903
▁oorsprong	-7904
▁opgekomen	-7905
▁opgemerkt	-7906
▁overstuur	-7907
▁overwegen	-7908
▁papiertje	-7909
▁patiënten	-7910
▁productie	-7911
▁rijexamen	-7912
▁schroeven	-7913
▁slachtoff	-7914
▁slavernij	-7915
▁spannende	-7916
▁speciaals	-7917
▁spijbelen	-7918
▁standpunt	-7919
▁tegenkwam	-7920
▁telescoop	-7921
▁tennisser	-7922
▁terugzien	-7923
▁thuiskomt	-7924
▁timmerman	-7925
▁uiterlijk	-7926
▁uitpraten	-7927
▁uitrusten	-7928
▁universum	-7929
▁vanbuiten	-7930
▁verbleven	-7931
▁verblijft	-7932
▁verdachte	-7933
▁verplaats	-7934
▁verraadde	-7935
▁verschijn	-7936
▁verslaafd	-7937
▁verslecht	-7938
▁versleten	-7939
▁vertrouwd	-7940
▁verwijten	-7941
▁verzenden	-7942
▁verzetten	-7943
▁verzonnen	-7944
▁waardeert	-7945
▁waterstof	-7946
▁weerstaan	-7947
▁wegrennen	-7948
▁zakkenrol	-7949
▁zekerheid	-7950
▁aangeraakt	-7951
▁aansluiten	-7952
▁aanstaande	-7953
▁aardappels	-7954
▁acceptabel	-7955
▁adviseerde	-7956
▁afgeschaft	-7957
▁amerikaans	-7958
▁arriveerde	-7959
▁autistisch	-7960
▁begeleidde	-7961
▁bereikbaar	-7962
▁beschermde	-7963
▁beschouwde	-7964
▁bestelling	-7965
▁bewonderde	-7966
▁bewonderen	-7967
▁bijzonders	-7968
▁biologisch	-7969
▁conclusies	-7970
▁democratie	-7971
▁doodgegaan	-7972
▁drinkwater	-7973
▁feestdagen	-7974
▁financieel	-7975
▁fluisteren	-7976
▁gehoorzaam	-7977
▁geknuffeld	-7978
▁gevoetbald	-7979
▁gezelschap	-7980
▁goedkopere	-7981
▁kathedraal	-7982
▁klasgenoot	-7983
▁knettergek	-7984
▁kraanwater	-7985
▁kunstenaar	-7986
▁lawaaierig	-7987
▁literatuur	-7988
▁neerzetten	-7989
▁onafscheid	-7990
▁onderbreek	-7991
▁ontmoeting	-7992
▁opgebleven	-7993
▁opgevallen	-7994
▁oversteekt	-7995
▁overvallen	-7996
▁priemgetal	-7997
▁probeerden	-7998
▁profession	-7999
▁realiseren	-8000
▁reserveren	-8001
▁slapengaan	-8002
▁spelletjes	-8003
▁spelregels	-8004
▁stilletjes	-8005
▁sympathiek	-8006
▁tevergeefs	-8007
▁tientallen	-8008
▁toegegeven	-8009
▁toelichten	-8010
▁toepassing	-8011
▁toneelstuk	-8012
▁uitgekomen	-8013
▁uitgekozen	-8014
▁uitmuntend	-8015
▁vasthouden	-8016
▁verdrinken	-8017
▁verdwijnen	-8018
▁vergelijkt	-8019
▁verwijderd	-8020
▁verzamelde	-8021
▁vlieghaven	-8022
▁waardeloos	-8023
▁washington	-8024
▁waterskiën	-8025
▁wisselgeld	-8026
▁aangehouden	-8027
▁afgesproken	-8028
▁allergische	-8029
▁beroemdheid	-8030
▁beschuldigd	-8031
▁comfortabel	-8032
▁concentreer	-8033
▁conserveren	-8034
▁daarentegen	-8035
▁dichtgedaan	-8036
▁eiffeltoren	-8037
▁gehandicapt	-8038
▁gisternacht	-8039
▁hulpbronnen	-8040
▁kamergenoot	-8041
▁natuurkunde	-8042
▁onderhouden	-8043
▁ondervonden	-8044
▁opzettelijk	-8045
▁organisatie	-8046
▁paardrijden	-8047
▁plotselinge	-8048
▁snowboarder	-8049
▁technologie	-8050
▁telefonisch	-8051
▁terugbellen	-8052
▁uitgevallen	-8053
▁veroorzaken	-8054
▁vliegtuigon	-8055
▁voetbalteam	-8056
▁voorgelogen	-8057
▁voorspellen	-8058
▁vrouwelijke	-8059
▁waarschuwde	-8060
▁watertekort	-8061
▁wedstrijden	-8062
▁zaklantaarn	-8063
▁zitplaatsen	-8064
▁aangetrokken	-8065
▁aanmerkingen	-8066
▁afschuwelijk	-8067
▁australische	-8068
▁beantwoordde	-8069
▁communicatie	-8070
▁familieleden	-8071
▁gebruikmaken	-8072
▁gemeenschapp	-8073
▁gewaarschuwd	-8074
▁herschrijven	-8075
▁kapotgemaakt	-8076
▁kerstcadeaus	-8077
▁kerstkaartje	-8078
▁regenseizoen	-8079
▁schoonmoeder	-8080
▁sterrenbeeld	-8081
▁tegengekomen	-8082
▁terugbrengen	-8083
▁toiletpapier	-8084
▁verrassingen	-8085
▁vijandelijke	-8086
▁voornamelijk	-8087
▁voorstelling	-8088
▁werkloosheid	-8089
▁binnengekomen	-8090
▁contactlenzen	-8091
▁georganiseerd	-8092
▁honkbalspeler	-8093
▁interessanter	-8094
▁klavertjevier	-8095
▁kleuterschool	-8096
▁nationaliteit	-8097
▁sinaasappelen	-8098
▁ternauwernood	-8099
▁verstoppertje	-8100
▁vriendinnetje	-8101
▁vrijwilligers	-8102
▁wetenschappen	-8103
▁zondagochtend	-8104
▁benzinestation	-8105
▁bevooroordeeld	-8106
▁gebruikersnaam	-8107
▁onvermijdelijk	-8108
▁plaatsgevonden	-8109
▁zevenentwintig	-8110
▁claustrofobisch	-8111
▁geautomatiseerd	-8112
▁klaarblijkelijk	-8113
▁sinaasappelboom	-8114
▁tenniswedstrijd	-8115
▁tentoonstelling	-8116
▁tweedehandsauto	-8117
▁verontschuldigd	-8118
▁verpleegkundige	-8119
dh	-8120
ky	-8121
pe	-8122
uf	-8123
yw	-8124
aca	-8125
ado	-8126
aff	-8127
ald	-8128
ami	-8129
ane	-8130
axt	-8131
beh	-8132
bek	-8133
des	-8134
edr	-8135
fec	-8136
gar	-8137
giv	-8138
hel	-8139
her	-8140
his	-8141
hwe	-8142
ial	-8143
ibr	-8144
igr	-8145
ill	-8146
ior	-8147
ips	-8148
isa	-8149
jam	-8150
kok	-8151
lam	-8152
lap	-8153
net	-8154
ntr	-8155
ola	-8156
ona	-8157
ose	-8158
oss	-8159
rel	-8160
sal	-8161
ton	-8162
tre	-8163
uba	-8164
ume	-8165
uts	-8166
uwe	-8167
vre	-8168
wat	-8169
zon	-8170
▁ah	-8171
▁ca	-8172
▁es	-8173
▁go	-8174
▁gu	-8175
▁ub	-8176
▁vn	-8177
aaie	-8178
ackt	-8179
adet	-8180
afle	-8181
aint	-8182
akes	-8183
alig	-8184
amed	-8185
amus	-8186
anic	-8187
ants	-8188
apje	-8189
arie	-8190
arme	-8191
asie	-8192
beet	-8193
coli	-8194
cond	-8195
door	-8196
eech	-8197
egen	-8198
egie	-8199
ddy	-8200
dier	-8201
ella	-8202
ffie	-8203
foto	-8204
gerd	-8205
gere	-8206
gram	-8207
gtop	-8208
harm	-8209
hoed	-8210
iech	-8211
iele	-8212
ierp	-8213
ific	-8214
ilos	-8215
inen	-8216
iode	-8217
ipul	-8218
ispt	-8219
itor	-8220
kust	-8221
lamp	-8222
lant	-8223
lief	-8224
liep	-8225
maak	-8226
maar	-8227
meel	-8228
moni	-8229
oegt	-8230
oeld	-8231
ofie	-8232
olie	-8233
ompl	-8234
oned	-8235
opst	-8236
orde	-8237
orel	-8238
orte	-8239
ouse	-8240
pect	-8241
post	-8242
pper	-8243
prik	-8244
prut	-8245
rget	-8246
ries	-8247
rood	-8248
soen	-8249
stek	-8250
szin	-8251
tens	-8252
test	-8253
thod	-8254
tige	-8255
uash	-8256
ubil	-8257
uila	-8258
uimd	-8259
ulum	-8260
umow	-8261
unct	-8262
urig	-8263
uzen	-8264
veil	-8265
vige	-8266
vlie	-8267
vloe	-8268
weet	-8269
wiel	-8270
wijd	-8271
zart	-8272
zels	-8273
ziel	-8274
▁aer	-8275
▁afg	-8276
▁afr	-8277
▁arg	-8278
▁aug	-8279
▁bob	-8280
▁bor	-8281
▁bul	-8282
▁cel	-8283
▁chi	-8284
▁dad	-8285
▁dia	-8286
▁dub	-8287
▁erf	-8288
▁fax	-8289
▁fol	-8290
▁gal	-8291
▁gir	-8292
▁gym	-8293
▁hee	-8294
▁hol	-8295
▁hul	-8296
▁ier	-8297
▁ink	-8298
▁jup	-8299
eeps	-8300
glas	-8301
knop	-8302
▁juw	-8303
▁lof	-8304
▁map	-8305
▁mei	-8306
▁mom	-8307
▁mop	-8308
▁nak	-8309
▁omk	-8310
▁onl	-8311
▁opr	-8312
▁pau	-8313
▁pic	-8314
▁rep	-8315
▁roo	-8316
▁rum	-8317
▁sah	-8318
▁sel	-8319
▁spl	-8320
▁spu	-8321
▁tab	-8322
▁taf	-8323
▁tin	-8324
▁tof	-8325
▁tou	-8326
▁web	-8327
▁wim	-8328
▁yog	-8329
aards	-8330
abele	-8331
alarm	-8332
album	-8333
aleis	-8334
amede	-8335
amend	-8336
ammel	-8337
anaat	-8338
bbele	-8339
betes	-8340
bezet	-8341
blief	-8342
bride	-8343
brood	-8344
cript	-8345
denkt	-8346
dheid	-8347
docht	-8348
eefde	-8349
eekte	-8350
eelde	-8351
efout	-8352
elier	-8353
elten	-8354
email	-8355
emden	-8356
emier	-8357
engte	-8358
eraal	-8359
euren	-8360
fecte	-8361
fiets	-8362
films	-8363
fstal	-8364
fusie	-8365
gaard	-8366
genen	-8367
holie	-8368
hoven	-8369
iberg	-8370
ieuze	-8371
iforn	-8372
ijdig	-8373
ijten	-8374
instr	-8375
irine	-8376
ition	-8377
iveau	-8378
jager	-8379
jarig	-8380
kerig	-8381
kruid	-8382
kruit	-8383
lezen	-8384
lines	-8385
lopig	-8386
menig	-8387
mogen	-8388
muzik	-8389
ntrig	-8390
obics	-8391
oleon	-8392
oloog	-8393
oming	-8394
onica	-8395
onnik	-8396
onste	-8397
oogde	-8398
oogst	-8399
toil	-8400
▁dys	-8401
feuil	-8402
osaur	-8403
otica	-8404
ouwde	-8405
ovend	-8406
paard	-8407
pauze	-8408
prijs	-8409
ritor	-8410
roefd	-8411
rustr	-8412
sisch	-8413
spell	-8414
spijn	-8415
staat	-8416
stift	-8417
stond	-8418
storm	-8419
taart	-8420
techn	-8421
teren	-8422
uimen	-8423
urken	-8424
vaard	-8425
verig	-8426
verse	-8427
weken	-8428
werkt	-8429
ziens	-8430
▁aang	-8431
▁afst	-8432
▁arab	-8433
▁bedw	-8434
▁bekw	-8435
▁bied	-8436
▁bonn	-8437
▁bosw	-8438
▁broc	-8439
▁cact	-8440
▁camp	-8441
▁code	-8442
▁corr	-8443
▁cruc	-8444
▁daad	-8445
▁deal	-8446
▁derg	-8447
▁dial	-8448
▁droe	-8449
▁eelt	-8450
▁eraf	-8451
▁eter	-8452
▁ezel	-8453
▁fase	-8454
▁form	-8455
▁fort	-8456
▁fran	-8457
▁fuji	-8458
▁full	-8459
▁fund	-8460
▁goor	-8461
▁haai	-8462
▁hawa	-8463
▁heil	-8464
▁hosp	-8465
▁indi	-8466
▁indr	-8467
▁ipad	-8468
▁irak	-8469
▁kaft	-8470
▁kier	-8471
▁klar	-8472
▁klem	-8473
▁klin	-8474
▁klom	-8475
▁klop	-8476
▁koal	-8477
▁koor	-8478
▁kopl	-8479
▁krat	-8480
▁kwad	-8481
▁lade	-8482
▁leun	-8483
▁link	-8484
▁live	-8485
▁make	-8486
▁meid	-8487
▁mild	-8488
▁nies	-8489
▁noed	-8490
▁ooms	-8491
▁opos	-8492
▁paas	-8493
▁pees	-8494
▁perm	-8495
▁piep	-8496
▁pijl	-8497
▁poes	-8498
▁poot	-8499
beurt	-8500
eloze	-8501
korea	-8502
urnus	-8503
▁puur	-8504
▁radi	-8505
▁ramp	-8506
▁reuk	-8507
▁sarc	-8508
▁site	-8509
▁slij	-8510
▁slok	-8511
▁spen	-8512
▁symb	-8513
▁synt	-8514
▁thai	-8515
▁tsun	-8516
▁uitg	-8517
▁uitl	-8518
▁unie	-8519
▁vult	-8520
▁whis	-8521
▁wieg	-8522
▁wijk	-8523
▁zeen	-8524
▁zuig	-8525
▁zwom	-8526
aadjes	-8527
abriek	-8528
acteur	-8529
aderen	-8530
ageerd	-8531
anboel	-8532
blazen	-8533
bracht	-8534
dhisme	-8535
donker	-8536
dromen	-8537
ducten	-8538
eidene	-8539
eieren	-8540
elding	-8541
elheid	-8542
emeerd	-8543
giving	-8544
gordel	-8545
haling	-8546
handel	-8547
hebber	-8548
hoging	-8549
holpen	-8550
ichtte	-8551
ienaam	-8552
igator	-8553
ijftig	-8554
ikkeld	-8555
ilator	-8556
imeter	-8557
ingeld	-8558
iogram	-8559
iseren	-8560
isseld	-8561
issend	-8562
jecten	-8563
kelder	-8564
kenden	-8565
keuren	-8566
koffie	-8567
kshake	-8568
ktakel	-8569
kwamen	-8570
lampen	-8571
leraar	-8572
leutel	-8573
liedje	-8574
lijken	-8575
mensen	-8576
merkte	-8577
ooitje	-8578
opping	-8579
ositie	-8580
peloos	-8581
pische	-8582
provis	-8583
ptomen	-8584
reffen	-8585
rgette	-8586
schoon	-8587
sgetal	-8588
slapen	-8589
spoeld	-8590
sprijs	-8591
sterde	-8592
straat	-8593
ucteur	-8594
ucties	-8595
uiling	-8596
uiting	-8597
varken	-8598
vatief	-8599
hwein	-8600
szins	-8601
▁foss	-8602
ategie	-8603
lampje	-8604
moniak	-8605
thodox	-8606
venaar	-8607
versch	-8608
verten	-8609
veters	-8610
vliegt	-8611
vlucht	-8612
voeren	-8613
weging	-8614
werper	-8615
zanger	-8616
zonden	-8617
zonnen	-8618
zuster	-8619
▁aanst	-8620
▁absur	-8621
▁actie	-8622
▁activ	-8623
▁afstu	-8624
▁agent	-8625
▁album	-8626
▁apart	-8627
▁azijn	-8628
▁bedek	-8629
▁beker	-8630
▁belaz	-8631
▁belem	-8632
▁bestu	-8633
▁beven	-8634
▁biedt	-8635
▁boete	-8636
▁bofte	-8637
▁breit	-8638
▁centr	-8639
▁dalen	-8640
▁deken	-8641
▁delhi	-8642
▁delic	-8643
▁denem	-8644
▁doord	-8645
▁doorz	-8646
▁draai	-8647
▁draak	-8648
▁eiste	-8649
▁eland	-8650
▁explo	-8651
▁forel	-8652
▁foute	-8653
▁front	-8654
▁gecon	-8655
▁gedes	-8656
▁gedoe	-8657
▁gefot	-8658
▁gener	-8659
▁giech	-8660
▁goeie	-8661
▁gooch	-8662
▁greep	-8663
▁grijn	-8664
▁halte	-8665
▁herst	-8666
▁hoezo	-8667
▁homoh	-8668
▁ingeb	-8669
▁inget	-8670
▁inter	-8671
▁inval	-8672
▁islam	-8673
▁kalen	-8674
▁kogel	-8675
▁kolen	-8676
▁komst	-8677
▁koper	-8678
▁kozen	-8679
▁kraai	-8680
▁krank	-8681
▁kroon	-8682
▁laken	-8683
▁leidt	-8684
▁lesje	-8685
▁lette	-8686
▁logen	-8687
▁loper	-8688
▁loste	-8689
▁luidr	-8690
▁magaz	-8691
▁manen	-8692
▁mater	-8693
▁merkt	-8694
▁minim	-8695
▁mondt	-8696
▁moogt	-8697
▁musea	-8698
▁nagel	-8699
▁niest	-8700
▁oneer	-8701
▁ongen	-8702
▁oogst	-8703
▁opdat	-8704
▁opent	-8705
▁opzij	-8706
▁pingu	-8707
▁plukt	-8708
▁poker	-8709
▁porte	-8710
▁prior	-8711
▁recyc	-8712
▁relax	-8713
▁ritje	-8714
▁roept	-8715
▁scept	-8716
▁schel	-8717
▁seine	-8718
▁skige	-8719
▁sleep	-8720
▁smeek	-8721
▁smoes	-8722
▁spits	-8723
▁spoel	-8724
▁stapt	-8725
▁steil	-8726
▁stijf	-8727
▁stoep	-8728
▁stoms	-8729
▁strui	-8730
▁sumow	-8731
▁teddy	-8732
▁thema	-8733
▁troep	-8734
▁twijg	-8735
▁typem	-8736
▁vaart	-8737
▁veert	-8738
▁vegen	-8739
▁venus	-8740
▁verkn	-8741
▁versn	-8742
▁vloek	-8743
▁voert	-8744
▁voren	-8745
▁warms	-8746
▁weder	-8747
▁wegge	-8748
▁wille	-8749
▁zalig	-8750
▁zwend	-8751
acamole	-8752
adering	-8753
alcohol	-8754
anceerd	-8755
arismat	-8756
artikel	-8757
behalve	-8758
brandde	-8759
dochter	-8760
draaier	-8761
elkleed	-8762
elkoers	-8763
entiële	-8764
feuille	-8765
gebrood	-8766
genaaid	-8767
glement	-8768
houding	-8769
iceerde	-8770
ifornië	-8771
igingen	-8772
illeerd	-8773
indigen	-8774
ingerig	-8775
iseerde	-8776
iviteit	-8777
lichter	-8778
lidmaat	-8779
meester	-8780
oedigen	-8781
onische	-8782
riculum	-8783
seizoen	-8784
sjongen	-8785
spectie	-8786
spiegel	-8787
spraken	-8788
stalige	-8789
stonden	-8790
streeks	-8791
trekker	-8792
ubileum	-8793
uisterd	-8794
umenten	-8795
vechten	-8796
vermout	-8797
verwege	-8798
voeding	-8799
vrouwen	-8800
werkers	-8801
zelaars	-8802
zinking	-8803
zwemmen	-8804
▁aanmoe	-8805
▁aanste	-8806
▁afgaan	-8807
▁afwist	-8808
▁alvast	-8809
▁artsen	-8810
▁baande	-8811
▁ballen	-8812
▁banken	-8813
▁bekeek	-8814
▁bergbe	-8815
▁berken	-8816
▁beveil	-8817
▁blafte	-8818
▁blikje	-8819
▁blinde	-8820
▁blouse	-8821
▁boksen	-8822
▁bossen	-8823
▁botste	-8824
▁bouwde	-8825
▁brandt	-8826
▁christ	-8827
▁daarzo	-8828
▁danste	-8829
▁defect	-8830
▁dekens	-8831
▁dekken	-8832
▁delict	-8833
▁dieven	-8834
▁dollen	-8835
▁droomt	-8836
▁duiken	-8837
▁duiven	-8838
▁dusver	-8839
▁duwtje	-8840
▁eeuwen	-8841
▁engerd	-8842
▁erkend	-8843
▁foutje	-8844
▁frustr	-8845
▁fysiek	-8846
▁geacht	-8847
▁geamus	-8848
▁gehaat	-8849
▁gekend	-8850
▁geleid	-8851
▁gepubl	-8852
▁getikt	-8853
▁gevolg	-8854
▁gewekt	-8855
▁gewone	-8856
▁giraff	-8857
▁gokken	-8858
▁golfen	-8859
▁gordel	-8860
▁handje	-8861
▁heelal	-8862
▁heldin	-8863
▁hierop	-8864
▁histor	-8865
▁honken	-8866
▁instin	-8867
▁iphone	-8868
▁joggen	-8869
▁kanoën	-8870
▁kappen	-8871
▁kauwen	-8872
▁klaren	-8873
▁koekje	-8874
▁komend	-8875
▁konijn	-8876
▁legaal	-8877
▁leidde	-8878
▁lengte	-8879
▁lezing	-8880
▁logica	-8881
▁lokale	-8882
▁lusten	-8883
▁masker	-8884
▁meende	-8885
▁melden	-8886
▁mompel	-8887
▁monnik	-8888
▁mozart	-8889
▁nadoen	-8890
▁niezen	-8891
▁nodige	-8892
▁onrust	-8893
▁onvoor	-8894
▁opgaan	-8895
▁opgest	-8896
▁pakket	-8897
▁paleis	-8898
▁parken	-8899
▁piraat	-8900
▁pizzas	-8901
▁pokken	-8902
▁profit	-8903
▁psychi	-8904
▁rammel	-8905
▁rassen	-8906
▁record	-8907
▁regist	-8908
▁retour	-8909
▁rietje	-8910
▁romein	-8911
▁sahara	-8912
▁schitt	-8913
▁servet	-8914
▁sjaals	-8915
▁skisch	-8916
▁slaven	-8917
▁smaken	-8918
▁snavel	-8919
▁specif	-8920
▁speech	-8921
▁sterft	-8922
▁stijve	-8923
▁stille	-8924
▁stoned	-8925
▁strikt	-8926
▁taakom	-8927
▁terror	-8928
▁thanks	-8929
▁therap	-8930
▁tijger	-8931
▁tikker	-8932
▁tippen	-8933
▁toesch	-8934
▁tomaat	-8935
▁traint	-8936
▁veegde	-8937
▁verrot	-8938
▁verwar	-8939
▁verzet	-8940
▁violet	-8941
▁vloekt	-8942
▁voerde	-8943
▁volume	-8944
▁vossen	-8945
▁vredes	-8946
▁vulden	-8947
▁vulpen	-8948
▁wendde	-8949
▁wezens	-8950
▁wolken	-8951
▁wonden	-8952
▁zenden	-8953
▁zeuren	-8954
▁zielig	-8955
▁zinnen	-8956
▁zwaluw	-8957
▁zweren	-8958
▁zweten	-8959
achtenis	-8960
andering	-8961
anningen	-8962
astische	-8963
ationeel	-8964
baarlijk	-8965
digheden	-8966
eltelijk	-8967
gebleven	-8968
gekookte	-8969
gespeeld	-8970
gestuurd	-8971
houderij	-8972
istoffen	-8973
lectisch	-8974
meelarme	-8975
muzikant	-8976
orstelen	-8977
otograaf	-8978
pecteerd	-8979
porteerd	-8980
rootglas	-8981
rouwbare	-8982
schappen	-8983
serveerd	-8984
sprekend	-8985
springen	-8986
studeerd	-8987
tekracht	-8988
versieel	-8989
vrijheid	-8990
▁aanslag	-8991
▁aardigs	-8992
▁achtenv	-8993
▁afslaan	-8994
▁alsmaar	-8995
▁ansicht	-8996
▁archief	-8997
▁beesten	-8998
▁belegde	-8999
▁beloond	-9000
▁bepaald	-9001
▁bereidt	-9002
▁bergtop	-9003
▁berispt	-9004
▁besluit	-9005
▁bestond	-9006
▁betover	-9007
▁betreft	-9008
▁betreur	-9009
▁bezeerd	-9010
▁bittere	-9011
▁blussen	-9012
▁bouwden	-9013
▁brandst	-9014
▁brillen	-9015
▁cameras	-9016
▁checken	-9017
▁chirurg	-9018
▁chocola	-9019
▁complot	-9020
▁dessert	-9021
▁doelwit	-9022
▁doodmoe	-9023
▁dranken	-9024
▁drummer	-9025
▁dubbele	-9026
▁eetlust	-9027
▁engelen	-9028
▁enkelen	-9029
▁faalden	-9030
▁fatsoen	-9031
▁flikken	-9032
▁fornuis	-9033
▁fronste	-9034
▁geannul	-9035
▁gebreid	-9036
▁gecompl	-9037
▁geduurd	-9038
▁geemail	-9039
▁gehackt	-9040
▁geheeld	-9041
▁gehuurd	-9042
▁geleefd	-9043
▁geloofd	-9044
▁gemerkt	-9045
▁geneigd	-9046
▁gestaan	-9047
▁gevaren	-9048
▁gezonde	-9049
▁gitaren	-9050
▁grijpen	-9051
▁groepen	-9052
▁haatten	-9053
▁heerste	-9054
▁herkent	-9055
▁hierbij	-9056
▁hiertoe	-9057
▁hoesten	-9058
▁hoestte	-9059
▁hoezeer	-9060
▁hoogste	-9061
▁hybride	-9062
▁idioten	-9063
▁ierland	-9064
▁industr	-9065
▁inkomen	-9066
▁inkopen	-9067
▁invoegt	-9068
▁inwoner	-9069
▁juichte	-9070
▁jupiter	-9071
▁keihard	-9072
▁klavier	-9073
▁klimmer	-9074
▁kluisje	-9075
▁kolonie	-9076
▁kopieer	-9077
▁krullen	-9078
▁kussens	-9079
▁lastige	-9080
▁latijns	-9081
▁leerden	-9082
▁leveren	-9083
▁linksaf	-9084
▁logeren	-9085
▁loterij	-9086
▁magisch	-9087
▁meester	-9088
▁mijzelf	-9089
▁miljard	-9090
▁mishand	-9091
▁modeont	-9092
▁moeders	-9093
▁museums	-9094
▁neersch	-9095
▁neiging	-9096
▁noedels	-9097
▁noemden	-9098
▁notitie	-9099
▁nuchter	-9100
▁olifant	-9101
▁onnodig	-9102
▁onrecht	-9103
▁ontvang	-9104
▁oordeel	-9105
▁opendoe	-9106
▁opgelet	-9107
▁oplader	-9108
▁ouderen	-9109
▁paprika	-9110
▁partner	-9111
▁perscon	-9112
▁piraten	-9113
▁pitloze	-9114
▁plaagde	-9115
▁plaatje	-9116
▁plantte	-9117
▁plastic	-9118
▁plekken	-9119
▁pompoen	-9120
▁portier	-9121
▁portret	-9122
▁premier	-9123
▁printer	-9124
▁raadsel	-9125
▁rechtop	-9126
▁religie	-9127
▁richtte	-9128
▁rijkste	-9129
▁rokerig	-9130
▁schaamt	-9131
▁scheeps	-9132
▁scholen	-9133
▁scoorde	-9134
▁serveer	-9135
▁shampoo	-9136
▁shoppen	-9137
▁sigaren	-9138
▁slakken	-9139
▁smeekte	-9140
▁smelten	-9141
▁snappen	-9142
▁snelste	-9143
▁steiger	-9144
▁stikken	-9145
▁stormen	-9146
▁strekte	-9147
▁stroomt	-9148
▁tachtig	-9149
▁terneer	-9150
▁titanic	-9151
▁treffen	-9152
▁trillen	-9153
▁trompet	-9154
▁tuinier	-9155
▁uitgaat	-9156
▁uitvoer	-9157
▁uitwiss	-9158
▁uitziet	-9159
▁veiling	-9160
▁verberg	-9161
▁verdenk	-9162
▁verhuur	-9163
▁vermijd	-9164
▁verprut	-9165
▁vervang	-9166
▁vervoer	-9167
▁verwelk	-9168
▁verzwij	-9169
▁vloeken	-9170
▁vlooien	-9171
▁vreugde	-9172
▁waaruit	-9173
▁werelds	-9174
▁woordje	-9175
▁zangers	-9176
▁ziekten	-9177
▁zochten	-9178
▁zooitje	-9179
▁zwaaien	-9180
▁zwerver	-9181
▁zwommen	-9182
atiekamer	-9183
harmonica	-9184
ietoestel	-9185
ntrigeerd	-9186
ografeerd	-9187
producten	-9188
programma	-9189
rustreerd	-9190
servaring	-9191
svermogen	-9192
toiletten	-9193
vaardbaar	-9194
verdachte	-9195
▁aanleren	-9196
▁aanraden	-9197
▁achterna	-9198
▁aerobics	-9199
▁afgelast	-9200
▁afkeuren	-9201
▁afwerken	-9202
▁afwijzen	-9203
▁airlines	-9204
▁alvorens	-9205
▁ammoniak	-9206
▁artritis	-9207
▁asperges	-9208
▁aspirine	-9209
▁bedelaar	-9210
▁bediende	-9211
▁bedorven	-9212
▁beloftes	-9213
▁bewakers	-9214
▁beweerde	-9215
▁beweging	-9216
▁bewoners	-9217
▁bleekjes	-9218
▁bonnetje	-9219
▁broccoli	-9220
▁buskruit	-9221
▁cdspeler	-9222
▁dadelijk	-9223
▁deelname	-9224
▁diabetes	-9225
▁diefstal	-9226
▁dinosaur	-9227
▁dodelijk	-9228
▁doelloos	-9229
▁doorzoek	-9230
▁driehoek	-9231
▁economie	-9232
▁effecten	-9233
▁ernstigs	-9234
▁fantasie	-9235
▁filosoof	-9236
▁fossiele	-9237
▁fulltime	-9238
▁gedeelte	-9239
▁geproefd	-9240
▁gerekend	-9241
▁gesmeerd	-9242
▁gezonden	-9243
▁gitarist	-9244
▁godsnaam	-9245
▁goederen	-9246
▁haastten	-9247
▁handelen	-9248
▁hersenen	-9249
▁ijsberen	-9250
▁improvis	-9251
▁indienen	-9252
▁introduc	-9253
▁jeugdher	-9254
▁kalender	-9255
▁katholie	-9256
▁kerstdag	-9257
▁kiespijn	-9258
▁klarinet	-9259
▁knippert	-9260
▁kunstmus	-9261
▁kwadraat	-9262
▁landmijn	-9263
▁lantaarn	-9264
▁lichaams	-9265
▁loopneus	-9266
▁meervoud	-9267
▁middelen	-9268
▁mijnheer	-9269
▁mineraal	-9270
▁misbruik	-9271
▁misdaden	-9272
▁misdadig	-9273
▁mislopen	-9274
▁momenten	-9275
▁moskeeën	-9276
▁mysterie	-9277
▁napoleon	-9278
▁nieuwste	-9279
▁nogmaals	-9280
▁omkleden	-9281
▁ongehuwd	-9282
▁ontstaan	-9283
▁operatie	-9284
▁opgepakt	-9285
▁opgepast	-9286
▁opnoemen	-9287
▁oppakken	-9288
▁oppikken	-9289
▁opschiet	-9290
▁opsturen	-9291
▁optillen	-9292
▁orthodox	-9293
▁overwint	-9294
▁partijen	-9295
▁paskamer	-9296
▁pauzeren	-9297
▁perfecte	-9298
▁plaatste	-9299
▁reageren	-9300
▁receptie	-9301
▁regenjas	-9302
▁riskeren	-9303
▁saturnus	-9304
▁schillen	-9305
▁selderij	-9306
▁spijbelt	-9307
▁sterkste	-9308
▁stottert	-9309
▁tatoeage	-9310
▁tegenzin	-9311
▁telegram	-9312
▁territor	-9313
▁thuiskom	-9314
▁tolerant	-9315
▁tovenaar	-9316
▁traangas	-9317
▁trachtte	-9318
▁trouwden	-9319
▁typefout	-9320
▁variëren	-9321
▁veertien	-9322
▁verbazen	-9323
▁verbeeld	-9324
▁verdelen	-9325
▁verderop	-9326
▁verenigd	-9327
▁verklaar	-9328
▁verkoper	-9329
▁vermenig	-9330
▁vermoedt	-9331
▁vermogen	-9332
▁verneder	-9333
▁vernemen	-9334
▁verricht	-9335
▁versloeg	-9336
▁verspild	-9337
▁verstond	-9338
▁verstuur	-9339
▁vertaalt	-9340
▁verwezen	-9341
▁vestigen	-9342
▁vitamine	-9343
▁vluchten	-9344
▁voedings	-9345
▁vogeltje	-9346
▁volmaakt	-9347
▁voorgoed	-9348
▁voornaam	-9349
▁voorruit	-9350
▁voorwaar	-9351
▁weerzien	-9352
▁welvaart	-9353
▁winderig	-9354
▁wisselen	-9355
▁wortelen	-9356
▁zakenman	-9357
▁zekering	-9358
▁zeventig	-9359
bestemming	-9360
internieuw	-9361
ontacteerd	-9362
opstopping	-9363
saxofonist	-9364
schrijving	-9365
spelletjes	-9366
sproblemen	-9367
vertrouwen	-9368
vervuiling	-9369
wachtwoord	-9370
▁aanhouden	-9371
▁aankijken	-9372
▁aanpakken	-9373
▁aardappel	-9374
▁aardigste	-9375
▁abrikozen	-9376
▁adopteren	-9377
▁advocaten	-9378
▁alligator	-9379
▁ambitieus	-9380
▁appelsien	-9381
▁beethoven	-9382
▁beklommen	-9383
▁beledigde	-9384
▁berichtje	-9385
▁beschrijf	-9386
▁bevrijdde	-9387
▁bewonderd	-9388
▁blondines	-9389
▁boomgaard	-9390
▁ceremonie	-9391
▁charismat	-9392
▁citroenen	-9393
▁courgette	-9394
▁daarboven	-9395
▁dagdromen	-9396
▁dagenlang	-9397
▁detective	-9398
▁dolfijnen	-9399
▁doodstraf	-9400
▁doorgaans	-9401
▁drukbezet	-9402
▁eekhoorns	-9403
▁etenstijd	-9404
▁fotoalbum	-9405
▁fotograaf	-9406
▁fundament	-9407
▁gekrompen	-9408
▁geplaatst	-9409
▁geschrapt	-9410
▁gevoelige	-9411
▁gewisseld	-9412
▁gewoontes	-9413
▁giechelde	-9414
▁gootsteen	-9415
▁griepprik	-9416
▁griezelig	-9417
▁guacamole	-9418
▁haarkleur	-9419
▁havermout	-9420
▁hondenhok	-9421
▁hulpeloos	-9422
▁indringer	-9423
▁instemmen	-9424
▁instorten	-9425
▁invaliden	-9426
▁irriteren	-9427
▁istanboel	-9428
▁kandidaat	-9429
▁kangoeroe	-9430
▁kassamede	-9431
▁kleingeld	-9432
▁kofferbak	-9433
▁komkommer	-9434
▁koplampen	-9435
▁kruispunt	-9436
▁lelijkste	-9437
▁linkeroog	-9438
▁maanlicht	-9439
▁mededelen	-9440
▁meewerken	-9441
▁moederdag	-9442
▁negentien	-9443
▁noorwegen	-9444
▁objectief	-9445
▁omsingeld	-9446
▁ontkennen	-9447
▁openstaan	-9448
▁oplichter	-9449
▁opositief	-9450
▁oppervlak	-9451
▁overbodig	-9452
▁overschat	-9453
▁overwogen	-9454
▁personeel	-9455
▁plezieren	-9456
▁producten	-9457
▁republiek	-9458
▁satelliet	-9459
▁sceptisch	-9460
▁schreeuwt	-9461
▁schrikken	-9462
▁skigebied	-9463
▁slapeloze	-9464
▁smakelijk	-9465
▁smeergeld	-9466
▁spektakel	-9467
▁stapelgek	-9468
▁stoplicht	-9469
▁stotteren	-9470
▁strategie	-9471
▁suggestie	-9472
▁symptomen	-9473
▁tandvlees	-9474
▁teddybeer	-9475
▁tikkertje	-9476
▁tuinieren	-9477
▁twijfelde	-9478
▁twijfelen	-9479
▁uitkijken	-9480
▁uitstapje	-9481
▁verbannen	-9482
▁verbeterd	-9483
▁verbouwen	-9484
▁verdiende	-9485
▁verdwaalt	-9486
▁verdwalen	-9487
▁verdwenen	-9488
▁verloofde	-9489
▁verslapen	-9490
▁versperde	-9491
▁verstuikt	-9492
▁versturen	-9493
▁vertaalde	-9494
▁vertaling	-9495
▁verwijder	-9496
▁verzamelt	-9497
▁verzekerd	-9498
▁vitaminen	-9499
▁vliegeren	-9500
▁voorlopig	-9501
▁vraagstuk	-9502
▁wagenziek	-9503
▁wederzijd	-9504
▁weerhield	-9505
▁weerziens	-9506
▁wisselden	-9507
▁zeeniveau	-9508
▁zuidkorea	-9509
amerikaanse	-9510
verandering	-9511
▁aanbrengen	-9512
▁aanmerking	-9513
▁afgebroken	-9514
▁afgevraagd	-9515
▁afspraakje	-9516
▁afzetterij	-9517
▁alsjeblief	-9518
▁babysitter	-9519
▁begeleiden	-9520
▁beschamend	-9521
▁bescheiden	-9522
▁beschouwen	-9523
▁bestrijden	-9524
▁beweringen	-9525
▁beëindigen	-9526
▁binnenkomt	-9527
▁binnenkwam	-9528
▁bladzijdes	-9529
▁bloemetjes	-9530
▁boeddhisme	-9531
▁brandalarm	-9532
▁buitenwijk	-9533
▁bureaulamp	-9534
▁cadeautjes	-9535
▁californië	-9536
▁cardioloog	-9537
▁centimeter	-9538
▁compliment	-9539
▁curriculum	-9540
▁denemarken	-9541
▁dergelijke	-9542
▁dierenarts	-9543
▁disneyland	-9544
▁dramatisch	-9545
▁driejarige	-9546
▁duisternis	-9547
▁exporteren	-9548
▁geamuseerd	-9549
▁gecremeerd	-9550
▁gelanceerd	-9551
▁geluisterd	-9552
▁gelukkiger	-9553
▁gereageerd	-9554
▁geschenken	-9555
▁gijzelaars	-9556
▁goedkopers	-9557
▁halverwege	-9558
▁herstarten	-9559
▁importeert	-9560
▁importeren	-9561
▁ingebroken	-9562
▁ingeslagen	-9563
▁interesses	-9564
▁kersenboom	-9565
▁kinderspel	-9566
▁koninkrijk	-9567
▁langskomen	-9568
▁levenslang	-9569
▁linkerhand	-9570
▁machteloos	-9571
▁menselijke	-9572
▁moederziel	-9573
▁moordwapen	-9574
▁neergelegd	-9575
▁nieuwjaars	-9576
▁omgevallen	-9577
▁omwisselen	-9578
▁onbezonnen	-9579
▁ondernemer	-9580
▁onderzoekt	-9581
▁ongelukken	-9582
▁onleesbaar	-9583
▁ontploffen	-9584
▁overdreven	-9585
▁overhemden	-9586
▁overtreden	-9587
▁potentiële	-9588
▁prioriteit	-9589
▁regelmatig	-9590
▁roggebrood	-9591
▁scheikunde	-9592
▁schilderde	-9593
▁schoenmaat	-9594
▁schorpioen	-9595
▁schrijvers	-9596
▁spraakzaam	-9597
▁stofzuiger	-9598
▁struikelde	-9599
▁studeerden	-9600
▁tafelkleed	-9601
▁teruggeven	-9602
▁terugkeren	-9603
▁thuisadres	-9604
▁twintigste	-9605
▁uittrekken	-9606
▁veganisten	-9607
▁ventilator	-9608
▁verbranden	-9609
▁verdedigen	-9610
▁verduister	-9611
▁vergissing	-9612
▁verkrijgen	-9613
▁verleiding	-9614
▁vermoordde	-9615
▁verschenen	-9616
▁verspreidt	-9617
▁verwarming	-9618
▁verwoestte	-9619
▁verwonderd	-9620
▁waardeerde	-9621
▁zonnebaden	-9622
▁zonnebrand	-9623
alcoholische	-9624
lidmaatschap	-9625
▁achtervolgd	-9626
▁afwezigheid	-9627
▁ambassadeur	-9628
▁appelsienen	-9629
▁arresteerde	-9630
▁beeldschoon	-9631
▁beginneling	-9632
▁betrouwbare	-9633
▁beveiliging	-9634
▁boekenplank	-9635
▁citroenboom	-9636
▁competitief	-9637
▁dyslectisch	-9638
▁familienaam	-9639
▁geannuleerd	-9640
▁gebarentaal	-9641
▁gebeurtenis	-9642
▁geluksgetal	-9643
▁geneeskunde	-9644
▁glimlachten	-9645
▁goedenavond	-9646
▁groentesoep	-9647
▁grootouders	-9648
▁hoeveelheid	-9649
▁installatie	-9650
▁instructies	-9651
▁kostbaarder	-9652
▁krokodillen	-9653
▁linkshandig	-9654
▁luidruchtig	-9655
▁mandarijnen	-9656
▁medewerking	-9657
▁meisjesnaam	-9658
▁naaimachine	-9659
▁naaktstrand	-9660
▁onderbreken	-9661
▁ondervraagd	-9662
▁ondraaglijk	-9663
▁opdringerig	-9664
▁opgedronken	-9665
▁opschrijven	-9666
▁overgewicht	-9667
▁overstappen	-9668
▁permitteren	-9669
▁platbrandde	-9670
▁plattegrond	-9671
▁populairder	-9672
▁populairste	-9673
▁probleempje	-9674
▁rechterbeen	-9675
▁samenwerken	-9676
▁sarcastisch	-9677
▁schitterend	-9678
▁schoonvader	-9679
▁skischoenen	-9680
▁slaaptekort	-9681
▁strijkijzer	-9682
▁struisvogel	-9683
▁terroristen	-9684
▁tienduizend	-9685
▁typemachine	-9686
▁uitgezonden	-9687
▁vastgenaaid	-9688
▁vegetarisch	-9689
▁verandering	-9690
▁verbijsterd	-9691
▁verdwijning	-9692
▁vergelijken	-9693
▁vergiftigen	-9694
▁verminderen	-9695
▁verscheurde	-9696
▁verstandige	-9697
▁verzekering	-9698
▁voorbeelden	-9699
▁voorgesteld	-9700
▁vooruitgang	-9701
▁wisselkoers	-9702
▁zetmeelarme	-9703
▁zeventiende	-9704
▁zuidamerika	-9705
▁aanmoediging	-9706
▁aanvaardbaar	-9707
▁achtervolgde	-9708
▁afbeeldingen	-9709
▁afgestudeerd	-9710
▁alleenstaand	-9711
▁allesbehalve	-9712
▁arresteerden	-9713
▁beschuldigen	-9714
▁beslissingen	-9715
▁boodschapper	-9716
▁borstvoeding	-9717
▁buitenlandse	-9718
▁bureaulampen	-9719
▁burgeroorlog	-9720
▁chocoladeijs	-9721
▁communiceren	-9722
▁demonstratie	-9723
▁doordeweekse	-9724
▁fantastische	-9725
▁fotograferen	-9726
▁gastvrijheid	-9727
▁gebruikelijk	-9728
▁gedeeltelijk	-9729
▁gefrustreerd	-9730
▁gemakkelijke	-9731
▁gistermiddag	-9732
▁griezelfilms	-9733
▁hardgekookte	-9734
▁homohuwelijk	-9735
▁ingewikkelde	-9736
▁inspanningen	-9737
▁intelligente	-9738
▁kakkerlakken	-9739
▁klaargemaakt	-9740
▁kruisvaarder	-9741
▁liefdesbrief	-9742
▁lievelingsdj	-9743
▁linkerschoen	-9744
▁maandagavond	-9745
▁overeenkomst	-9746
▁overgeslagen	-9747
▁overstroming	-9748
▁plaatshebben	-9749
▁plaatsvinden	-9750
▁portefeuille	-9751
▁prijskaartje	-9752
▁rechercheurs	-9753
▁rechtshandig	-9754
▁rechtstreeks	-9755
▁schoenveters	-9756
▁schuilplaats	-9757
▁thanksgiving	-9758
▁toeschouwers	-9759
▁uitgestorven	-9760
▁uitwisseling	-9761
▁vaardigheden	-9762
▁valsgespeeld	-9763
▁varkensvlees	-9764
▁vegetarische	-9765
▁verdiepingen	-9766
▁vergrootglas	-9767
▁verjaardagen	-9768
▁veronderstel	-9769
▁veroorzaakte	-9770
▁verscheidene	-9771
▁verschillend	-9772
▁verwondingen	-9773
▁volleyballen	-9774
▁vooroordelen	-9775
▁zondagmorgen	-9776
▁zonnebloemen	-9777
▁zonnestelsel	-9778
▁achterblijven	-9779
▁administratie	-9780
▁charismatisch	-9781
▁countryzanger	-9782
▁elektronische	-9783
▁flauwgevallen	-9784
▁gecontacteerd	-9785
▁geldproblemen	-9786
▁gepensioneerd	-9787
▁gerespecteerd	-9788
▁indrukwekkend	-9789
▁ingewikkelder	-9790
▁mondharmonica	-9791
▁nagedachtenis	-9792
▁ondersteuning	-9793
▁oorontsteking	-9794
▁operatiekamer	-9795
▁overduidelijk	-9796
▁sumoworstelen	-9797
▁tandheelkunde	-9798
▁teruggebracht	-9799
▁vergaderingen	-9800
▁verkeerslicht	-9801
▁verwachtingen	-9802
▁vijfenveertig	-9803
▁voetafdrukken	-9804
▁zakkenrollers	-9805
▁zwaartekracht	-9806
▁aantrekkelijke	-9807
▁belangstelling	-9808
▁bibliotheekpas	-9809
▁binnengekregen	-9810
▁buitengesloten	-9811
▁controversieel	-9812
▁elektriciteits	-9813
▁gefotografeerd	-9814
▁geneesmiddelen	-9815
▁gepensioneerde	-9816
▁herentoiletten	-9817
▁hoofdverdachte	-9818
▁melkveebedrijf	-9819
▁onaanvaardbaar	-9820
▁peesontsteking	-9821
▁schoenenwinkel	-9822
▁teleurstellend	-9823
▁terechtgekomen	-9824
▁verblijfplaats	-9825
▁verwezenlijken	-9826
▁wifiwachtwoord	-9827
▁wonderbaarlijk	-9828
▁beroepservaring	-9829
▁melkveehouderij	-9830
▁noordpoolgebied	-9831
▁ongeorganiseerd	-9832
▁persconferentie	-9833
▁terneergeslagen	-9834
▁vanzelfsprekend	-9835
▁verkeersongeluk	-9836
▁vriendelijkheid	-9837
do	-9838
fl	-9839
ha	-9840
hn	-9841
hy	-9842
ix	-9843
kh	-9844
pa	-9845
po	-9846
ri	-9847
sf	-9848
tf	-9849
vd	-9850
xy	-9851
ya	-9852
ét	-9853
▁0	-9854
agn	-9855
akk	-9856
alf	-9857
aln	-9858
ams	-9859
bie	-9860
bin	-9861
bun	-9862
car	-9863
cas	-9864
cir	-9865
com	-9866
dor	-9867
dro	-9868
eis	-9869
ene	-9870
eot	-9871
etb	-9872
fon	-9873
fos	-9874
gae	-9875
git	-9876
gst	-9877
had	-9878
har	-9879
hoe	-9880
hot	-9881
ian	-9882
idn	-9883
ido	-9884
idu	-9885
iff	-9886
inc	-9887
ini	-9888
ins	-9889
ita	-9890
iti	-9891
jer	-9892
kam	-9893
koe	-9894
kui	-9895
lag	-9896
maa	-9897
mal	-9898
mas	-9899
atr	-9900
efr	-9901
iew	-9902
mde	-9903
nag	-9904
num	-9905
nut	-9906
och	-9907
odr	-9908
oei	-9909
olf	-9910
omd	-9911
ono	-9912
ope	-9913
orb	-9914
ore	-9915
ous	-9916
ows	-9917
pan	-9918
pik	-9919
rad	-9920
ras	-9921
rië	-9922
rom	-9923
ron	-9924
rus	-9925
sap	-9926
sie	-9927
sir	-9928
sla	-9929
sol	-9930
sus	-9931
tem	-9932
the	-9933
too	-9934
ual	-9935
uge	-9936
ugu	-9937
uif	-9938
ulf	-9939
ung	-9940
uor	-9941
ute	-9942
utr	-9943
uwt	-9944
war	-9945
xas	-9946
zov	-9947
zza	-9948
ëel	-9949
▁ba	-9950
▁cy	-9951
▁dj	-9952
▁gi	-9953
▁ki	-9954
▁mc	-9955
▁mp	-9956
▁oe	-9957
▁ta	-9958
▁tl	-9959
▁ul	-9960
▁ur	-9961
▁wk	-9962
aaft	-9963
ache	-9964
adem	-9965
alde	-9966
angt	-9967
ankt	-9968
anta	-9969
arct	-9970
aria	-9971
ario	-9972
aset	-9973
asil	-9974
bbel	-9975
berg	-9976
blin	-9977
chan	-9978
darm	-9979
derv	-9980
drag	-9981
ecut	-9982
eedt	-9983
eele	-9984
eene	-9985
eept	-9986
elef	-9987
elui	-9988
emma	-9989
empl	-9990
enne	-9991
enom	-9992
eria	-9993
etak	-9994
etië	-9995
fles	-9996
food	-9997
ftig	-9998
haar	-9999
bez	-10000
imm	-10001
iox	-10002
nog	-10003
saf	-10004
upt	-10005
haas	-10006
hemd	-10007
hond	-10008
iché	-10009
idge	-10010
iekt	-10011
ieze	-10012
ijdr	-10013
ijsl	-10014
ikop	-10015
imul	-10016
iner	-10017
inie	-10018
inië	-10019
insp	-10020
isde	-10021
ison	-10022
ited	-10023
izza	-10024
kelt	-10025
kijk	-10026
klon	-10027
klop	-10028
kuip	-10029
laag	-10030
lijn	-10031
mans	-10032
mene	-10033
mens	-10034
merd	-10035
oegd	-10036
oeil	-10037
oend	-10038
ofte	-10039
okop	-10040
oler	-10041
olgd	-10042
olis	-10043
ones	-10044
onte	-10045
ores	-10046
orgd	-10047
osis	-10048
otiv	-10049
oude	-10050
oute	-10051
paar	-10052
ptom	-10053
roll	-10054
sess	-10055
sman	-10056
snië	-10057
stil	-10058
stoe	-10059
tegr	-10060
ties	-10061
udde	-10062
uich	-10063
uken	-10064
ukje	-10065
umor	-10066
unif	-10067
uree	-10068
urgd	-10069
utie	-10070
vant	-10071
velf	-10072
verk	-10073
vinc	-10074
vond	-10075
vorm	-10076
vuur	-10077
winn	-10078
zang	-10079
zegd	-10080
zers	-10081
▁aft	-10082
▁big	-10083
▁bis	-10084
▁caf	-10085
▁cam	-10086
▁cap	-10087
▁car	-10088
▁cin	-10089
▁cyn	-10090
▁def	-10091
▁dil	-10092
▁dog	-10093
▁dop	-10094
▁dur	-10095
▁eik	-10096
▁enc	-10097
▁fel	-10098
▁fle	-10099
asso	-10100
bale	-10101
bloe	-10102
dren	-10103
eegt	-10104
geef	-10105
▁esd	-10106
▁foc	-10107
▁gig	-10108
▁glo	-10109
▁gor	-10110
▁gou	-10111
▁hag	-10112
▁hok	-10113
▁hur	-10114
▁ide	-10115
▁inh	-10116
▁jee	-10117
▁juf	-10118
▁kim	-10119
▁kit	-10120
▁lei	-10121
▁lij	-10122
▁mal	-10123
▁mia	-10124
▁mig	-10125
▁mol	-10126
▁nov	-10127
▁omr	-10128
▁oph	-10129
▁pin	-10130
▁pse	-10131
▁puz	-10132
▁rab	-10133
▁ref	-10134
▁rie	-10135
▁rit	-10136
▁rob	-10137
▁roc	-10138
▁rou	-10139
▁rub	-10140
▁sen	-10141
▁sne	-10142
▁soe	-10143
▁tal	-10144
▁vat	-10145
▁wek	-10146
▁zad	-10147
▁zoo	-10148
aadje	-10149
aardt	-10150
aaste	-10151
achel	-10152
afoon	-10153
ainer	-10154
aking	-10155
akkie	-10156
akten	-10157
alers	-10158
alies	-10159
amera	-10160
ammen	-10161
ampol	-10162
angst	-10163
anjes	-10164
anker	-10165
anval	-10166
apeld	-10167
apten	-10168
arige	-10169
arree	-10170
astro	-10171
athon	-10172
auter	-10173
aving	-10174
beest	-10175
belig	-10176
besch	-10177
beste	-10178
bevel	-10179
blauw	-10180
count	-10181
dicht	-10182
draad	-10183
dtijd	-10184
ecken	-10185
eepte	-10186
efkok	-10187
endom	-10188
entie	-10189
ersyn	-10190
etent	-10191
euten	-10192
gebra	-10193
gelde	-10194
getim	-10195
gezet	-10196
ginds	-10197
grado	-10198
hoofd	-10199
bok	-10200
owa	-10201
hydr	-10202
ilmd	-10203
ives	-10204
mass	-10205
ozel	-10206
▁hiv	-10207
▁ski	-10208
▁vac	-10209
aadpl	-10210
aarts	-10211
ascus	-10212
bloes	-10213
crash	-10214
ialen	-10215
iegen	-10216
iekse	-10217
ierij	-10218
igden	-10219
ilden	-10220
inder	-10221
inele	-10222
iolet	-10223
isaus	-10224
istan	-10225
istof	-10226
jacht	-10227
jaren	-10228
keert	-10229
koker	-10230
krant	-10231
lepen	-10232
molen	-10233
neerd	-10234
oerde	-10235
oeste	-10236
oetan	-10237
oeten	-10238
oetje	-10239
oetst	-10240
ondon	-10241
ookje	-10242
ooter	-10243
ootje	-10244
orant	-10245
orene	-10246
oring	-10247
praat	-10248
raine	-10249
reedt	-10250
reesd	-10251
reeuw	-10252
rijft	-10253
roven	-10254
scher	-10255
schot	-10256
scoop	-10257
smaat	-10258
soort	-10259
stien	-10260
stijl	-10261
stoot	-10262
swaar	-10263
tafel	-10264
temin	-10265
ueerd	-10266
ugger	-10267
uiden	-10268
uilen	-10269
uipen	-10270
ulier	-10271
untje	-10272
ustus	-10273
uurde	-10274
verde	-10275
verst	-10276
vrede	-10277
vroeg	-10278
weekt	-10279
ywood	-10280
zaken	-10281
▁alas	-10282
▁alom	-10283
▁anon	-10284
▁arri	-10285
▁baat	-10286
▁bali	-10287
▁bezw	-10288
▁bijl	-10289
▁blog	-10290
▁boel	-10291
▁bond	-10292
▁boon	-10293
▁brom	-10294
▁cash	-10295
▁chem	-10296
▁cond	-10297
▁data	-10298
▁dekt	-10299
rfd	-10300
ruc	-10301
gran	-10302
ifte	-10303
ires	-10304
snee	-10305
valt	-10306
▁may	-10307
groen	-10308
manië	-10309
oking	-10310
visum	-10311
▁blok	-10312
▁deod	-10313
▁dijk	-10314
▁docu	-10315
▁doek	-10316
▁drup	-10317
▁egel	-10318
▁eist	-10319
▁ergs	-10320
▁fier	-10321
▁gaar	-10322
▁geac	-10323
▁gebl	-10324
▁gebr	-10325
▁gegr	-10326
▁geru	-10327
▁gewr	-10328
▁gezw	-10329
▁godd	-10330
▁gulp	-10331
▁hals	-10332
▁hare	-10333
▁heks	-10334
▁hint	-10335
▁holl	-10336
▁ijsh	-10337
▁imit	-10338
▁inch	-10339
▁iran	-10340
▁joeg	-10341
▁juli	-10342
▁kaak	-10343
▁kalf	-10344
▁kart	-10345
▁klei	-10346
▁knal	-10347
▁koem	-10348
▁koks	-10349
▁kopt	-10350
▁krim	-10351
▁kwik	-10352
▁lauw	-10353
▁loer	-10354
▁long	-10355
▁mach	-10356
▁mast	-10357
▁merk	-10358
▁mouw	-10359
▁muff	-10360
▁naai	-10361
▁nage	-10362
▁nerd	-10363
▁ohio	-10364
▁ontd	-10365
▁onth	-10366
▁oogt	-10367
▁opas	-10368
▁pand	-10369
▁penn	-10370
▁pint	-10371
▁rend	-10372
▁rept	-10373
▁reus	-10374
▁rijn	-10375
▁rots	-10376
▁rout	-10377
▁ruit	-10378
▁sept	-10379
▁slod	-10380
▁smer	-10381
▁snee	-10382
▁sort	-10383
▁spik	-10384
▁spit	-10385
▁spul	-10386
▁sulf	-10387
▁tabl	-10388
▁tank	-10389
▁term	-10390
▁trag	-10391
▁trip	-10392
▁trom	-10393
▁ufos	-10394
▁uitv	-10395
▁viet	-10396
▁vink	-10397
▁vlot	-10398
▁waag	-10399
cont	-10400
zwer	-10401
▁ath	-10402
droom	-10403
icale	-10404
serie	-10405
▁fire	-10406
▁pest	-10407
▁waak	-10408
▁waan	-10409
▁wets	-10410
▁wild	-10411
▁wrak	-10412
▁yoga	-10413
▁zonk	-10414
▁zust	-10415
alniet	-10416
alsing	-10417
aresse	-10418
arisch	-10419
artier	-10420
asilia	-10421
astiek	-10422
atieve	-10423
beleid	-10424
besten	-10425
blauwe	-10426
breker	-10427
bundig	-10428
certen	-10429
danser	-10430
delaar	-10431
denerd	-10432
dering	-10433
dertig	-10434
editie	-10435
edrank	-10436
eestje	-10437
egeerd	-10438
eisend	-10439
emming	-10440
erkant	-10441
ettige	-10442
gelang	-10443
gemeel	-10444
gemeld	-10445
gentig	-10446
gerust	-10447
gewijd	-10448
handha	-10449
honger	-10450
icaans	-10451
ichter	-10452
ichtig	-10453
ieping	-10454
ietijd	-10455
ignons	-10456
ikelen	-10457
inezen	-10458
ioboek	-10459
ioenen	-10460
iploma	-10461
iteerd	-10462
jamelk	-10463
kamers	-10464
kelaar	-10465
keling	-10466
kering	-10467
kingen	-10468
knroll	-10469
kunnen	-10470
lander	-10471
lieden	-10472
liefde	-10473
lofoon	-10474
lokken	-10475
nagels	-10476
okkend	-10477
omkeer	-10478
ontein	-10479
oofden	-10480
oornis	-10481
oriënt	-10482
ovende	-10483
ptisch	-10484
reking	-10485
rijpen	-10486
roppen	-10487
schaal	-10488
seisde	-10489
sentie	-10490
sleden	-10491
srecht	-10492
staart	-10493
steden	-10494
stenen	-10495
sweken	-10496
tennis	-10497
teriën	-10498
tijdse	-10499
own	-10500
acte	-10501
mede	-10502
view	-10503
ensap	-10504
ividu	-10505
kante	-10506
oefen	-10507
▁gate	-10508
▁hobo	-10509
gewond	-10510
loving	-10511
ondigd	-10512
oweten	-10513
recept	-10514
reidde	-10515
tingen	-10516
uchten	-10517
uiving	-10518
ulatie	-10519
umeurd	-10520
uteren	-10521
verpak	-10522
wachte	-10523
wapens	-10524
wereld	-10525
wieler	-10526
zellen	-10527
zellig	-10528
zijnen	-10529
▁aankl	-10530
▁aanwe	-10531
▁afges	-10532
▁afrik	-10533
▁appar	-10534
▁autom	-10535
▁bankr	-10536
▁bijdr	-10537
▁blaft	-10538
▁bloot	-10539
▁bocht	-10540
▁boten	-10541
▁breek	-10542
▁bruid	-10543
▁catal	-10544
▁chant	-10545
▁crash	-10546
▁dagje	-10547
▁danst	-10548
▁deelt	-10549
▁deert	-10550
▁dekte	-10551
▁draad	-10552
▁dreef	-10553
▁dreig	-10554
▁dreum	-10555
▁ervar	-10556
▁exact	-10557
▁firma	-10558
▁flirt	-10559
▁floot	-10560
▁fluit	-10561
▁gedet	-10562
▁gekke	-10563
▁genie	-10564
▁gerel	-10565
▁gerst	-10566
▁getal	-10567
▁gewas	-10568
▁gezag	-10569
▁glans	-10570
▁gloed	-10571
▁graad	-10572
▁graaf	-10573
▁graat	-10574
▁groef	-10575
▁groei	-10576
▁grove	-10577
▁hallu	-10578
▁harte	-10579
▁heers	-10580
▁hinde	-10581
▁hinkt	-10582
▁hoede	-10583
▁hoorn	-10584
▁horiz	-10585
▁houts	-10586
▁ijdel	-10587
▁ijzig	-10588
▁jaloe	-10589
▁jeans	-10590
▁kapel	-10591
▁kiest	-10592
▁kinds	-10593
▁klaag	-10594
▁koord	-10595
▁koran	-10596
▁kramp	-10597
▁kudde	-10598
▁landt	-10599
▁xy	-10600
café	-10601
iërs	-10602
▁bud	-10603
meter	-10604
trans	-10605
uffel	-10606
ulair	-10607
yclop	-10608
▁duif	-10609
▁eleg	-10610
▁sake	-10611
arrest	-10612
dorpje	-10613
ecteur	-10614
nikken	-10615
oerder	-10616
sterse	-10617
▁ademt	-10618
▁dwing	-10619
▁initi	-10620
▁jezus	-10621
▁latex	-10622
▁lieve	-10623
▁linde	-10624
▁lonen	-10625
▁maagd	-10626
▁maart	-10627
▁malen	-10628
▁manus	-10629
▁marok	-10630
▁maten	-10631
▁mcdon	-10632
▁media	-10633
▁mislu	-10634
▁muild	-10635
▁nager	-10636
▁neutr	-10637
▁obama	-10638
▁ofdat	-10639
▁onbew	-10640
▁onget	-10641
▁ontro	-10642
▁opger	-10643
▁oprit	-10644
▁optie	-10645
▁orang	-10646
▁orgel	-10647
▁peper	-10648
▁plein	-10649
▁popul	-10650
▁potje	-10651
▁prent	-10652
▁raadt	-10653
▁rapen	-10654
▁regio	-10655
▁reput	-10656
▁revol	-10657
▁salto	-10658
▁saxof	-10659
▁schut	-10660
▁serie	-10661
▁sfeer	-10662
▁skiet	-10663
▁smeet	-10664
▁smoor	-10665
▁snijd	-10666
▁speer	-10667
▁spier	-10668
▁spint	-10669
▁spons	-10670
▁spuug	-10671
▁stads	-10672
▁steel	-10673
▁stoof	-10674
▁strik	-10675
▁taxis	-10676
▁teder	-10677
▁thees	-10678
▁therm	-10679
▁toast	-10680
▁tower	-10681
▁trans	-10682
▁treuz	-10683
▁trilt	-10684
▁tvtoe	-10685
▁uniek	-10686
▁vacht	-10687
▁vangt	-10688
▁vergt	-10689
▁verze	-10690
▁verzw	-10691
▁veter	-10692
▁viert	-10693
▁vloed	-10694
▁vreed	-10695
▁vrijl	-10696
▁vroor	-10697
▁wafel	-10698
▁wekte	-10699
ubb	-10700
issi	-10701
klas	-10702
proe	-10703
▁lib	-10704
▁rib	-10705
ammat	-10706
ntgen	-10707
▁iowa	-10708
▁lama	-10709
dingsb	-10710
gooien	-10711
slaafd	-10712
udding	-10713
▁emigr	-10714
▁funct	-10715
▁inhal	-10716
▁jaagt	-10717
▁joden	-10718
▁rotte	-10719
▁welbe	-10720
▁winds	-10721
▁woede	-10722
▁wraak	-10723
▁zaait	-10724
▁zeevr	-10725
▁zegev	-10726
▁zesen	-10727
▁zinkt	-10728
▁zonet	-10729
▁zweep	-10730
agelijk	-10731
akkerig	-10732
alisten	-10733
antaine	-10734
anteerd	-10735
arctica	-10736
artiest	-10737
astrofe	-10738
atische	-10739
azanger	-10740
betalen	-10741
broeken	-10742
cijfers	-10743
contact	-10744
contain	-10745
dochtig	-10746
dronken	-10747
duceerd	-10748
elijken	-10749
elingen	-10750
enomeen	-10751
fecties	-10752
fonieën	-10753
gelegen	-10754
gerecht	-10755
gestort	-10756
getuige	-10757
gevende	-10758
gewoond	-10759
helderd	-10760
ichamen	-10761
ijdelen	-10762
iliteit	-10763
ingsweg	-10764
ioneren	-10765
kunsten	-10766
liedjes	-10767
nieuwen	-10768
oeilamp	-10769
oemenië	-10770
omuziek	-10771
onteerd	-10772
opening	-10773
rijving	-10774
rissend	-10775
rompeld	-10776
sengels	-10777
spelers	-10778
standen	-10779
standig	-10780
steller	-10781
stokken	-10782
trainer	-10783
uniteit	-10784
verneur	-10785
viseerd	-10786
vuldigd	-10787
weitzer	-10788
zichten	-10789
zichtig	-10790
zwering	-10791
zwollen	-10792
▁aanged	-10793
▁aankan	-10794
▁aankom	-10795
▁aanpak	-10796
▁achtte	-10797
▁ademde	-10798
▁afgaat	-10799
duct	-10800
voir	-10801
donut	-10802
genda	-10803
tieme	-10804
xecut	-10805
▁geob	-10806
afrika	-10807
creter	-10808
eltruc	-10809
garine	-10810
glazen	-10811
okkeld	-10812
ombone	-10813
orieën	-10814
▁asiel	-10815
▁braaf	-10816
▁gokje	-10817
▁luidt	-10818
▁onred	-10819
boerijn	-10820
ificeer	-10821
kleding	-10822
liggers	-10823
wijfeld	-10824
▁afgele	-10825
▁afhand	-10826
▁afloop	-10827
▁agenda	-10828
▁aliens	-10829
▁alsnog	-10830
▁angola	-10831
▁antibi	-10832
▁antiek	-10833
▁armste	-10834
▁astmaa	-10835
▁athene	-10836
▁baasje	-10837
▁balanc	-10838
▁baller	-10839
▁bedank	-10840
▁bedenk	-10841
▁bedien	-10842
▁beeldh	-10843
▁beeldt	-10844
▁begrip	-10845
▁beland	-10846
▁benauw	-10847
▁beviel	-10848
▁bevond	-10849
▁bevred	-10850
▁beweeg	-10851
▁bewees	-10852
▁bewoog	-10853
▁billen	-10854
▁blijer	-10855
▁blinkt	-10856
▁blozen	-10857
▁boerde	-10858
▁bosnië	-10859
▁botten	-10860
▁britse	-10861
▁budget	-10862
▁buigen	-10863
▁cactus	-10864
▁caissi	-10865
▁cambod	-10866
▁cement	-10867
▁cinema	-10868
▁cirkel	-10869
▁daalde	-10870
▁dassen	-10871
▁deelde	-10872
▁deprim	-10873
▁deurkl	-10874
▁dichte	-10875
▁dienen	-10876
▁dikzak	-10877
▁dobbel	-10878
▁doodop	-10879
▁doorge	-10880
▁dubbel	-10881
▁dublin	-10882
▁dwazen	-10883
▁dwingt	-10884
▁eisten	-10885
▁exacte	-10886
▁filmen	-10887
▁foppen	-10888
▁gassen	-10889
▁gedekt	-10890
▁gefrit	-10891
▁gehakt	-10892
▁gekrab	-10893
▁gekund	-10894
▁gepest	-10895
▁geraak	-10896
▁gerund	-10897
▁getest	-10898
▁gewijd	-10899
arri	-10900
blok	-10901
bout	-10902
▁egy	-10903
▁hai	-10904
▁maj	-10905
kaido	-10906
▁pitt	-10907
▁zere	-10908
alisme	-10909
bedrag	-10910
efruit	-10911
gloren	-10912
uarium	-10913
zestig	-10914
▁asbak	-10915
▁atoom	-10916
▁obser	-10917
sleraar	-10918
vergift	-10919
▁geëist	-10920
▁gracht	-10921
▁graham	-10922
▁greene	-10923
▁groots	-10924
▁gulzig	-10925
▁harten	-10926
▁heerst	-10927
▁heksen	-10928
▁helium	-10929
▁herder	-10930
▁hervat	-10931
▁hevige	-10932
▁horens	-10933
▁hotels	-10934
▁hurkte	-10935
▁ingaan	-10936
▁ingred	-10937
▁invest	-10938
▁kachel	-10939
▁kalium	-10940
▁kampen	-10941
▁kassab	-10942
▁keurig	-10943
▁kleins	-10944
▁klokje	-10945
▁klonen	-10946
▁knipte	-10947
▁koeler	-10948
▁kokend	-10949
▁kolibr	-10950
▁koppen	-10951
▁krakel	-10952
▁kweken	-10953
▁lafbek	-10954
▁lagere	-10955
▁lakens	-10956
▁lampje	-10957
▁landde	-10958
▁langst	-10959
▁lawine	-10960
▁legden	-10961
▁lepels	-10962
▁levert	-10963
▁lichte	-10964
▁limiet	-10965
▁limous	-10966
▁logeer	-10967
▁maaien	-10968
▁moppen	-10969
▁moraal	-10970
▁morele	-10971
▁motief	-10972
▁niesde	-10973
▁oefent	-10974
▁onover	-10975
▁ontken	-10976
▁onweer	-10977
▁ophaal	-10978
▁oplage	-10979
▁opslag	-10980
▁orders	-10981
▁overge	-10982
▁parach	-10983
▁peuter	-10984
▁pikant	-10985
▁plukte	-10986
▁poetst	-10987
▁puntje	-10988
▁puppys	-10989
▁radios	-10990
▁radium	-10991
▁recent	-10992
▁rechte	-10993
▁redder	-10994
▁regenw	-10995
▁reizig	-10996
▁rekken	-10997
▁reuzen	-10998
▁riemen	-10999
▁etn	-11000
arfum	-11001
direc	-11002
▁time	-11003
▁tuba	-11004
kastje	-11005
nvloed	-11006
orator	-11007
rocard	-11008
▁curry	-11009
▁etage	-11010
▁gecho	-11011
▁grein	-11012
▁kokos	-11013
▁korea	-11014
▁lekke	-11015
▁nipte	-11016
beentje	-11017
gedrukt	-11018
iefilms	-11019
sverlof	-11020
verlies	-11021
▁domkop	-11022
▁krabde	-11023
▁modern	-11024
▁nadert	-11025
▁nonkel	-11026
▁paella	-11027
▁perzik	-11028
▁rijles	-11029
▁rijtje	-11030
▁roeien	-11031
▁roerde	-11032
▁roerei	-11033
▁rokken	-11034
▁rotsen	-11035
▁roulet	-11036
▁rugzak	-11037
▁schijf	-11038
▁schilt	-11039
▁schold	-11040
▁schopt	-11041
▁schors	-11042
▁schort	-11043
▁sensor	-11044
▁singap	-11045
▁skaten	-11046
▁skater	-11047
▁slikte	-11048
▁smeden	-11049
▁snelst	-11050
▁snijdt	-11051
▁soepel	-11052
▁sollen	-11053
▁somber	-11054
▁specht	-11055
▁spring	-11056
▁stapje	-11057
▁stekel	-11058
▁stewar	-11059
▁stomme	-11060
▁straal	-11061
▁street	-11062
▁strijd	-11063
▁stroop	-11064
▁tatoeb	-11065
▁tattoo	-11066
▁tempel	-11067
▁theele	-11068
▁tikken	-11069
▁tillen	-11070
▁totale	-11071
▁trofee	-11072
▁trouwe	-11073
▁uitgeb	-11074
▁vakken	-11075
▁vallei	-11076
▁vangst	-11077
▁vatten	-11078
▁verbod	-11079
▁verrek	-11080
▁verstr	-11081
▁veruit	-11082
▁verver	-11083
▁vijgen	-11084
▁visite	-11085
▁visjes	-11086
▁visser	-11087
▁vlogen	-11088
▁voedde	-11089
▁vormen	-11090
▁vouwde	-11091
▁vouwen	-11092
▁waaide	-11093
▁wasten	-11094
▁weekje	-11095
▁weggev	-11096
▁wensen	-11097
▁wetten	-11098
▁wijzig	-11099
hua	-11100
lown	-11101
escen	-11102
fruit	-11103
serse	-11104
spray	-11105
▁cabr	-11106
▁olym	-11107
gezond	-11108
sdicht	-11109
vormen	-11110
▁banjo	-11111
▁diagn	-11112
▁omcir	-11113
▁ratel	-11114
▁titel	-11115
gebeurd	-11116
senbord	-11117
▁argent	-11118
▁asperg	-11119
▁ballet	-11120
▁barack	-11121
▁beugel	-11122
▁crimin	-11123
▁debuut	-11124
▁horror	-11125
▁klusje	-11126
▁makkie	-11127
▁muntje	-11128
▁slokje	-11129
▁sugger	-11130
▁update	-11131
▁woeste	-11132
▁wolkje	-11133
▁wouden	-11134
▁zaaien	-11135
▁zaakje	-11136
▁zachte	-11137
▁zessen	-11138
▁zieker	-11139
▁zinken	-11140
▁zoeter	-11141
▁zombie	-11142
▁zuivel	-11143
▁zwijgt	-11144
adetaart	-11145
afdeling	-11146
afleider	-11147
ailleerd	-11148
assisten	-11149
casescen	-11150
cepteerd	-11151
deexamen	-11152
derdelen	-11153
derlicht	-11154
drukking	-11155
gedraaid	-11156
geleverd	-11157
gitarist	-11158
grammeur	-11159
granaten	-11160
jubileum	-11161
kaartjes	-11162
lecteert	-11163
manieren	-11164
ogenloos	-11165
omachine	-11166
ondiging	-11167
primeerd	-11168
regeling	-11169
resseerd	-11170
schilder	-11171
sentieel	-11172
snelheid	-11173
spelbaar	-11174
stations	-11175
tekening	-11176
udoweten	-11177
umentale	-11178
verhalen	-11179
vermogen	-11180
voorstel	-11181
waardigd	-11182
wachters	-11183
zoekings	-11184
▁aanbidt	-11185
▁aangekl	-11186
▁aanzien	-11187
▁aanzoek	-11188
▁abraham	-11189
▁account	-11190
▁achtste	-11191
▁acteurs	-11192
▁afgezet	-11193
▁aflopen	-11194
▁afnemen	-11195
▁aircond	-11196
▁allicht	-11197
▁armenië	-11198
▁artiest	-11199
plek	-11200
ologe	-11201
▁jury	-11202
atesse	-11203
koekje	-11204
▁astma	-11205
▁bacon	-11206
▁eitje	-11207
▁ninja	-11208
▁onopz	-11209
▁pelik	-11210
▁puppy	-11211
chirurg	-11212
massage	-11213
richter	-11214
stokjes	-11215
▁bollen	-11216
▁editie	-11217
▁gejank	-11218
▁lening	-11219
▁lenzen	-11220
▁misluk	-11221
▁napels	-11222
▁ninten	-11223
▁oneven	-11224
▁onpart	-11225
▁plakje	-11226
▁racket	-11227
▁recycl	-11228
▁surfen	-11229
▁voeden	-11230
centriek	-11231
gevoelig	-11232
gevroren	-11233
▁auditie	-11234
▁avonden	-11235
▁badkuip	-11236
▁bedtijd	-11237
▁behaald	-11238
▁behalen	-11239
▁beheers	-11240
▁beleven	-11241
▁belogen	-11242
▁beloven	-11243
▁benoemd	-11244
▁beoorde	-11245
▁beperkt	-11246
▁besmett	-11247
▁bestemd	-11248
▁bestwil	-11249
▁bevrijd	-11250
▁bewaart	-11251
▁bewezen	-11252
▁bijtjes	-11253
▁bijwerk	-11254
▁bloedde	-11255
▁bloesje	-11256
▁borstel	-11257
▁botsing	-11258
▁botsten	-11259
▁britten	-11260
▁burgers	-11261
▁busreis	-11262
▁central	-11263
▁citeert	-11264
▁comfort	-11265
▁compens	-11266
▁comprom	-11267
▁concurr	-11268
▁corrupt	-11269
▁cynisch	-11270
▁dankdag	-11271
▁dankzij	-11272
▁dappere	-11273
▁dataset	-11274
▁dateert	-11275
▁deuntje	-11276
▁diegene	-11277
▁dienaar	-11278
▁diepste	-11279
▁dinsdag	-11280
▁directe	-11281
▁diverse	-11282
▁dollars	-11283
▁droevig	-11284
▁drogist	-11285
▁droomde	-11286
▁duurste	-11287
▁dwongen	-11288
▁emailde	-11289
▁ergerde	-11290
▁esdoorn	-11291
▁evenaar	-11292
▁feesten	-11293
▁felrood	-11294
▁filmpje	-11295
▁finland	-11296
▁fontein	-11297
▁formule	-11298
▁fortuin	-11299
dess	-11300
▁caca	-11301
▁ahorn	-11302
▁gozer	-11303
▁heisa	-11304
▁rooie	-11305
▁saaie	-11306
▁tabak	-11307
gereisd	-11308
ilosoof	-11309
prijzen	-11310
▁atlant	-11311
▁borrel	-11312
▁folder	-11313
▁intens	-11314
▁kurken	-11315
▁magnet	-11316
▁milton	-11317
▁mopper	-11318
▁pepper	-11319
▁stoere	-11320
▁ubocht	-11321
▁vezels	-11322
▁weduwe	-11323
▁whisky	-11324
otiveerd	-11325
▁beefden	-11326
▁bioloog	-11327
▁dialect	-11328
▁frieten	-11329
▁frisjes	-11330
▁garnaal	-11331
▁gebalde	-11332
▁geconfr	-11333
▁gedaald	-11334
▁gedrukt	-11335
▁gefilmd	-11336
▁gehaast	-11337
▁gejuich	-11338
▁geklaag	-11339
▁geklopt	-11340
▁geknipt	-11341
▁gelegen	-11342
▁geleidt	-11343
▁gelovig	-11344
▁gemaaid	-11345
▁gemeten	-11346
▁geoogst	-11347
▁geplukt	-11348
▁gerhard	-11349
▁gericht	-11350
▁gerookt	-11351
▁geschat	-11352
▁gestart	-11353
▁geveegd	-11354
▁gevierd	-11355
▁gevleid	-11356
▁gewurgd	-11357
▁gezegde	-11358
▁globale	-11359
▁grafiek	-11360
▁granaat	-11361
▁grenzen	-11362
▁griekse	-11363
▁hangmat	-11364
▁heiligt	-11365
▁helikop	-11366
▁herstel	-11367
▁hieraan	-11368
▁hieruit	-11369
▁honkman	-11370
▁iemands	-11371
▁ijsberg	-11372
▁ijsblok	-11373
▁ijsland	-11374
▁ijverig	-11375
▁ingreep	-11376
▁inhalen	-11377
▁inhoudt	-11378
▁januari	-11379
▁juichen	-11380
▁juwelen	-11381
▁kanarie	-11382
▁keerden	-11383
▁keertje	-11384
▁keuring	-11385
▁kiertje	-11386
▁klaarde	-11387
▁klappen	-11388
▁klapten	-11389
▁kleptom	-11390
▁kochten	-11391
▁koeweit	-11392
▁koffies	-11393
▁koppige	-11394
▁krabben	-11395
▁kreunde	-11396
▁kruisen	-11397
▁landing	-11398
▁leeuwen	-11399
tfit	-11400
▁dvd	-11401
hotel	-11402
▁moét	-11403
missie	-11404
siroop	-11405
▁confl	-11406
▁oncom	-11407
▁pappa	-11408
▁syrië	-11409
▁tempo	-11410
nummers	-11411
▁absorb	-11412
▁absurd	-11413
▁combin	-11414
▁doordr	-11415
▁firmas	-11416
▁ideale	-11417
▁makeup	-11418
▁melodr	-11419
▁outfit	-11420
▁reggae	-11421
etbakker	-11422
▁grammat	-11423
▁kliniek	-11424
▁lekkend	-11425
▁lekkers	-11426
▁leraars	-11427
▁letters	-11428
▁levensd	-11429
▁liefste	-11430
▁lucifer	-11431
▁maatjes	-11432
▁manipul	-11433
▁maretak	-11434
▁markeer	-11435
▁marokko	-11436
▁massage	-11437
▁masseer	-11438
▁matchen	-11439
▁meegaat	-11440
▁meenden	-11441
▁meesten	-11442
▁mengsel	-11443
▁messing	-11444
▁metalen	-11445
▁miauwen	-11446
▁monothe	-11447
▁monteur	-11448
▁muntjes	-11449
▁nachtje	-11450
▁nadelen	-11451
▁nadenkt	-11452
▁naderde	-11453
▁nieuwam	-11454
▁nieuwer	-11455
▁nodigde	-11456
▁nummers	-11457
▁oceanen	-11458
▁ongewis	-11459
▁onkruid	-11460
▁ontbeet	-11461
▁ontbrak	-11462
▁ontkend	-11463
▁ontving	-11464
▁ontvoer	-11465
▁onweten	-11466
▁oogsten	-11467
▁oorlogs	-11468
▁oortjes	-11469
▁oorverd	-11470
▁ophield	-11471
▁opnemen	-11472
▁opstand	-11473
▁oudheid	-11474
▁overjas	-11475
▁overval	-11476
▁overvol	-11477
▁passend	-11478
▁passief	-11479
▁percent	-11480
▁periode	-11481
▁piercen	-11482
▁plaatse	-11483
▁platina	-11484
▁platzak	-11485
▁plezant	-11486
▁plukten	-11487
▁profeet	-11488
▁propere	-11489
▁protest	-11490
▁pruimen	-11491
▁recycle	-11492
▁reisden	-11493
▁relaxen	-11494
▁restaur	-11495
▁riskant	-11496
▁routine	-11497
▁schande	-11498
▁schaven	-11499
ugese	-11500
uorum	-11501
▁bung	-11502
▁lugu	-11503
dervos	-11504
klopje	-11505
okopie	-11506
safval	-11507
waarts	-11508
▁enzov	-11509
▁mythe	-11510
▁texas	-11511
▁tumor	-11512
bloesem	-11513
elevant	-11514
emplaar	-11515
ijslast	-11516
ocamera	-11517
uniform	-11518
▁academ	-11519
▁alaska	-11520
▁bridge	-11521
▁cliché	-11522
▁edison	-11523
▁gemene	-11524
▁geërfd	-11525
▁giants	-11526
▁integr	-11527
▁kimono	-11528
▁london	-11529
▁opinie	-11530
▁rubber	-11531
▁stimul	-11532
▁stoute	-11533
▁united	-11534
ampoline	-11535
bezitter	-11536
sverdrag	-11537
▁algebra	-11538
▁anoniem	-11539
▁boontje	-11540
▁chefkok	-11541
▁diarree	-11542
▁dilemma	-11543
▁gezoend	-11544
▁ijsklon	-11545
▁indones	-11546
▁koemelk	-11547
▁luguber	-11548
▁omringt	-11549
▁onnozel	-11550
▁picasso	-11551
▁provinc	-11552
▁scheidt	-11553
▁schrijn	-11554
▁schroef	-11555
▁scooter	-11556
▁skieden	-11557
▁sloppen	-11558
▁smoking	-11559
▁spoelde	-11560
▁staking	-11561
▁stapjes	-11562
▁startte	-11563
▁stekker	-11564
▁stelden	-11565
▁stempel	-11566
▁stereot	-11567
▁sterken	-11568
▁sterkst	-11569
▁steunen	-11570
▁stiller	-11571
▁stomkop	-11572
▁stoorde	-11573
▁stormde	-11574
▁storten	-11575
▁stralen	-11576
▁streven	-11577
▁stukjes	-11578
▁sukkels	-11579
▁synthet	-11580
▁tekende	-11581
▁tempels	-11582
▁termijn	-11583
▁toelaat	-11584
▁toestel	-11585
▁toverst	-11586
▁tralies	-11587
▁treurig	-11588
▁troepen	-11589
▁trokken	-11590
▁tsunami	-11591
▁tvserie	-11592
▁twijgje	-11593
▁tyfoons	-11594
▁uitkomt	-11595
▁updates	-11596
▁veelbel	-11597
▁venetië	-11598
▁veracht	-11599
hongerd	-11600
ownload	-11601
▁horizon	-11602
▁spikspl	-11603
▁ultieme	-11604
▁verbied	-11605
▁verdeel	-11606
▁verlaag	-11607
▁verleid	-11608
▁vermeed	-11609
▁vermist	-11610
▁vietnam	-11611
▁vinding	-11612
▁vingert	-11613
▁violist	-11614
▁vlugger	-11615
▁voelden	-11616
▁volgden	-11617
▁voorval	-11618
▁vreesde	-11619
▁waardig	-11620
▁walging	-11621
▁wasgoed	-11622
▁weerman	-11623
▁weerzin	-11624
▁welzijn	-11625
▁wiebelt	-11626
▁wierook	-11627
▁wimpers	-11628
▁windows	-11629
▁zachtst	-11630
▁zestien	-11631
▁zielige	-11632
▁zuivelf	-11633
▁zusters	-11634
aadpleegd	-11635
assistent	-11636
bestendig	-11637
cadeautje	-11638
ceremonie	-11639
concerten	-11640
directeur	-11641
formulier	-11642
getimmerd	-11643
houdelijk	-11644
ingsdatum	-11645
itterende	-11646
mporteerd	-11647
ntgenfoto	-11648
onderhoud	-11649
oratorium	-11650
ormuleerd	-11651
ransfusie	-11652
reglement	-11653
ressiever	-11654
schaatsen	-11655
scheiding	-11656
standaard	-11657
swaardige	-11658
uggereerd	-11659
vankelijk	-11660
verteller	-11661
vliegtuig	-11662
werkelijk	-11663
winnelijk	-11664
woordigde	-11665
woordiger	-11666
xecuteerd	-11667
yclopedie	-11668
▁aangifte	-11669
▁aankomst	-11670
▁aantocht	-11671
▁aarzelen	-11672
▁abonnees	-11673
▁activist	-11674
▁adverten	-11675
▁afdeling	-11676
▁afgegaan	-11677
▁afkoelen	-11678
▁afleggen	-11679
▁afronden	-11680
▁aftreden	-11681
▁afwasser	-11682
▁andersom	-11683
▁apparaat	-11684
▁appeltje	-11685
▁arabisch	-11686
▁argument	-11687
▁augustus	-11688
▁behoorde	-11689
▁bekritis	-11690
▁belazerd	-11691
▁belemmer	-11692
▁belgrado	-11693
▁belletje	-11694
▁bemoeien	-11695
▁beroepsf	-11696
▁beschikt	-11697
▁bestuurd	-11698
▁bevatten	-11699
▁bevolkte	-11700
▁bevreesd	-11701
▁bewapend	-11702
▁bewering	-11703
▁bezoeker	-11704
▁blaadjes	-11705
▁bladerde	-11706
▁bloempot	-11707
▁brasilia	-11708
▁broekzak	-11709
▁cambodja	-11710
▁charmant	-11711
▁chinezen	-11712
▁collegas	-11713
▁cruciale	-11714
▁damascus	-11715
▁danseres	-11716
▁diagnose	-11717
▁dienblad	-11718
▁discreet	-11719
▁doodslag	-11720
▁doorheen	-11721
▁doorsnee	-11722
▁draaiden	-11723
▁echtpaar	-11724
▁economen	-11725
▁eenricht	-11726
▁eetkamer	-11727
▁eiwitarm	-11728
▁elastiek	-11729
▁ergernis	-11730
▁eruitzag	-11731
▁espresso	-11732
▁europees	-11733
▁exvriend	-11734
▁fenomeen	-11735
▁garnalen	-11736
▁gastheer	-11737
▁gebonden	-11738
▁gebruiks	-11739
▁gegroeid	-11740
▁gekruist	-11741
▁geleverd	-11742
▁gepoetst	-11743
▁gerelaxt	-11744
▁geschift	-11745
▁geslepen	-11746
▁gespaard	-11747
▁gestelde	-11748
▁gestoten	-11749
▁gevlucht	-11750
▁gevroren	-11751
▁gezonder	-11752
▁giraffes	-11753
▁godsdien	-11754
▁grachten	-11755
▁greintje	-11756
▁grijnzen	-11757
▁groentje	-11758
▁groetjes	-11759
▁hallucin	-11760
▁heengaan	-11761
▁hervatte	-11762
▁hokkaido	-11763
▁hooiberg	-11764
▁huisdier	-11765
▁huisstof	-11766
▁ijskoude	-11767
▁incident	-11768
▁indenken	-11769
▁indianen	-11770
▁individu	-11771
▁inhouden	-11772
▁instinct	-11773
▁intussen	-11774
▁jacksons	-11775
▁jaloezie	-11776
▁jodendom	-11777
▁kalmeren	-11778
▁kenteken	-11779
▁kilogram	-11780
▁kleinere	-11781
▁kleiners	-11782
▁kleinste	-11783
▁koolstof	-11784
▁koptelef	-11785
▁krokodil	-11786
▁krullend	-11787
▁landgoed	-11788
▁lastpost	-11789
▁levendig	-11790
▁loonsver	-11791
▁luchtbed	-11792
▁lucifers	-11793
▁luipaard	-11794
▁machines	-11795
▁magazine	-11796
▁marathon	-11797
▁martelde	-11798
▁masseren	-11799
▁mcdonald	-11800
▁meekomen	-11801
▁meeneemt	-11802
▁mensheid	-11803
▁meubelen	-11804
▁migraine	-11805
▁minimaal	-11806
▁minister	-11807
▁moedigde	-11808
▁muildier	-11809
▁naaiwerk	-11810
▁nakijken	-11811
▁neutraal	-11812
▁niemands	-11813
▁nietsnut	-11814
▁nintendo	-11815
▁noodzaak	-11816
▁nuttiger	-11817
▁objecten	-11818
▁onbelang	-11819
▁onderwij	-11820
▁ongeacht	-11821
▁ongezond	-11822
▁onkosten	-11823
▁ontploff	-11824
▁ontwierp	-11825
▁oorlogen	-11826
▁opbellen	-11827
▁openbare	-11828
▁opgebeld	-11829
▁opgedaan	-11830
▁opgezegd	-11831
▁opvouwen	-11832
▁overeind	-11833
▁papegaai	-11834
▁parkeerb	-11835
▁parttime	-11836
▁pianiste	-11837
▁pijnstil	-11838
▁pijntjes	-11839
▁pizzeria	-11840
▁plaatsje	-11841
▁planning	-11842
▁plantjes	-11843
▁prettige	-11844
▁reacties	-11845
▁rechtsaf	-11846
▁relatief	-11847
▁religies	-11848
▁roemenië	-11849
▁romeinen	-11850
▁roulette	-11851
▁russisch	-11852
▁schaakte	-11853
▁schaatst	-11854
▁scheelde	-11855
▁schijnen	-11856
▁schonken	-11857
▁schoppen	-11858
▁serieuze	-11859
▁slaapwel	-11860
▁slagerij	-11861
▁smeerlap	-11862
▁snelheid	-11863
▁sojamelk	-11864
▁sprookje	-11865
▁stichtte	-11866
▁stoofpot	-11867
▁straffen	-11868
▁stuurden	-11869
▁tapijten	-11870
▁tasmanië	-11871
▁techniek	-11872
▁toonbank	-11873
▁trombone	-11874
▁twijfelt	-11875
▁uiterste	-11876
▁uitkomen	-11877
▁vallende	-11878
▁verdrink	-11879
▁verdronk	-11880
▁vereisen	-11881
▁vergaten	-11882
▁vergiste	-11883
▁verhogen	-11884
▁verlaagd	-11885
▁verlangt	-11886
▁verlengd	-11887
▁verleren	-11888
▁vermeden	-11889
▁vermiste	-11890
▁versierd	-11891
▁versperd	-11892
▁verspilt	-11893
▁vervolgd	-11894
▁vervuilt	-11895
▁vleierij	-11896
▁voetbalt	-11897
▁voetgang	-11898
▁vogelpik	-11899
▁voorbije	-11900
▁voordoen	-11901
▁voorkant	-11902
▁vreemden	-11903
▁vrolijke	-11904
▁waakzaam	-11905
▁waterman	-11906
▁waterval	-11907
▁weekeind	-11908
▁weekends	-11909
▁weerloos	-11910
▁weggeven	-11911
▁wegkomen	-11912
▁westkust	-11913
▁wiebelig	-11914
▁wijsheid	-11915
▁wijzigen	-11916
▁xylofoon	-11917
▁zeewater	-11918
▁zonlicht	-11919
▁zuurkool	-11920
▁zwartwit	-11921
containers	-11922
dingsboten	-11923
ennegentig	-11924
ersyndroom	-11925
handhavers	-11926
handschoen	-11927
liefhebber	-11928
loopwinkel	-11929
oriënteerd	-11930
restaurant	-11931
sdichtheid	-11932
uarantaine	-11933
verdieping	-11934
vergunning	-11935
verpakking	-11936
verwarming	-11937
▁aanbellen	-11938
▁aanbieden	-11939
▁aanduiden	-11940
▁aangemeld	-11941
▁aankunnen	-11942
▁aanmelden	-11943
▁aanpassen	-11944
▁aanraakte	-11945
▁aanspraak	-11946
▁aansteker	-11947
▁aanvaardt	-11948
▁achterbak	-11949
▁actiefilm	-11950
▁afgebrand	-11951
▁afgenomen	-11952
▁afgereisd	-11953
▁afsluiten	-11954
▁afstappen	-11955
▁amsterdam	-11956
▁angsthaas	-11957
▁annuleren	-11958
▁arriveert	-11959
▁arriveren	-11960
▁arrogante	-11961
▁artikelen	-11962
▁audioboek	-11963
▁bacteriën	-11964
▁bakstenen	-11965
▁bedlampje	-11966
▁bedreigde	-11967
▁bedriegen	-11968
▁bedwingen	-11969
▁begroette	-11970
▁bekendste	-11971
▁beklimmen	-11972
▁beledigen	-11973
▁benaderde	-11974
▁beperking	-11975
▁berichten	-11976
▁beroofden	-11977
▁beschouwt	-11978
▁bespraken	-11979
▁bestelden	-11980
▁bestudeer	-11981
▁betekende	-11982
▁betrekken	-11983
▁bibliothe	-11984
▁bijdragen	-11985
▁binnenweg	-11986
▁blaffende	-11987
▁blinddoek	-11988
▁brandende	-11989
▁cabriolet	-11990
▁calorieën	-11991
▁chemische	-11992
▁compromis	-11993
▁concerten	-11994
▁conclusie	-11995
▁daarginds	-11996
▁daarlangs	-11997
▁daartegen	-11998
▁deeltijds	-11999
▁deodorant	-12000
▁depressie	-12001
▁dertiende	-12002
▁dertigste	-12003
▁desalniet	-12004
▁deurklink	-12005
▁directeur	-12006
▁discreter	-12007
▁doormaakt	-12008
▁doorstaan	-12009
▁doorweekt	-12010
▁doorzocht	-12011
▁eenwieler	-12012
▁eigenaars	-12013
▁enigszins	-12014
▁enzovoort	-12015
▁expeditie	-12016
▁explosies	-12017
▁filosofie	-12018
▁flosdraad	-12019
▁fotokopie	-12020
▁fransisco	-12021
▁frisdrank	-12022
▁garnizoen	-12023
▁gedoneerd	-12024
▁geemailed	-12025
▁gehumeurd	-12026
▁geklommen	-12027
▁geloofden	-12028
▁genegeerd	-12029
▁generatie	-12030
▁gescheurd	-12031
▁geschikte	-12032
▁geschorst	-12033
▁gespannen	-12034
▁gewoonweg	-12035
▁gezwommen	-12036
▁gloeilamp	-12037
▁gsmnummer	-12038
▁gymleraar	-12039
▁harttrans	-12040
▁heerlijke	-12041
▁herkenden	-12042
▁hierboven	-12043
▁hierlangs	-12044
▁hollywood	-12045
▁hoofdpers	-12046
▁hoogstens	-12047
▁hospitaal	-12048
▁houtskool	-12049
▁huiskamer	-12050
▁huisvrouw	-12051
▁huivering	-12052
▁identieke	-12053
▁ijshockey	-12054
▁ijskoffie	-12055
▁ingericht	-12056
▁ingestemd	-12057
▁inleiding	-12058
▁inleveren	-12059
▁inlichten	-12060
▁inspectie	-12061
▁instappen	-12062
▁inzinking	-12063
▁kanselier	-12064
▁kapseisde	-12065
▁kartonnen	-12066
▁kastanjes	-12067
▁kennissen	-12068
▁kippenvel	-12069
▁knipoogde	-12070
▁kunstwerk	-12071
▁landschap	-12072
▁lastigval	-12073
▁lessenaar	-12074
▁limousine	-12075
▁magnetron	-12076
▁margarine	-12077
▁medicatie	-12078
▁meermaals	-12079
▁meevallen	-12080
▁merendeel	-12081
▁mexicaans	-12082
▁miljoenen	-12083
▁milkshake	-12084
▁mogelijke	-12085
▁naamwoord	-12086
▁nagerecht	-12087
▁officieel	-12088
▁onderwijs	-12089
▁oneerlijk	-12090
▁ongedeerd	-12091
▁ongehoord	-12092
▁ontdooien	-12093
▁onthullen	-12094
▁ontvangst	-12095
▁ontvlucht	-12096
▁ontwijken	-12097
▁ontwikkel	-12098
▁oorbellen	-12099
▁opdrukken	-12100
▁opgelopen	-12101
▁opgemaakt	-12102
▁opgeruimd	-12103
▁opgevolgd	-12104
▁oplettend	-12105
▁opmerking	-12106
▁opstarten	-12107
▁opwarming	-12108
▁opzichter	-12109
▁originele	-12110
▁overdreef	-12111
▁overgeven	-12112
▁overhalen	-12113
▁parachute	-12114
▁pikdonker	-12115
▁piknikken	-12116
▁plakkerig	-12117
▁politicus	-12118
▁portugese	-12119
▁rationeel	-12120
▁rechtdoor	-12121
▁reciteren	-12122
▁rendieren	-12123
▁reptielen	-12124
▁reputatie	-12125
▁reservoir	-12126
▁rocknroll	-12127
▁roggemeel	-12128
▁rooskleur	-12129
▁rotzooien	-12130
▁rusteloos	-12131
▁schandaal	-12132
▁schattige	-12133
▁schichtig	-12134
▁schokkend	-12135
▁schooldag	-12136
▁schotland	-12137
▁schraapte	-12138
▁september	-12139
▁serveerde	-12140
▁singapore	-12141
▁snorkelen	-12142
▁staatsman	-12143
▁standaard	-12144
▁steenhard	-12145
▁stripboek	-12146
▁tandtechn	-12147
▁terugkwam	-12148
▁theorieën	-12149
▁tijdroven	-12150
▁toegewijd	-12151
▁toelating	-12152
▁toewijzen	-12153
▁tvtoestel	-12154
▁uitbundig	-12155
▁uitkiezen	-12156
▁uitlachen	-12157
▁uitslapen	-12158
▁uitvinden	-12159
▁uitvoeren	-12160
▁uitvoerig	-12161
▁verbieden	-12162
▁verbroken	-12163
▁verdeelde	-12164
▁vergeleek	-12165
▁verheffen	-12166
▁verhoging	-12167
▁verkeerds	-12168
▁verkering	-12169
▁verklaard	-12170
▁verknoeit	-12171
▁verlangen	-12172
▁verlengen	-12173
▁verloving	-12174
▁verminder	-12175
▁vermoeden	-12176
▁vernederd	-12177
▁verpesten	-12178
▁verprutst	-12179
▁verschilt	-12180
▁versieren	-12181
▁versnelde	-12182
▁vertelden	-12183
▁vervuilen	-12184
▁verzinnen	-12185
▁vleermuis	-12186
▁vloeistof	-12187
▁vogelhuis	-12188
▁vreedzaam	-12189
▁vreemdste	-12190
▁vriendjes	-12191
▁walgelijk	-12192
▁walvissen	-12193
▁wandelden	-12194
▁wandelend	-12195
▁waterpolo	-12196
▁weerhoudt	-12197
▁weerstand	-12198
▁wereldber	-12199
▁winderige	-12200
▁windmolen	-12201
▁woonkamer	-12202
▁zindelijk	-12203
▁zuidelijk	-12204
▁zuigeling	-12205
▁zwitserse	-12206
assistenten	-12207
broodsweken	-12208
gelegenheid	-12209
instructeur	-12210
schappelijk	-12211
▁aandoening	-12212
▁aangebrand	-12213
▁aangegeven	-12214
▁aangericht	-12215
▁aangesteld	-12216
▁aanspreken	-12217
▁aansteller	-12218
▁aantreffen	-12219
▁aanvoerder	-12220
▁aanwezigen	-12221
▁abonnement	-12222
▁achterdeur	-12223
▁ademhaling	-12224
▁adopteerde	-12225
▁afgeslagen	-12226
▁afgesneden	-12227
▁afhandelen	-12228
▁afrikaanse	-12229
▁annuleerde	-12230
▁antarctica	-12231
▁apparatuur	-12232
▁appeltaart	-12233
▁argentinië	-12234
▁assisteren	-12235
▁bandendruk	-12236
▁bedreiging	-12237
▁bekvechten	-12238
▁beledigend	-12239
▁benadering	-12240
▁beoordelen	-12241
▁beschadigt	-12242
▁beschonken	-12243
▁bestemming	-12244
▁bestudeerd	-12245
▁betrekking	-12246
▁bewijslast	-12247
▁bijgewoond	-12248
▁billenkoek	-12249
▁binnenliep	-12250
▁binnenstad	-12251
▁blindedarm	-12252
▁boekhandel	-12253
▁boswachter	-12254
▁bruiloften	-12255
▁catastrofe	-12256
▁chauffeurs	-12257
▁cowboyhoed	-12258
▁daarbuiten	-12259
▁detectives	-12260
▁dichterbij	-12261
▁druppeltje	-12262
▁eenvoudige	-12263
▁eetstokjes	-12264
▁elektrisch	-12265
▁emigreerde	-12266
▁ervaringen	-12267
▁essentieel	-12268
▁excentriek	-12269
▁fascineren	-12270
▁favorieten	-12271
▁fotografie	-12272
▁frustratie	-12273
▁gedownload	-12274
▁geduldiger	-12275
▁geestelijk	-12276
▁geschaatst	-12277
▁geschreeuw	-12278
▁geserveerd	-12279
▁gesmokkeld	-12280
▁gewrichten	-12281
▁gigantisch	-12282
▁gloednieuw	-12283
▁glutenvrij	-12284
▁godsdienst	-12285
▁gouverneur	-12286
▁grapefruit	-12287
▁halfzuster	-12288
▁hebzuchtig	-12289
▁hechtingen	-12290
▁heengegaan	-12291
▁helikopter	-12292
▁hierbinnen	-12293
▁hogeschool	-12294
▁hondenvoer	-12295
▁honkballen	-12296
▁huisarrest	-12297
▁immuniteit	-12298
▁initiatief	-12299
▁inlichting	-12300
▁inspiratie	-12301
▁inspuiting	-12302
▁irriteerde	-12303
▁italiaanse	-12304
▁kandidaten	-12305
▁kernwapens	-12306
▁kindertijd	-12307
▁kleptomaan	-12308
▁leerboeken	-12309
▁linkerbeen	-12310
▁linkervoet	-12311
▁luisterden	-12312
▁manuscript	-12313
▁meebrengen	-12314
▁meningitis	-12315
▁microscoop	-12316
▁mijnwerker	-12317
▁misdadiger	-12318
▁misleidend	-12319
▁motorfiets	-12320
▁naargelang	-12321
▁nauwkeurig	-12322
▁observeren	-12323
▁ogenblikje	-12324
▁olympische	-12325
▁onbeholpen	-12326
▁onbekenden	-12327
▁ondervroeg	-12328
▁ongezellig	-12329
▁onredelijk	-12330
▁ooggetuige	-12331
▁oostenrijk	-12332
▁opgeblazen	-12333
▁opgedragen	-12334
▁orangoetan	-12335
▁overdrijft	-12336
▁overtuigde	-12337
▁overwinnen	-12338
▁paaseieren	-12339
▁papierwerk	-12340
▁plaatsvond	-12341
▁produceren	-12342
▁psychiater	-12343
▁rechterzij	-12344
▁rechtsgang	-12345
▁reisbureau	-12346
▁rijstkoker	-12347
▁rondhangen	-12348
▁rondkijken	-12349
▁schaakbord	-12350
▁schooltijd	-12351
▁schweitzer	-12352
▁slechterik	-12353
▁sloddervos	-12354
▁specifieke	-12355
▁sportwagen	-12356
▁sprakeloos	-12357
▁standbeeld	-12358
▁stewardess	-12359
▁studietijd	-12360
▁suggesties	-12361
▁symfonieën	-12362
▁tamboerijn	-12363
▁telefoneer	-12364
▁televisies	-12365
▁thuiskomen	-12366
▁tijdelijke	-12367
▁trampoline	-12368
▁tuinmannen	-12369
▁uitgepraat	-12370
▁uitstappen	-12371
▁uitvinding	-12372
▁veeleisend	-12373
▁verbeterde	-12374
▁verbrandde	-12375
▁verdachten	-12376
▁verdeelden	-12377
▁vergeleken	-12378
▁vergiftigd	-12379
▁verhaaltje	-12380
▁verhuurden	-12381
▁verijdelen	-12382
▁verkiezing	-12383
▁verklaarde	-12384
▁vermoeiend	-12385
▁vernieuwen	-12386
▁verscholen	-12387
▁vertaalden	-12388
▁vervalsing	-12389
▁vervolgens	-12390
▁vervuiling	-12391
▁verzachten	-12392
▁verzekerde	-12393
▁verzekeren	-12394
▁verzwijgen	-12395
▁vijftiende	-12396
▁voertuigen	-12397
▁voetballer	-12398
▁voorbarige	-12399
▁voorkwamen	-12400
▁voorspelde	-12401
▁voorstelde	-12402
▁voorwerpen	-12403
▁vrijlating	-12404
▁vrouwelijk	-12405
▁waanzinnig	-12406
▁wandelaars	-12407
▁wandelstok	-12408
▁wederzijds	-12409
▁weegschaal	-12410
▁weerhouden	-12411
▁weggehaald	-12412
▁welgesteld	-12413
▁werelddeel	-12414
▁wereldwijd	-12415
▁windsurfen	-12416
▁zeespiegel	-12417
▁zegevieren	-12418
▁zonnebloem	-12419
▁zoogdieren	-12420
▁zuidafrika	-12421
▁zwakkeling	-12422
▁zwendelaar	-12423
casescenario	-12424
rocardiogram	-12425
schapsverlof	-12426
vergiftiging	-12427
verschuiving	-12428
vriendelijke	-12429
▁aangebracht	-12430
▁aangesloten	-12431
▁achtergrond	-12432
▁achterstand	-12433
▁adopteerden	-12434
▁afstudeerde	-12435
▁agressiever	-12436
▁alcoholvrij	-12437
▁antibiotica	-12438
▁astmaaanval	-12439
▁atlantische	-12440
▁behandeling	-12441
▁belastingen	-12442
▁beluisterde	-12443
▁bergklimmen	-12444
▁beschermden	-12445
▁bevredigend	-12446
▁bijgedragen	-12447
▁buitenaards	-12448
▁buitenlands	-12449
▁burgerlijke	-12450
▁champignons	-12451
▁christendom	-12452
▁concertzaal	-12453
▁concurreren	-12454
▁contacteren	-12455
▁delicatesse	-12456
▁deprimerend	-12457
▁deskundigen	-12458
▁deuropening	-12459
▁dobbelsteen	-12460
▁doodgemaakt	-12461
▁doordeweeks	-12462
▁doorgewerkt	-12463
▁echtgenoten	-12464
▁eekhoorntje	-12465
▁fascineerde	-12466
▁fascinerend	-12467
▁feliciteren	-12468
▁fransengels	-12469
▁geadviseerd	-12470
▁gechanteerd	-12471
▁gefrituurde	-12472
▁gemeenschap	-12473
▁gemotiveerd	-12474
▁geschrokken	-12475
▁gezinsleven	-12476
▁glimlachend	-12477
▁glutenvrije	-12478
▁goedemiddag	-12479
▁goeiemorgen	-12480
▁goocheltruc	-12481
▁hiernaartoe	-12482
▁hiervandaan	-12483
▁hiltonhotel	-12484
▁huisvrouwen	-12485
▁introduceer	-12486
▁kantoormede	-12487
▁keukentafel	-12488
▁knuffelbeer	-12489
▁koffiepauze	-12490
▁kookkunsten	-12491
▁krakelingen	-12492
▁krankzinnig	-12493
▁kunstmuseum	-12494
▁langzaamaan	-12495
▁leermeester	-12496
▁liefdeslied	-12497
▁lippenstift	-12498
▁medewerkers	-12499
▁minderjarig	-12500
▁morgenstond	-12501
▁nachtkastje	-12502
▁nachtmerrie	-12503
▁nederlandse	-12504
▁neergestort	-12505
▁nietmachine	-12506
▁notitieblok	-12507
▁ogenblikken	-12508
▁onderbroken	-12509
▁ondergegaan	-12510
▁onderneming	-12511
▁onderscheid	-12512
▁ondersteunt	-12513
▁ondragelijk	-12514
▁onpartijdig	-12515
▁ontmoedigen	-12516
▁onverwachte	-12517
▁onverwachts	-12518
▁operazanger	-12519
▁opgehelderd	-12520
▁opgestapeld	-12521
▁opgezwollen	-12522
▁opmerkingen	-12523
▁oprechtheid	-12524
▁overdrijven	-12525
▁overgegeven	-12526
▁overgenomen	-12527
▁overhandigd	-12528
▁overleefden	-12529
▁overlevende	-12530
▁overrompeld	-12531
▁overstromen	-12532
▁overtroffen	-12533
▁overtuigend	-12534
▁overzwemmen	-12535
▁pianospelen	-12536
▁platgebrand	-12537
▁platgedrukt	-12538
▁professoren	-12539
▁pseudoweten	-12540
▁reflecteert	-12541
▁registreren	-12542
▁reusachtige	-12543
▁ruimteschip	-12544
▁satellieten	-12545
▁scheepsromp	-12546
▁schoolkrant	-12547
▁serveerster	-12548
▁slaapkamers	-12549
▁slachtoffer	-12550
▁sneeuwstorm	-12551
▁speelplaats	-12552
▁sterkedrank	-12553
▁stormachtig	-12554
▁stropdassen	-12555
▁suggereerde	-12556
▁tafeltennis	-12557
▁telefooncel	-12558
▁therapeuten	-12559
▁thermometer	-12560
▁tijdmachine	-12561
▁toetsenbord	-12562
▁tweelingzus	-12563
▁uitdagingen	-12564
▁uitgebroken	-12565
▁verbeelding	-12566
▁verfrissend	-12567
▁vergezellen	-12568
▁verkoopster	-12569
▁verrekijker	-12570
▁verspilling	-12571
▁versterking	-12572
▁vervangbaar	-12573
▁vervangende	-12574
▁verwachting	-12575
▁verwelkomen	-12576
▁verwijderen	-12577
▁vliegtuigen	-12578
▁voetmassage	-12579
▁volwassenen	-12580
▁voorgelezen	-12581
▁voorzichter	-12582
▁vrouwennaam	-12583
▁vruchtensap	-12584
▁waargebeurd	-12585
▁waarvandaan	-12586
▁waterpokken	-12587
▁weddenschap	-12588
▁wereldvrede	-12589
▁wijzigingen	-12590
▁zeevruchten	-12591
▁zombiefilms	-12592
ransplantatie	-12593
wetenschappen	-12594
zoekingsbevel	-12595
▁aangekondigd	-12596
▁aangeschoten	-12597
▁aankondiging	-12598
▁aardbeienijs	-12599
▁aircondition	-12600
▁alternatieve	-12601
▁ansichtkaart	-12602
▁balletdanser	-12603
▁bananenschil	-12604
▁banketbakker	-12605
▁basketballen	-12606
▁beschrijving	-12607
▁bestellingen	-12608
▁betekenissen	-12609
▁bijwerkingen	-12610
▁buitenlander	-12611
▁comfortabele	-12612
▁concentreert	-12613
▁conservatief	-12614
▁dertigjarige	-12615
▁doorgeslagen	-12616
▁encyclopedie	-12617
▁geaccepteerd	-12618
▁geadopteerde	-12619
▁geadresseerd	-12620
▁gedeprimeerd	-12621
▁geformuleerd	-12622
▁gehoorzaamde	-12623
▁gepubliceerd	-12624
▁geraadpleegd	-12625
▁gesuggereerd	-12626
▁geëxecuteerd	-12627
▁handtekening	-12628
▁hersenkanker	-12629
▁identificeer	-12630
▁instrumenten	-12631
▁internetcafé	-12632
▁jeugdherberg	-12633
▁koelkastdeur	-12634
▁laboratorium	-12635
▁lastigvallen	-12636
▁manipulatief	-12637
▁meedogenloos	-12638
▁middenoosten	-12639
▁mishandeling	-12640
▁morgenmiddag	-12641
▁nabijgelegen	-12642
▁nachtmerries	-12643
▁nationalisme	-12644
▁natuurkracht	-12645
▁nederlanders	-12646
▁neergestoken	-12647
▁neerschieten	-12648
▁noorderlicht	-12649
▁onderhandeld	-12650
▁ongetwijfeld	-12651
▁onruststoker	-12652
▁onverrichter	-12653
▁onwetendheid	-12654
▁oorverdovend	-12655
▁oppervlakkig	-12656
▁overgestoken	-12657
▁overwinteren	-12658
▁proefgelezen	-12659
▁rechtsomkeer	-12660
▁rechtvaardig	-12661
▁samenwerking	-12662
▁samenzwering	-12663
▁schaakspelen	-12664
▁scheidsrecht	-12665
▁schitterende	-12666
▁schoolgebouw	-12667
▁schorpioenen	-12668
▁secretaresse	-12669
▁skateboarden	-12670
▁slachtoffers	-12671
▁specialiteit	-12672
▁stadscentrum	-12673
▁steekhoudend	-12674
▁stekelvarken	-12675
▁stiefdochter	-12676
▁tandenstoker	-12677
▁tegenliggers	-12678
▁teruggegeven	-12679
▁terughoudend	-12680
▁timmerlieden	-12681
▁uitgehongerd	-12682
▁vergaderzaal	-12683
▁verklaringen	-12684
▁verplaatsing	-12685
▁verslaggever	-12686
▁vierenzestig	-12687
▁vlooienmarkt	-12688
▁vooruitlopen	-12689
▁vreemdgegaan	-12690
▁vrijgezellen	-12691
▁vrijwilliger	-12692
▁waterleiding	-12693
▁werkervaring	-12694
▁wetsvoorstel	-12695
▁wiskundenerd	-12696
▁zonnebrandcr	-12697
▁aardbeienwijn	-12698
▁achtenveertig	-12699
▁achterdochtig	-12700
▁achtergekomen	-12701
▁achteruitkijk	-12702
▁beginnersboek	-12703
▁bergbeklimmen	-12704
▁beschuldiging	-12705
▁besmettelijke	-12706
▁bloemenwinkel	-12707
▁brillenglazen	-12708
▁buitenbeentje	-12709
▁daadwerkelijk	-12710
▁demonstranten	-12711
▁dertienjarige	-12712
▁dinosaurussen	-12713
▁doodgeschoten	-12714
▁echtscheiding	-12715
▁fabrieksafval	-12716
▁geboortedatum	-12717
▁gecompliceerd	-12718
▁gedetailleerd	-12719
▁geheimhouding	-12720
▁geloofwaardig	-12721
▁gemakkelijker	-12722
▁gisterennacht	-12723
▁herinneringen	-12724
▁hersenchirurg	-12725
▁hondentrainer	-12726
▁hoofdzakelijk	-12727
▁improviseerde	-12728
▁kennisgemaakt	-12729
▁kersenbloesem	-12730
▁kurkentrekker	-12731
▁kwallensteken	-12732
▁levensverhaal	-12733
▁melkveehouder	-12734
▁mineraalwater	-12735
▁modeontwerper	-12736
▁natuurkundige	-12737
▁ochtendgloren	-12738
▁oncomfortabel	-12739
▁ondersteboven	-12740
▁onopzettelijk	-12741
▁onvoorzichtig	-12742
▁parkeerplaats	-12743
▁plaatsgenomen	-12744
▁professioneel	-12745
▁reddingsboten	-12746
▁schooluniform	-12747
▁schrijnwerker	-12748
▁smeltzekering	-12749
▁smoorverliefd	-12750
▁spaghettisaus	-12751
▁studentenhuis	-12752
▁tafelmanieren	-12753
▁toegangsprijs	-12754
▁twijfelachtig	-12755
▁verbeteringen	-12756
▁verduistering	-12757
▁verschrikking	-12758
▁verslechterde	-12759
▁vertrouwelijk	-12760
▁vijfentwintig	-12761
▁vijfenvijftig	-12762
▁visitekaartje	-12763
▁vissersdorpje	-12764
▁vredesverdrag	-12765
▁wapenbezitter	-12766
▁watermeloenen	-12767
▁werkelijkheid	-12768
▁wetenschapper	-12769
▁zuivelfabriek	-12770
▁autoonderdelen	-12771
▁binnengevallen	-12772
▁chocoladedonut	-12773
▁chocoladetaart	-12774
▁countryartiest	-12775
▁desalniettemin	-12776
▁dichtgetimmerd	-12777
▁discussieerden	-12778
▁drankproblemen	-12779
▁geboorteplaats	-12780
▁geconfronteerd	-12781
▁gehoorapparaat	-12782
▁hersenoperatie	-12783
▁honkbalspelers	-12784
▁kentekennummer	-12785
▁krantenartikel	-12786
▁lievelingsfilm	-12787
▁lievelingswijn	-12788
▁longontsteking	-12789
▁loonsverhoging	-12790
▁melodramatisch	-12791
▁nieuwamsterdam	-12792
▁onrechtvaardig	-12793
▁overgrootvader	-12794
▁schouderklopje	-12795
▁souvenirwinkel	-12796
▁spijkerbroeken	-12797
▁tentoongesteld	-12798
▁veronderstelde	-12799
▁verontwaardigd	-12800
▁vliegtuigcrash	-12801
▁voorspellingen	-12802
▁weerzinwekkend	-12803
▁wetenschappers	-12804
▁wiskundeexamen	-12805
▁wiskundeleraar	-12806
▁zelfvertrouwen	-12807
▁applaudisseerde	-12808
▁beschuldigingen	-12809
▁bliksemafleider	-12810
▁bloedtransfusie	-12811
▁countrymuzikant	-12812
▁eenrichtingsweg	-12813
▁espressomachine	-12814
▁gedesoriënteerd	-12815
▁geheugenverlies	-12816
▁gevangenisstraf	-12817
▁havermoutkoekje	-12818
▁jachtvergunning	-12819
▁kassamedewerker	-12820
▁kleindochtertje	-12821
▁komkommersalade	-12822
▁kringloopwinkel	-12823
▁levensonderhoud	-12824
▁levensstandaard	-12825
▁lichaamsgewicht	-12826
▁maatschappelijk	-12827
▁onafhankelijker	-12828
▁onafscheidelijk	-12829
▁onoverwinnelijk	-12830
▁rassenproblemen	-12831
▁schooldirecteur	-12832
▁schoolreglement	-12833
▁telefoongesprek	-12834
▁toneelschrijver	-12835
▁vermenigvuldigd	-12836
▁videospelletjes	-12837
▁vingerafdrukken	-12838
▁zuidamerikaanse	-12839
▁zuivelproducten	-12840
aj	-12841
cd	-12842
cl	-12843
dp	-12844
ek	-12845
eo	-12846
ey	-12847
ez	-12848
fu	-12849
gy	-12850
hj	-12851
kb	-12852
my	-12853
nd	-12854
nn	-12855
ny	-12856
rd	-12857
sv	-12858
sw	-12859
sé	-12860
tw	-12861
va	-12862
vj	-12863
wr	-12864
ws	-12865
xe	-12866
yp	-12867
za	-12868
ër	-12869
alm	-12870
alp	-12871
alt	-12872
amd	-12873
ano	-12874
atn	-12875
ato	-12876
auc	-12877
bag	-12878
bar	-12879
ble	-12880
bst	-12881
can	-12882
cip	-12883
dan	-12884
dek	-12885
eej	-12886
emm	-12887
eno	-12888
ero	-12889
erw	-12890
eth	-12891
eye	-12892
fal	-12893
fan	-12894
fen	-12895
flo	-12896
gij	-12897
gon	-12898
hap	-12899
ev	-12900
gu	-12901
ël	-12902
ffr	-12903
hee	-12904
hor	-12905
huw	-12906
iar	-12907
iit	-12908
ijb	-12909
ijp	-12910
ise	-12911
ish	-12912
ith	-12913
ité	-12914
jij	-12915
jon	-12916
kap	-12917
lek	-12918
lit	-12919
mie	-12920
mon	-12921
nac	-12922
nie	-12923
nst	-12924
oca	-12925
oev	-12926
ome	-12927
omi	-12928
oob	-12929
ora	-12930
oul	-12931
oya	-12932
pal	-12933
pat	-12934
pie	-12935
poo	-12936
ros	-12937
rup	-12938
tto	-12939
uki	-12940
uku	-12941
ukz	-12942
ule	-12943
vet	-12944
vlo	-12945
wan	-12946
was	-12947
wen	-12948
wet	-12949
yel	-12950
zat	-12951
zil	-12952
▁cv	-12953
▁dc	-12954
▁dn	-12955
▁ep	-12956
▁ev	-12957
▁gn	-12958
▁hi	-12959
▁ig	-12960
▁ip	-12961
▁jo	-12962
▁mi	-12963
▁mr	-12964
▁ph	-12965
▁tu	-12966
▁té	-12967
▁vh	-12968
▁vk	-12969
aand	-12970
aasp	-12971
abot	-12972
adan	-12973
amik	-12974
amsk	-12975
ands	-12976
apad	-12977
ardt	-12978
atië	-12979
avig	-12980
beel	-12981
best	-12982
bier	-12983
bijn	-12984
blaz	-12985
blus	-12986
bond	-12987
bure	-12988
cast	-12989
colo	-12990
cule	-12991
daat	-12992
delt	-12993
derf	-12994
dygu	-12995
elie	-12996
elsf	-12997
emde	-12998
enst	-12999
ari	-13000
dep	-13001
fib	-13002
iak	-13003
pil	-13004
sde	-13005
uas	-13006
▁us	-13007
arch	-13008
bron	-13009
chte	-13010
ddig	-13011
erun	-13012
etsj	-13013
ever	-13014
ftal	-13015
gepl	-13016
geur	-13017
golf	-13018
groe	-13019
haan	-13020
ibis	-13021
ierf	-13022
ijtl	-13023
ikas	-13024
ileo	-13025
imst	-13026
inki	-13027
inte	-13028
iriv	-13029
iser	-13030
isie	-13031
itar	-13032
iton	-13033
itst	-13034
izab	-13035
joem	-13036
juin	-13037
kaat	-13038
kkig	-13039
klim	-13040
klut	-13041
leun	-13042
liek	-13043
lirt	-13044
lvan	-13045
moss	-13046
mouw	-13047
munt	-13048
nnen	-13049
ntim	-13050
ockh	-13051
olic	-13052
omde	-13053
omin	-13054
ompt	-13055
onië	-13056
oore	-13057
oorl	-13058
ooth	-13059
opië	-13060
ormd	-13061
orth	-13062
otst	-13063
pent	-13064
pern	-13065
pong	-13066
pten	-13067
ptun	-13068
rend	-13069
rese	-13070
rode	-13071
roeg	-13072
saan	-13073
seen	-13074
situ	-13075
tigd	-13076
uand	-13077
ubel	-13078
ueen	-13079
uine	-13080
uldt	-13081
unen	-13082
unie	-13083
untu	-13084
upro	-13085
uzco	-13086
vepl	-13087
vjet	-13088
voed	-13089
want	-13090
wint	-13091
xter	-13092
zeld	-13093
▁afb	-13094
▁alg	-13095
▁alp	-13096
▁ann	-13097
▁bib	-13098
▁bik	-13099
asa	-13100
bay	-13101
igh	-13102
kas	-13103
kus	-13104
mil	-13105
orp	-13106
pul	-13107
uft	-13108
zee	-13109
aire	-13110
bijt	-13111
derc	-13112
digs	-13113
elig	-13114
irus	-13115
kong	-13116
spin	-13117
ufje	-13118
voeg	-13119
worp	-13120
▁ach	-13121
▁bin	-13122
▁bou	-13123
▁coo	-13124
▁cop	-13125
▁dar	-13126
▁dig	-13127
▁dij	-13128
▁doo	-13129
▁dum	-13130
▁erb	-13131
▁erw	-13132
▁fun	-13133
▁gee	-13134
▁gin	-13135
▁hav	-13136
▁hil	-13137
▁hin	-13138
▁hus	-13139
▁jag	-13140
▁jet	-13141
▁kee	-13142
▁kro	-13143
▁kui	-13144
▁kwe	-13145
▁loc	-13146
▁loe	-13147
▁lou	-13148
▁maa	-13149
▁mac	-13150
▁max	-13151
▁meg	-13152
▁mng	-13153
▁nar	-13154
▁nim	-13155
▁noz	-13156
▁nun	-13157
▁opd	-13158
▁ope	-13159
▁opg	-13160
▁opk	-13161
▁pal	-13162
▁pie	-13163
▁pok	-13164
▁pom	-13165
▁pul	-13166
▁ran	-13167
▁run	-13168
▁rup	-13169
▁sky	-13170
▁tee	-13171
▁vee	-13172
▁vie	-13173
▁wei	-13174
▁wem	-13175
▁wur	-13176
▁zam	-13177
acond	-13178
acros	-13179
agerd	-13180
alige	-13181
aline	-13182
allel	-13183
amide	-13184
andas	-13185
apest	-13186
aroni	-13187
asiel	-13188
aslie	-13189
baars	-13190
barst	-13191
boord	-13192
boren	-13193
borst	-13194
braak	-13195
deles	-13196
delid	-13197
demie	-13198
denen	-13199
ais	-13200
aot	-13201
eor	-13202
gry	-13203
hem	-13204
kne	-13205
olm	-13206
orc	-13207
tor	-13208
doet	-13209
endt	-13210
isis	-13211
orie	-13212
poet	-13213
resc	-13214
reuk	-13215
smok	-13216
▁fik	-13217
▁onw	-13218
adere	-13219
arijk	-13220
beten	-13221
derig	-13222
diger	-13223
ecycl	-13224
eeman	-13225
elken	-13226
ellak	-13227
elpen	-13228
elsak	-13229
elzen	-13230
emene	-13231
emmen	-13232
enden	-13233
enten	-13234
eorol	-13235
erant	-13236
ereno	-13237
erian	-13238
erken	-13239
etste	-13240
galer	-13241
gdrup	-13242
geant	-13243
gelen	-13244
gemid	-13245
gente	-13246
graag	-13247
holog	-13248
icker	-13249
idder	-13250
iecht	-13251
ieder	-13252
iefst	-13253
ielik	-13254
ieste	-13255
igeer	-13256
igens	-13257
igent	-13258
igers	-13259
ijgen	-13260
ijper	-13261
ikalm	-13262
ikten	-13263
indig	-13264
inets	-13265
ingle	-13266
intje	-13267
inton	-13268
ipper	-13269
iraal	-13270
istal	-13271
iwerk	-13272
jonge	-13273
katen	-13274
kisch	-13275
klauw	-13276
leans	-13277
lehem	-13278
ligen	-13279
lijks	-13280
loten	-13281
luist	-13282
magne	-13283
melde	-13284
nante	-13285
ochie	-13286
oezig	-13287
ogeen	-13288
olina	-13289
onage	-13290
ongte	-13291
onier	-13292
ooier	-13293
oonde	-13294
order	-13295
ordig	-13296
outen	-13297
perst	-13298
pland	-13299
urm	-13300
urp	-13301
urs	-13302
avag	-13303
enge	-13304
enkt	-13305
roen	-13306
wang	-13307
wurm	-13308
▁kri	-13309
▁tvs	-13310
▁wui	-13311
allie	-13312
chien	-13313
emaat	-13314
eteer	-13315
ierom	-13316
iumgl	-13317
ketje	-13318
kkage	-13319
macht	-13320
naakt	-13321
neten	-13322
ognac	-13323
reekw	-13324
reerd	-13325
reëel	-13326
rijgt	-13327
roker	-13328
schau	-13329
schin	-13330
shake	-13331
shuis	-13332
shulp	-13333
sinki	-13334
slikt	-13335
sluit	-13336
slust	-13337
smisd	-13338
splat	-13339
spunt	-13340
steur	-13341
stoen	-13342
strik	-13343
tende	-13344
uisde	-13345
uitte	-13346
umato	-13347
utser	-13348
utten	-13349
virus	-13350
visor	-13351
wende	-13352
wicht	-13353
zwart	-13354
▁aanw	-13355
▁accu	-13356
▁actu	-13357
▁ader	-13358
▁auth	-13359
▁baar	-13360
▁bavi	-13361
▁beth	-13362
▁bijk	-13363
▁blin	-13364
▁bloc	-13365
▁bons	-13366
▁brus	-13367
▁dead	-13368
▁deeg	-13369
▁depr	-13370
▁doch	-13371
▁dodo	-13372
▁eenc	-13373
▁eend	-13374
▁egoc	-13375
▁exen	-13376
▁gese	-13377
▁glin	-13378
▁glip	-13379
▁grof	-13380
▁gumm	-13381
▁haan	-13382
▁hadt	-13383
▁heft	-13384
▁isab	-13385
▁isch	-13386
▁jeuk	-13387
▁kipn	-13388
▁klon	-13389
▁kras	-13390
▁kwis	-13391
▁laad	-13392
▁mane	-13393
▁mazz	-13394
▁mier	-13395
▁moei	-13396
▁ocel	-13397
▁oerw	-13398
▁okra	-13399
dad	-13400
ador	-13401
agia	-13402
gelt	-13403
iere	-13404
ouwd	-13405
rock	-13406
wand	-13407
yout	-13408
▁and	-13409
▁buc	-13410
▁fee	-13411
▁fit	-13412
▁wik	-13413
ilair	-13414
oetes	-13415
seret	-13416
▁broe	-13417
▁depp	-13418
▁enge	-13419
▁fara	-13420
▁gand	-13421
▁mari	-13422
▁omas	-13423
▁omsl	-13424
▁omst	-13425
▁onin	-13426
▁onte	-13427
▁ontz	-13428
▁opat	-13429
▁ouwe	-13430
▁ozon	-13431
▁pien	-13432
▁plas	-13433
▁prik	-13434
▁prop	-13435
▁pure	-13436
▁rade	-13437
▁rand	-13438
▁rang	-13439
▁redt	-13440
▁road	-13441
▁romp	-13442
▁rouw	-13443
▁ruis	-13444
▁sien	-13445
▁skel	-13446
▁spat	-13447
▁surf	-13448
▁teer	-13449
▁tenn	-13450
▁tomo	-13451
▁trop	-13452
▁tuur	-13453
▁vaan	-13454
▁vibr	-13455
▁vlee	-13456
▁vlek	-13457
▁vonk	-13458
▁vrie	-13459
▁vroe	-13460
▁wang	-13461
▁wijd	-13462
▁wits	-13463
▁worm	-13464
▁yale	-13465
▁zaag	-13466
▁zeel	-13467
▁zeil	-13468
▁zijk	-13469
▁zink	-13470
000000	-13471
aardig	-13472
ademen	-13473
ameren	-13474
apping	-13475
ariërs	-13476
artsen	-13477
atleet	-13478
bakken	-13479
center	-13480
chocol	-13481
ckland	-13482
ctisch	-13483
cuador	-13484
cursus	-13485
denrek	-13486
denten	-13487
dragen	-13488
eelbed	-13489
eerder	-13490
elands	-13491
enkaas	-13492
erijen	-13493
etspel	-13494
flower	-13495
gedeel	-13496
geweer	-13497
hanger	-13498
harash	-13499
agu	-13500
bro	-13501
cle	-13502
coc	-13503
gle	-13504
gro	-13505
kad	-13506
tle	-13507
uim	-13508
esen	-13509
isje	-13510
jech	-13511
ping	-13512
ying	-13513
▁hac	-13514
▁jod	-13515
▁loy	-13516
aflex	-13517
aguay	-13518
annië	-13519
cockt	-13520
delde	-13521
eerle	-13522
gevel	-13523
grote	-13524
oedel	-13525
ooide	-13526
stert	-13527
uttle	-13528
zeven	-13529
▁baai	-13530
▁bowl	-13531
▁drij	-13532
▁opro	-13533
▁ping	-13534
broers	-13535
eersch	-13536
entiek	-13537
ffraan	-13538
heffen	-13539
huizen	-13540
huttle	-13541
iberen	-13542
icatie	-13543
icieel	-13544
idatie	-13545
ieding	-13546
iedubb	-13547
iegels	-13548
iering	-13549
ieupro	-13550
igende	-13551
ijking	-13552
ilatie	-13553
ingang	-13554
ioxide	-13555
iscoop	-13556
istrib	-13557
itterd	-13558
izeerd	-13559
jechië	-13560
kadots	-13561
keerde	-13562
kersge	-13563
kleren	-13564
koeien	-13565
komend	-13566
kussen	-13567
lender	-13568
lethee	-13569
lusief	-13570
manent	-13571
meisje	-13572
melden	-13573
midden	-13574
minale	-13575
minton	-13576
nemelk	-13577
oelaat	-13578
oemder	-13579
offels	-13580
ontaan	-13581
orderd	-13582
ostuum	-13583
ouwing	-13584
record	-13585
rescos	-13586
ricade	-13587
roente	-13588
rokers	-13589
sbroer	-13590
sfruit	-13591
sponde	-13592
sporen	-13593
steert	-13594
stende	-13595
stoken	-13596
straft	-13597
stukje	-13598
ticket	-13599
aze	-13600
zes	-13601
▁eb	-13602
amas	-13603
amis	-13604
cenn	-13605
daag	-13606
menu	-13607
stam	-13608
ulpt	-13609
verb	-13610
▁eis	-13611
▁muz	-13612
amaat	-13613
ampte	-13614
edies	-13615
erpen	-13616
iches	-13617
ijpen	-13618
ofoob	-13619
zenuw	-13620
▁eier	-13621
▁intr	-13622
▁lion	-13623
▁schu	-13624
▁stam	-13625
▁suez	-13626
cennia	-13627
daagse	-13628
fferen	-13629
fiches	-13630
gevers	-13631
ittigd	-13632
landse	-13633
liepen	-13634
partij	-13635
ubbeld	-13636
uizing	-13637
ureerd	-13638
ustrie	-13639
uwnaar	-13640
vakken	-13641
verlof	-13642
vielen	-13643
voelen	-13644
waaien	-13645
waarom	-13646
wijdig	-13647
wissen	-13648
ysicus	-13649
zekerd	-13650
zingen	-13651
zoeker	-13652
▁aaien	-13653
▁aandr	-13654
▁alijd	-13655
▁allem	-13656
▁amand	-13657
▁apple	-13658
▁autof	-13659
▁beach	-13660
▁begij	-13661
▁behen	-13662
▁beken	-13663
▁bende	-13664
▁beoef	-13665
▁beoor	-13666
▁biesl	-13667
▁bijft	-13668
▁bijle	-13669
▁blaar	-13670
▁bonus	-13671
▁bouwm	-13672
▁brein	-13673
▁buurl	-13674
▁cadet	-13675
▁carri	-13676
▁categ	-13677
▁comaz	-13678
▁copyw	-13679
▁creat	-13680
▁cuzco	-13681
▁cyaan	-13682
▁dante	-13683
▁doggy	-13684
▁dosis	-13685
▁dress	-13686
▁dwaze	-13687
▁dwong	-13688
▁ebola	-13689
▁elite	-13690
▁energ	-13691
▁enter	-13692
▁erken	-13693
▁etter	-13694
▁feder	-13695
▁firew	-13696
▁flash	-13697
▁freel	-13698
▁fries	-13699
rau	-13700
dood	-13701
half	-13702
ocad	-13703
oelt	-13704
raum	-13705
umin	-13706
wist	-13707
▁dir	-13708
▁fdp	-13709
▁ore	-13710
alles	-13711
eeldt	-13712
inker	-13713
terug	-13714
▁daas	-13715
▁meld	-13716
▁spie	-13717
▁vist	-13718
gemoet	-13719
genote	-13720
kanaal	-13721
ocados	-13722
ochten	-13723
retten	-13724
semble	-13725
▁boden	-13726
▁crack	-13727
▁dring	-13728
▁geact	-13729
▁gedis	-13730
▁gekoe	-13731
▁genot	-13732
▁gepre	-13733
▁gesol	-13734
▁geten	-13735
▁ginds	-13736
▁gitar	-13737
▁goden	-13738
▁goeds	-13739
▁grasm	-13740
▁haard	-13741
▁halfr	-13742
▁hapje	-13743
▁hazel	-13744
▁helen	-13745
▁herop	-13746
▁hetel	-13747
▁hijgt	-13748
▁hoekt	-13749
▁huiss	-13750
▁ineen	-13751
▁inwil	-13752
▁kamil	-13753
▁kanar	-13754
▁kerkk	-13755
▁klank	-13756
▁klemt	-13757
▁klets	-13758
▁kloof	-13759
▁kloot	-13760
▁kneed	-13761
▁koala	-13762
▁kopij	-13763
▁krijt	-13764
▁kromp	-13765
▁kruip	-13766
▁kwast	-13767
▁kwebb	-13768
▁laden	-13769
▁lagen	-13770
▁leeds	-13771
▁lezer	-13772
▁lijve	-13773
▁limon	-13774
▁lingu	-13775
▁luxue	-13776
▁matje	-13777
▁medit	-13778
▁merel	-13779
▁meten	-13780
▁misbr	-13781
▁mispl	-13782
▁nagek	-13783
▁nagen	-13784
▁naief	-13785
▁nevel	-13786
▁niert	-13787
▁novel	-13788
▁obers	-13789
▁omgew	-13790
▁omsch	-13791
▁omvat	-13792
▁omver	-13793
▁onoff	-13794
▁onsch	-13795
▁ookal	-13796
▁oorde	-13797
▁opbel	-13798
▁opeen	-13799
oli	-13800
ols	-13801
opa	-13802
ush	-13803
loon	-13804
ogus	-13805
olon	-13806
rang	-13807
reit	-13808
rekt	-13809
wond	-13810
▁bol	-13811
▁rif	-13812
antum	-13813
etend	-13814
gesch	-13815
itish	-13816
schut	-13817
ushuc	-13818
utale	-13819
▁flor	-13820
▁geme	-13821
▁klik	-13822
▁leas	-13823
▁publ	-13824
▁seni	-13825
▁spre	-13826
▁werp	-13827
▁woei	-13828
digden	-13829
eemsen	-13830
geluid	-13831
hiopië	-13832
leboog	-13833
umloon	-13834
▁duldt	-13835
▁hoogm	-13836
▁impul	-13837
▁insch	-13838
▁opgeg	-13839
▁pacht	-13840
▁panik	-13841
▁pasje	-13842
▁pluis	-13843
▁puist	-13844
▁razen	-13845
▁robot	-13846
▁roeib	-13847
▁ruime	-13848
▁schei	-13849
▁schom	-13850
▁semia	-13851
▁skeel	-13852
▁slaag	-13853
▁slijp	-13854
▁slist	-13855
▁snaar	-13856
▁snijt	-13857
▁sombr	-13858
▁spaan	-13859
▁spaar	-13860
▁speen	-13861
▁spijb	-13862
▁spijk	-13863
▁sterf	-13864
▁stoet	-13865
▁suist	-13866
▁taalb	-13867
▁taboe	-13868
▁takje	-13869
▁tenor	-13870
▁tomas	-13871
▁trage	-13872
▁trakt	-13873
▁trapt	-13874
▁tvpro	-13875
▁uitch	-13876
▁uiten	-13877
▁uitga	-13878
▁uitsp	-13879
▁valut	-13880
▁varia	-13881
▁veelv	-13882
▁verdo	-13883
▁verft	-13884
▁vervl	-13885
▁vhals	-13886
▁vrijn	-13887
▁watje	-13888
▁weeft	-13889
▁weers	-13890
▁zadel	-13891
▁zegen	-13892
▁zucht	-13893
aadbaar	-13894
abbelen	-13895
antumme	-13896
apenden	-13897
ariteit	-13898
assific	-13899
jap	-13900
not	-13901
opo	-13902
aall	-13903
aals	-13904
apro	-13905
boot	-13906
naal	-13907
nter	-13908
oudt	-13909
viel	-13910
▁aal	-13911
▁cnn	-13912
▁got	-13913
▁kot	-13914
▁oap	-13915
beide	-13916
britt	-13917
delig	-13918
kleer	-13919
naait	-13920
ouwer	-13921
staal	-13922
voren	-13923
▁baal	-13924
▁gouw	-13925
▁gril	-13926
▁halt	-13927
▁kokk	-13928
▁lanc	-13929
▁lijd	-13930
▁proc	-13931
▁vouw	-13932
aarsen	-13933
aatjes	-13934
japans	-13935
▁banan	-13936
▁droop	-13937
▁graan	-13938
▁huwen	-13939
▁kotsm	-13940
▁kreng	-13941
▁noors	-13942
▁staal	-13943
▁uitgr	-13944
▁zuurp	-13945
aciteit	-13946
atiever	-13947
auterde	-13948
bedacht	-13949
beesten	-13950
beraden	-13951
bessens	-13952
brieven	-13953
chester	-13954
dioxide	-13955
dpadden	-13956
ductief	-13957
edatief	-13958
eddelen	-13959
eelzaal	-13960
eetalig	-13961
eldende	-13962
eldings	-13963
entaart	-13964
erdagen	-13965
ersnood	-13966
fibieën	-13967
fysicus	-13968
gelijke	-13969
geperst	-13970
gereden	-13971
harigen	-13972
ichting	-13973
idexter	-13974
ienieuw	-13975
iesbaar	-13976
ilanden	-13977
indende	-13978
ineerde	-13979
ingende	-13980
inkomen	-13981
intoler	-13982
isieven	-13983
izeerde	-13984
ketting	-13985
kruisen	-13986
namaals	-13987
newende	-13988
ochroom	-13989
ociëren	-13990
oefwerk	-13991
onkbald	-13992
onteren	-13993
opolies	-13994
orteerd	-13995
patitis	-13996
rechten	-13997
regelen	-13998
regende	-13999
ida	-14000
ixp	-14001
jab	-14002
ukr	-14003
itte	-14004
ruim	-14005
sent	-14006
▁flu	-14007
▁hak	-14008
▁ruw	-14009
▁tsj	-14010
aasen	-14011
ateur	-14012
beren	-14013
ersen	-14014
hater	-14015
idies	-14016
ieker	-14017
insen	-14018
meren	-14019
ueren	-14020
verte	-14021
▁boeg	-14022
▁brok	-14023
▁lukr	-14024
▁molk	-14025
▁mona	-14026
▁sixp	-14027
andeld	-14028
angens	-14029
bladen	-14030
delijk	-14031
inalen	-14032
pelijk	-14033
regent	-14034
reider	-14035
stemde	-14036
▁blijd	-14037
▁boekh	-14038
▁denen	-14039
▁lelie	-14040
▁miles	-14041
▁rilde	-14042
▁sapje	-14043
▁sjerp	-14044
▁sojab	-14045
▁tasje	-14046
▁tsjir	-14047
▁vieze	-14048
bsidies	-14049
overkop	-14050
prinsen	-14051
rekenen	-14052
salaris	-14053
sborden	-14054
sedeerd	-14055
serieus	-14056
sexamen	-14057
skleren	-14058
soleerd	-14059
soortig	-14060
speelde	-14061
sporing	-14062
spullen	-14063
spunten	-14064
stekens	-14065
steries	-14066
tenwijk	-14067
twintig	-14068
uistaak	-14069
uiterde	-14070
ulletje	-14071
utation	-14072
vanging	-14073
vatting	-14074
voetend	-14075
waarden	-14076
zenhout	-14077
zijdank	-14078
zinnige	-14079
zwembad	-14080
▁aansch	-14081
▁afdoen	-14082
▁afgesl	-14083
▁afweet	-14084
▁alibis	-14085
▁allerl	-14086
▁alumin	-14087
▁apothe	-14088
▁appelz	-14089
▁bederf	-14090
▁behoed	-14091
▁beproe	-14092
▁bergaf	-14093
▁bezorg	-14094
▁bikkel	-14095
▁blaren	-14096
▁blazen	-14097
▁boorde	-14098
▁botert	-14099
cid	-14100
gsn	-14101
anus	-14102
dame	-14103
emak	-14104
uito	-14105
▁hië	-14106
▁jus	-14107
corde	-14108
engel	-14109
enste	-14110
eraad	-14111
gelui	-14112
irten	-14113
monox	-14114
spomp	-14115
▁high	-14116
▁kong	-14117
▁moge	-14118
▁poos	-14119
▁roek	-14120
▁sted	-14121
▁tilt	-14122
▁weif	-14123
▁zeus	-14124
amiden	-14125
ankara	-14126
cidaal	-14127
gelden	-14128
gsnoer	-14129
heersb	-14130
heugen	-14131
inator	-14132
orence	-14133
voland	-14134
▁bierb	-14135
▁donau	-14136
▁doods	-14137
▁gapen	-14138
▁gooit	-14139
▁havik	-14140
▁klapl	-14141
▁koste	-14142
▁libië	-14143
▁petje	-14144
acrosse	-14145
artelen	-14146
cordeon	-14147
elijkse	-14148
emakkel	-14149
▁ankara	-14150
▁bramen	-14151
▁bukken	-14152
▁cellen	-14153
▁chirur	-14154
▁colada	-14155
▁colomb	-14156
▁cultur	-14157
▁darwin	-14158
▁defens	-14159
▁dekbed	-14160
▁design	-14161
▁desond	-14162
▁diepst	-14163
▁digger	-14164
▁divers	-14165
▁domste	-14166
▁draaft	-14167
▁eenden	-14168
▁egypte	-14169
▁elizab	-14170
▁emailt	-14171
▁ergere	-14172
▁extrem	-14173
▁finnen	-14174
▁forens	-14175
▁forten	-14176
▁gebuur	-14177
▁gedest	-14178
▁gedist	-14179
▁gefaxt	-14180
▁gekant	-14181
▁gemunt	-14182
▁genood	-14183
▁gepikt	-14184
▁geteld	-14185
▁geuren	-14186
▁gezags	-14187
▁graaft	-14188
▁haaien	-14189
▁hakken	-14190
▁haring	-14191
▁helden	-14192
▁heling	-14193
▁helmen	-14194
▁hemden	-14195
▁hemell	-14196
▁herver	-14197
▁hierin	-14198
▁hijgen	-14199
bui	-14200
lui	-14201
tra	-14202
edel	-14203
heil	-14204
iker	-14205
indd	-14206
kamp	-14207
zuig	-14208
advis	-14209
cakes	-14210
erker	-14211
hagen	-14212
petje	-14213
spart	-14214
uiken	-14215
zaakt	-14216
zakje	-14217
[...]
